<pad>	0
<unk>	0
<s>	0
</s>	0
▁이	-0
▁그	-1
▁있	-2
▁것	-3
▁아	-4
▁하	-5
▁수	-6
▁사	-7
▁어	-8
▁가	-9
니다	-10
▁대	-11
으로	-12
▁한	-13
에서	-14
▁정	-15
▁시	-16
▁나	-17
▁자	-18
▁지	-19
▁거	-20
▁않	-21
▁보	-22
▁없	-23
▁일	-24
▁다	-25
하는	-26
▁해	-27
▁내	-28
이다	-29
▁여	-30
▁때	-31
▁안	-32
▁모	-33
▁기	-34
▁오	-35
▁같	-36
▁있다	-37
▁인	-38
하고	-39
▁전	-40
▁문	-41
▁생	-42
▁말	-43
▁부	-44
지만	-45
▁주	-46
는데	-47
▁되	-48
습니다	-49
▁제	-50
▁상	-51
▁마	-52
▁공	-53
▁있는	-54
▁들	-55
▁우	-56
▁아니	-57
했다	-58
▁바	-59
▁너	-60
▁의	-61
▁고	-62
▁게	-63
▁위	-64
▁만	-65
다는	-66
▁못	-67
▁개	-68
들이	-69
에게	-70
▁무	-71
▁사람	-72
▁알	-73
▁중	-74
▁건	-75
▁경	-76
▁조	-77
▁잘	-78
▁선	-79
▁생각	-80
라고	-81
하게	-82
▁좋	-83
▁구	-84
▁문제	-85
▁국	-86
▁행	-87
▁것이	-88
▁할	-89
▁더	-90
▁비	-91
▁결	-92
▁방	-93
다고	-94
해서	-95
▁소	-96
▁많	-97
▁남	-98
었다	-99
▁너무	-100
나요	-101
▁요	-102
▁두	-103
▁이런	-104
▁반	-105
▁당	-106
까지	-107
▁감	-108
▁하는	-109
▁세	-110
▁불	-111
▁것은	-112
▁발	-113
어요	-114
▁관	-115
▁한다	-116
▁그런	-117
▁집	-118
▁도	-119
하면	-120
▁우리	-121
▁저	-122
가요	-123
▁학	-124
▁예	-125
▁같아	-126
렇게	-127
▁유	-128
하지	-129
▁살	-130
▁진	-131
▁미	-132
▁좀	-133
▁정말	-134
해야	-135
▁싶	-136
▁그래	-137
▁원	-138
으면	-139
▁실	-140
적으로	-141
▁단	-142
▁확	-143
▁때문	-144
▁현	-145
적인	-146
▁물	-147
▁올	-148
에는	-149
▁서	-150
▁있어	-151
..	-152
▁성	-153
▁연	-154
▁강	-155
▁신	-156
▁먹	-157
▁받	-158
▁그러	-159
▁맞	-160
▁거야	-161
▁과	-162
기를	-163
합니다	-164
▁분	-165
▁노	-166
▁어떻	-167
▁장	-168
▁어떻게	-169
▁시간	-170
▁있을	-171
▁모르	-172
지는	-173
리는	-174
▁언	-175
▁들어	-176
▁재	-177
▁교	-178
하다	-179
▁따	-180
▁없다	-181
▁간	-182
▁돌	-183
▁영	-184
▁최	-185
이라	-186
▁그는	-187
리고	-188
▁입	-189
니까	-190
▁앞	-191
들은	-192
▁통	-193
▁될	-194
▁걸	-195
▁없는	-196
▁음	-197
▁줄	-198
▁필	-199
▁것이다	-200
입니다	-201
▁이번	-202
▁달	-203
▁설	-204
▁등	-205
하기	-206
▁동	-207
▁같은	-208
▁풀	-209
▁배	-210
▁누	-211
이나	-212
▁뭐	-213
▁스	-214
았다	-215
▁시작	-216
▁것을	-217
▁계	-218
이가	-219
▁된	-220
▁자신	-221
▁어떤	-222
▁않아	-223
▁적	-224
▁새	-225
▁논	-226
▁하고	-227
▁힘	-228
▁돼	-229
들을	-230
네요	-231
▁얼	-232
기가	-233
▁필요	-234
▁다른	-235
▁공부	-236
▁번	-237
▁지금	-238
▁추	-239
면서	-240
세요	-241
▁책	-242
지를	-243
▁왜	-244
▁드	-245
▁상대	-246
▁날	-247
▁손	-248
▁내가	-249
▁치	-250
통령	-251
▁정부	-252
▁대통령	-253
▁피	-254
▁회	-255
▁역	-256
▁느	-257
부터	-258
▁열	-259
▁차	-260
▁음식	-261
였다	-262
까요	-263
▁모르겠	-264
▁태	-265
▁때문에	-266
에서는	-267
▁후	-268
▁않는	-269
▁이렇게	-270
▁요즘	-271
▁근	-272
▁대한	-273
▁직	-274
▁이제	-275
▁행동	-276
한다	-277
▁여러	-278
▁명	-279
▁속	-280
들의	-281
▁않고	-282
▁심	-283
▁눈	-284
▁본	-285
▁아이	-286
어야	-287
▁했	-288
▁죽	-289
려고	-290
▁파	-291
인데	-292
▁놓	-293
▁한국	-294
▁허	-295
▁마음	-296
▁인간	-297
▁또	-298
▁매	-299
▁많이	-300
▁평	-301
가는	-302
▁찾	-303
▁끝	-304
라는	-305
▁특	-306
▁폭	-307
▁가장	-308
▁변	-309
▁식	-310
▁갈	-311
처럼	-312
▁하지만	-313
▁엄	-314
▁데	-315
▁언제	-316
에도	-317
인지	-318
자가	-319
▁잠	-320
잖아	-321
▁점	-322
▁상황	-323
▁선생	-324
는지	-325
지고	-326
▁버	-327
▁선생님	-328
▁만들	-329
▁괜	-330
▁있습니다	-331
▁돌아	-332
▁그리고	-333
▁큰	-334
▁3	-335
▁넘	-336
▁이유	-337
▁뒤	-338
▁종	-339
▁그래서	-340
▁양	-341
▁독	-342
보다	-343
▁판	-344
▁운	-345
▁사람이	-346
되는	-347
▁작	-348
▁검	-349
▁잘못	-350
▁어려	-351
▁여기	-352
사를	-353
▁절	-354
어서	-355
▁길	-356
▁질	-357
상을	-358
▁'	-359
▁모든	-360
치는	-361
▁봐	-362
▁법	-363
▁좋은	-364
▁하나	-365
▁아니라	-366
▁정도	-367
▁친	-368
이었다	-369
▁준	-370
▁아무	-371
...	-372
▁편	-373
▁몰	-374
▁자리	-375
▁난	-376
▁채	-377
려면	-378
▁사회	-379
▁오늘	-380
▁위해	-381
▁무슨	-382
▁부분	-383
▁중요	-384
▁잔	-385
▁출	-386
▁방법	-387
▁궁	-388
▁뿐	-389
▁했다	-390
▁잡	-391
▁그렇게	-392
▁어디	-393
▁삶	-394
▁아직	-395
성이	-396
▁믿	-397
정이	-398
▁외	-399
▁것도	-400
▁증	-401
▁범	-402
드시	-403
인이	-404
▁가능	-405
▁제가	-406
▁궁금	-407
▁찾아	-408
▁결국	-409
자는	-410
▁보고	-411
▁목	-412
머니	-413
▁이해	-414
없이	-415
▁넘어	-416
▁아닌	-417
▁반드시	-418
▁학교	-419
▁가지	-420
▁일이	-421
▁형	-422
▁되는	-423
대로	-424
▁약	-425
▁내용	-426
다면	-427
▁국민	-428
상이	-429
▁나라	-430
▁모두	-431
▁좋아	-432
▁쓰	-433
일이	-434
르는	-435
▁해야	-436
▁담	-437
▁얘	-438
체가	-439
시면	-440
▁처	-441
▁건가요	-442
▁학생	-443
▁그렇	-444
▁조금	-445
▁청	-446
▁떨	-447
▁웃	-448
▁알아	-449
▁표	-450
▁답	-451
▁강의	-452
장을	-453
▁그냥	-454
▁망	-455
소리	-456
▁타	-457
▁나오	-458
▁포	-459
▁민	-460
연히	-461
▁해결	-462
▁친구	-463
▁수능	-464
▁경우	-465
▁쉽	-466
▁금	-467
▁화	-468
이야	-469
▁막	-470
▁보니	-471
중에	-472
하여	-473
▁지역	-474
▁사실	-475
▁만들어	-476
인가요	-477
▁북	-478
▁인생	-479
▁행위	-480
▁같아요	-481
▁그러나	-482
▁틀	-483
▁뛰	-484
주는	-485
▁따라	-486
▁읽	-487
기는	-488
▁새로	-489
▁질문	-490
만큼	-491
▁트	-492
▁높	-493
이라고	-494
라도	-495
▁권	-496
기에	-497
▁돈	-498
겠습니다	-499
▁애	-500
▁박	-501
리를	-502
▁김	-503
▁당신	-504
주의	-505
▁그런데	-506
▁곳	-507
같이	-508
▁아니다	-509
▁벌	-510
▁다시	-511
갔다	-512
▁합니다	-513
▁혹	-514
▁듣	-515
▁있나요	-516
▁익	-517
▁시험	-518
▁체	-519
▁며	-520
▁악	-521
수가	-522
▁잃	-523
▁면	-524
▁때는	-525
이고	-526
▁참	-527
심히	-528
▁계속	-529
▁뒤에	-530
▁어느	-531
▁책임	-532
▁있어야	-533
▁열심히	-534
▁둘	-535
▁살아	-536
▁괜찮	-537
▁있지	-538
▁보면	-539
▁각	-540
하시	-541
▁여러분	-542
▁토	-543
▁운동	-544
버지	-545
▁일을	-546
▁많은	-547
어져	-548
▁떠	-549
력을	-550
히려	-551
거든	-552
▁오히려	-553
▁것으로	-554
▁경제	-555
▁의미	-556
됩니다	-557
▁대표	-558
▁귀	-559
예요	-560
▁된다	-561
▁우리가	-562
▁협	-563
리가	-564
하지만	-565
겠어	-566
▁선택	-567
▁관심	-568
인은	-569
▁네	-570
▁등산	-571
▁하는데	-572
▁알고	-573
▁성공	-574
▁되고	-575
▁직접	-576
▁빠	-577
구나	-578
▁관련	-579
▁음식을	-580
▁부모	-581
물이	-582
▁때문이다	-583
▁같이	-584
에서도	-585
▁진짜	-586
▁으	-587
▁어머니	-588
▁발생	-589
▁사건	-590
▁몇	-591
▁행복	-592
▁몸	-593
▁크	-594
▁근데	-595
▁혼	-596
사는	-597
▁어른	-598
▁돼요	-599
다가	-600
▁사랑	-601
▁함	-602
▁합	-603
▁가족	-604
▁프	-605
▁나타	-606
▁옷	-607
다니	-608
인을	-609
이는	-610
▁필요한	-611
▁얼굴	-612
장이	-613
▁생각해	-614
이지	-615
▁가는	-616
▁먼	-617
▁말도	-618
▁대학	-619
▁꼭	-620
▁첫	-621
어나	-622
전히	-623
▁하면	-624
▁밥	-625
▁호	-626
▁다음	-627
밖에	-628
기도	-629
▁이게	-630
▁드러	-631
▁받아	-632
으니	-633
▁야	-634
▁됐	-635
▁칼	-636
▁나서	-637
수를	-638
▁수도	-639
▁없어	-640
▁꿈	-641
▁볼	-642
▁그럼	-643
▁오래	-644
▁자식	-645
▁설명	-646
자의	-647
▁힘들	-648
움이	-649
▁단계	-650
▁아니면	-651
▁글	-652
▁그래도	-653
▁갖	-654
▁산	-655
▁복	-656
▁접	-657
하면서	-658
이에	-659
했습니다	-660
▁깨	-661
▁넓	-662
▁메	-663
▁말씀	-664
▁바이	-665
가를	-666
▁준비	-667
▁않은	-668
려는	-669
▁좋을	-670
▁존	-671
스러	-672
더니	-673
▁사고	-674
장은	-675
▁자기	-676
▁까	-677
이라는	-678
▁흐	-679
▁통해	-680
▁끊	-681
▁완	-682
력이	-683
▁개념	-684
▁얼마	-685
▁해서	-686
▁있다고	-687
▁패	-688
되어	-689
▁이상	-690
겼다	-691
▁북한	-692
▁시민	-693
▁암	-694
▁투	-695
상에	-696
▁미국	-697
졌다	-698
▁뜻	-699
▁순	-700
신이	-701
▁정치	-702
▁꼼	-703
▁하지	-704
▁지켜	-705
거나	-706
▁나와	-707
▁바라	-708
▁거예요	-709
▁거의	-710
▁의무	-711
의가	-712
▁범죄	-713
▁문제를	-714
정을	-715
▁세계	-716
▁항	-717
▁머	-718
▁무엇	-719
▁농	-720
▁궁금합니다	-721
▁도착	-722
▁임	-723
▁엄마	-724
▁자유	-725
▁꾸	-726
▁놀	-727
▁5	-728
▁찌	-729
▁빨	-730
▁새로운	-731
▁어제	-732
▁쉬	-733
해도	-734
▁충	-735
아서	-736
▁말이	-737
▁뭔	-738
▁문제가	-739
▁아무리	-740
▁있으	-741
▁저는	-742
▁자신의	-743
▁일본	-744
▁해도	-745
▁결과	-746
이션	-747
▁환	-748
어를	-749
▁푸	-750
해요	-751
▁프로	-752
▁늦	-753
▁초	-754
▁커	-755
▁군	-756
▁왔	-757
▁다르	-758
▁않았다	-759
놓고	-760
▁선거	-761
▁1	-762
▁듯	-763
스로	-764
들에게	-765
마가	-766
▁육	-767
행을	-768
▁있었	-769
▁별	-770
▁싶다	-771
▁있고	-772
▁없을	-773
▁한번	-774
▁님	-775
▁보여	-776
▁그러면	-777
▁숙	-778
▁확실	-779
▁나중에	-780
▁개수	-781
▁않는다	-782
▁이거	-783
도록	-784
▁기억	-785
▁되지	-786
▁봤	-787
크를	-788
▁있다는	-789
▁싫	-790
▁희	-791
▁늘	-792
▁문화	-793
▁이미	-794
▁말을	-795
▁바로	-796
▁스스로	-797
이도	-798
▁사용	-799
▁삼	-800
▁나타나	-801
▁해석	-802
▁익숙	-803
▁먼저	-804
▁중요한	-805
▁납	-806
▁들러	-807
▁요즘은	-808
▁규	-809
▁멋	-810
▁어렵	-811
▁됩니다	-812
▁아닌가요	-813
▁리	-814
▁설거	-815
내는	-816
▁감독	-817
▁구분	-818
▁사진	-819
▁하시	-820
▁일반	-821
▁확인	-822
▁여전히	-823
▁대해	-824
▁급	-825
▁이를	-826
▁웬	-827
▁존재	-828
▁어려운	-829
▁피해	-830
▁하루	-831
▁4	-832
된다	-833
▁건강	-834
▁만나	-835
▁정부의	-836
사가	-837
껍질	-838
▁있어요	-839
▁월	-840
자를	-841
▁감사	-842
▁아는	-843
▁걱	-844
▁있을까	-845
봐야	-846
▁혹시	-847
▁하셨	-848
▁이후	-849
▁힘든	-850
▁효	-851
상으로	-852
▁있지만	-853
▁얘기	-854
는다	-855
▁용	-856
구하고	-857
▁사과	-858
을까	-859
▁며칠	-860
▁들어가	-861
드는	-862
▁물론	-863
▁빨리	-864
▁주는	-865
▁올라	-866
▁일단	-867
▁수밖에	-868
▁최고	-869
▁신발	-870
▁서로	-871
아야	-872
해진	-873
▁정보	-874
▁똑	-875
도로	-876
성을	-877
통을	-878
▁간에	-879
▁그의	-880
▁모르겠어요	-881
겠다는	-882
▁행동을	-883
▁꽃	-884
가가	-885
▁시간이	-886
▁싸	-887
▁취	-888
▁지속	-889
▁병	-890
▁없이	-891
▁불과	-892
렸다	-893
▁얼마나	-894
하려는	-895
▁상황이	-896
▁겁	-897
▁보는	-898
▁중국	-899
▁치르	-900
▁어찌	-901
▁압	-902
▁끌	-903
▁불구하고	-904
▁못했다	-905
▁논문	-906
▁여름	-907
▁하다	-908
말을	-909
그램	-910
▁안전	-911
▁결혼	-912
▁사태	-913
▁제출	-914
았는데	-915
이팅	-916
러스	-917
▁역할	-918
▁잃고	-919
▁업	-920
석을	-921
▁기대	-922
▁의견	-923
도를	-924
라서	-925
▁자세	-926
▁이번에	-927
화를	-928
▁이유가	-929
지막	-930
한다는	-931
▁수학	-932
▁요구	-933
▁아니오	-934
▁일이다	-935
마다	-936
▁프로그램	-937
▁가져	-938
▁예정	-939
▁자신이	-940
▁입맛	-941
▁뛰어	-942
▁팀	-943
▁있었다	-944
위가	-945
▁기출	-946
▁갑	-947
식을	-948
▁카	-949
▁케	-950
했던	-951
동안	-952
▁노래	-953
▁싶은	-954
▁연예	-955
▁사람을	-956
▁활	-957
▁처음	-958
▁반복	-959
▁큰소리	-960
▁온	-961
▁총	-962
소에	-963
▁마스	-964
▁지문	-965
셔서	-966
▁있어서	-967
▁홍	-968
님의	-969
게요	-970
▁사는	-971
더라고	-972
계를	-973
에든	-974
▁기술	-975
▁뻔	-976
▁검찰	-977
▁교재	-978
도에서	-979
▁바이러스	-980
▁정확	-981
감이	-982
▁깨끗	-983
▁보자	-984
▁드러내	-985
▁골	-986
▁움	-987
▁써	-988
▁하니	-989
▁있으면	-990
▁극	-991
▁탄	-992
▁결코	-993
▁싫어	-994
▁오랜	-995
▁밤	-996
▁마을	-997
▁판단	-998
▁만난	-999
▁이것	-1000
▁에	-1001
▁스태	-1002
▁대통령이	-1003
▁않게	-1004
▁철	-1005
하였	-1006
▁지난	-1007
▁집안	-1008
▁떨어져	-1009
▁영화	-1010
▁대책	-1011
▁만에	-1012
▁관심을	-1013
▁해당	-1014
▁나오는	-1015
▁배우	-1016
▁꼼꼼	-1017
▁으름	-1018
▁으름장을	-1019
께서	-1020
명이	-1021
로서	-1022
▁되었	-1023
▁겁니다	-1024
▁퍼	-1025
그플	-1026
▁움직	-1027
▁채소	-1028
▁스태그플	-1029
▁명령	-1030
▁농약	-1031
▁동안	-1032
▁비판	-1033
겠네요	-1034
▁약속	-1035
▁도움이	-1036
▁인간이	-1037
▁진행	-1038
원이	-1039
▁향	-1040
▁멀	-1041
▁와	-1042
▁매일	-1043
▁마음이	-1044
▁먹어야	-1045
왔다	-1046
▁현실	-1047
더라고요	-1048
▁기업	-1049
▁여자	-1050
▁되나요	-1051
▁생각이	-1052
르르	-1053
▁않을	-1054
▁회사	-1055
▁엎	-1056
잖아요	-1057
▁전체가	-1058
▁위한	-1059
▁이름	-1060
▁않나요	-1061
▁잘못된	-1062
▁길을	-1063
▁것인	-1064
▁남아	-1065
주주의	-1066
▁창	-1067
의를	-1068
▁수는	-1069
만이	-1070
▁이럴	-1071
아버지	-1072
▁저도	-1073
▁집에	-1074
▁여행을	-1075
▁자리에	-1076
▁하였다	-1077
아리	-1078
주세요	-1079
▁축	-1080
▁말고	-1081
▁않다	-1082
므로	-1083
스럽	-1084
▁올바	-1085
들도	-1086
하며	-1087
▁뛰면	-1088
겠다	-1089
보는	-1090
▁까르르	-1091
▁상태	-1092
▁지하	-1093
▁힘든데	-1094
▁결정	-1095
▁벌써	-1096
▁부모님의	-1097
▁찍	-1098
하자	-1099
▁이야	-1100
▁흔	-1101
▁하나는	-1102
착한	-1103
▁큐	-1104
선을	-1105
▁인사	-1106
더라도	-1107
▁짜	-1108
겠지만	-1109
▁서슴	-1110
▁앞에서는	-1111
▁넓은	-1112
▁불안	-1113
▁은	-1114
▁핵	-1115
음을	-1116
▁명령을	-1117
▁그때	-1118
▁전체	-1119
▁지나	-1120
장에서	-1121
▁서슴지	-1122
▁안타	-1123
▁연구	-1124
▁마스터	-1125
▁십	-1126
지가	-1127
▁발표	-1128
▁올바른	-1129
스트	-1130
고요	-1131
▁지하철	-1132
▁솔	-1133
▁쌀	-1134
▁자체	-1135
▁큐브	-1136
▁문제는	-1137
줄게	-1138
갓집	-1139
▁손톱	-1140
▁찌푸	-1141
▁종갓집	-1142
▁있을까요	-1143
▁오후	-1144
▁눈살	-1145
▁아픔	-1146
해서는	-1147
▁큐브위	-1148
▁섭	-1149
하다는	-1150
만에	-1151
▁가르	-1152
▁한숨	-1153
▁니	-1154
▁루	-1155
까운	-1156
▁아버지	-1157
적이	-1158
▁꼼꼼히	-1159
▁위기를	-1160
▁깊	-1161
▁붙	-1162
부절	-1163
▁안절	-1164
부절못	-1165
▁안절부절못	-1166
▁토속	-1167
▁어때	-1168
해졌다	-1169
▁하려고	-1170
한테	-1171
▁솔직	-1172
▁당하는	-1173
계가	-1174
도가	-1175
▁못한	-1176
▁국물이	-1177
▁그러니까	-1178
▁어른들이	-1179
▁인정	-1180
▁절대	-1181
▁집중	-1182
든지	-1183
▁고민	-1184
▁않았	-1185
▁익숙지	-1186
▁봄	-1187
▁오랜만에	-1188
▁풍	-1189
거든요	-1190
하세요	-1191
▁베	-1192
▁먹을	-1193
▁과정	-1194
▁정리	-1195
▁있는데	-1196
▁국가	-1197
▁기회	-1198
▁수업	-1199
▁어머니는	-1200
번이	-1201
스를	-1202
▁행동이	-1203
▁떠나	-1204
▁태형	-1205
▁되어	-1206
▁사내	-1207
▁경험	-1208
▁세상	-1209
▁넣	-1210
▁억	-1211
▁함께	-1212
▁낮	-1213
기관	-1214
날에	-1215
▁곰	-1216
▁기본	-1217
▁심각	-1218
들여	-1219
거리	-1220
▁내려	-1221
▁갔	-1222
기까지	-1223
▁봐도	-1224
▁할까	-1225
▁년	-1226
치락	-1227
▁주시	-1228
▁방에	-1229
▁확실히	-1230
림을	-1231
분쯤	-1232
▁쉽게	-1233
▁적은	-1234
산이	-1235
▁누워	-1236
▁부양	-1237
▁하기	-1238
▁짭	-1239
▁구조	-1240
▁지긋	-1241
▁앞으로	-1242
았어	-1243
▁부담	-1244
▁수가	-1245
▁방법이	-1246
▁터	-1247
로워	-1248
지긋	-1249
▁못해	-1250
▁언론	-1251
▁지긋지긋	-1252
▁전에	-1253
▁일찍	-1254
▁판매	-1255
▁제대로	-1256
▁졸	-1257
▁기준	-1258
평아리	-1259
평아리인지	-1260
▁겸	-1261
▁혐	-1262
른다	-1263
▁아이들은	-1264
▁국회	-1265
▁분위	-1266
▁효과	-1267
▁국민의	-1268
건대	-1269
▁위험	-1270
▁의원	-1271
▁그게	-1272
▁타고	-1273
▁했을	-1274
하였다	-1275
잖아도	-1276
▁살아가	-1277
리에	-1278
스가	-1279
▁이러	-1280
님이	-1281
있는	-1282
키는	-1283
▁그건	-1284
▁정책	-1285
▁생각건대	-1286
▁혼자	-1287
다는데	-1288
질이	-1289
▁인간은	-1290
위를	-1291
▁후회	-1292
겠죠	-1293
사리	-1294
웠다	-1295
▁"	-1296
▁쓰는	-1297
▁흐르는	-1298
▁백	-1299
껍데	-1300
▁격	-1301
▁담배	-1302
▁솔직히	-1303
이라니	-1304
▁응	-1305
리지	-1306
자기	-1307
대에	-1308
▁공공	-1309
▁믿을	-1310
▁없었	-1311
▁위기	-1312
▁마라	-1313
▁가해	-1314
▁살찐	-1315
▁케이	-1316
▁포기	-1317
▁쉽사리	-1318
▁파이팅	-1319
돈을	-1320
▁받고	-1321
없는	-1322
▁변화	-1323
▁행위는	-1324
▁멈	-1325
생을	-1326
나라	-1327
▁누구	-1328
▁곧	-1329
▁그것	-1330
▁시작했다	-1331
▁많다	-1332
▁무서	-1333
00	-1334
▁쳐	-1335
놔야	-1336
아이	-1337
▁챙	-1338
▁이루	-1339
▁낙	-1340
▁딸	-1341
▁모습	-1342
▁더욱	-1343
▁여기서	-1344
▁듣고	-1345
▁과목	-1346
▁놓아	-1347
▁상대에게	-1348
▁올해	-1349
▁특히	-1350
▁표현	-1351
▁일은	-1352
▁설거지를	-1353
▁땅	-1354
맞은	-1355
▁조건	-1356
▁어이가	-1357
되고	-1358
▁여친	-1359
▁죽고	-1360
▁끝나	-1361
▁손실	-1362
▁없다면	-1363
▁솥	-1364
▁걸로	-1365
▁숙맥	-1366
▁곤	-1367
▁밝	-1368
우는	-1369
▁다니	-1370
▁승	-1371
▁거짓	-1372
스러운	-1373
▁느끼	-1374
▁했는데	-1375
▁짓	-1376
시를	-1377
▁상관	-1378
▁생각에	-1379
되지	-1380
▁수준	-1381
려다	-1382
소를	-1383
▁물에	-1384
어진	-1385
▁있대	-1386
▁여자는	-1387
더러	-1388
▁전쟁	-1389
▁제공	-1390
▁쪽	-1391
점을	-1392
째로	-1393
▁재판	-1394
▁풀어	-1395
▁보이	-1396
하려고	-1397
▁귤	-1398
▁지켜야	-1399
▁버티	-1400
▁불가	-1401
▁실제	-1402
▁휴	-1403
▁자꾸	-1404
▁며느	-1405
라야	-1406
▁이용	-1407
▁하셨는데	-1408
아의	-1409
움을	-1410
▁침	-1411
▁경찰	-1412
이에요	-1413
▁일어	-1414
▁항상	-1415
▁가끔	-1416
▁소비	-1417
가지	-1418
▁관계	-1419
▁걷	-1420
▁교육	-1421
▁중에	-1422
▁갑자기	-1423
▁흥	-1424
▁달려	-1425
▁바람	-1426
▁귤껍질	-1427
▁잤	-1428
▁먹던	-1429
▁받는	-1430
▁없다고	-1431
▁가려면	-1432
▁대가를	-1433
시간	-1434
하기도	-1435
▁슬	-1436
▁꿈을	-1437
▁모르겠습니다	-1438
감을	-1439
방에	-1440
▁어려워	-1441
같은	-1442
▁기다	-1443
당하고	-1444
▁성격	-1445
▁음식이	-1446
단다	-1447
▁또는	-1448
했는데	-1449
▁사람은	-1450
▁언제나	-1451
▁괜찮아	-1452
일까	-1453
지도	-1454
▁원래	-1455
▁행사	-1456
▁뒷	-1457
▁개인	-1458
▁남을	-1459
▁폐	-1460
시가	-1461
▁문제다	-1462
▁퉁	-1463
시다	-1464
▁아름	-1465
▁가능한	-1466
▁얻	-1467
▁퉁퉁	-1468
▁우연히	-1469
▁케이크를	-1470
▁맞춰	-1471
물을	-1472
▁흘	-1473
▁매우	-1474
▁먹고	-1475
립니다	-1476
으로서	-1477
!'	-1478
▁같다	-1479
▁나의	-1480
▁순간	-1481
▁자료	-1482
▁꺼	-1483
▁권력	-1484
▁서울	-1485
▁알려	-1486
▁자주	-1487
▁땐	-1488
웠어	-1489
바로	-1490
▁투자	-1491
▁생각을	-1492
▁얼굴이	-1493
추지	-1494
해지	-1495
▁최선	-1496
시는	-1497
▁영어	-1498
▁미성	-1499
▁방향	-1500
▁예상	-1501
▁상황을	-1502
▁알아야	-1503
▁모르겠다	-1504
치고	-1505
▁나는	-1506
▁시끄	-1507
▁정보를	-1508
성의	-1509
정한	-1510
▁내신	-1511
▁폭염	-1512
▁우리의	-1513
▁인간의	-1514
▁선생님이	-1515
으나	-1516
▁가면	-1517
▁내용은	-1518
▁통째로	-1519
둑을	-1520
자고	-1521
▁미성년	-1522
▁탐	-1523
줘야	-1524
▁그럴	-1525
▁현관	-1526
▁반대	-1527
▁합격	-1528
하던	-1529
자에	-1530
▁부족	-1531
▁맛	-1532
도에	-1533
▁내일이	-1534
▁일어나	-1535
빛이	-1536
▁다행	-1537
▁눈이	-1538
▁우리는	-1539
▁굴	-1540
▁둑을	-1541
▁대중	-1542
▁역시	-1543
▁엄마는	-1544
▁팬	-1545
▁답변	-1546
▁대로	-1547
▁시각	-1548
▁에너	-1549
▁답이	-1550
▁내일이면	-1551
려서	-1552
▁눈에	-1553
생들	-1554
▁거죠	-1555
▁업무	-1556
▁그래야	-1557
하겠습니다	-1558
▁가지고	-1559
▁모의	-1560
▁영향	-1561
▁쳐다	-1562
▁공공기관	-1563
개장	-1564
량을	-1565
▁발견	-1566
▁회복	-1567
▁육개장	-1568
▁겨	-1569
소한	-1570
▁문을	-1571
▁형성	-1572
▁나온	-1573
▁뿐이야	-1574
지어	-1575
▁노동	-1576
▁억울	-1577
▁자녀	-1578
▁없겠네요	-1579
▁훈	-1580
▁둘러	-1581
▁사라	-1582
▁소리	-1583
▁실패	-1584
▁퇴	-1585
시켜	-1586
인다	-1587
▁이해가	-1588
▁필요가	-1589
▁중요하다	-1590
▁갖고	-1591
▁아름다	-1592
▁끔	-1593
품이	-1594
▁과거	-1595
이를	-1596
▁못하는	-1597
▁정부는	-1598
느냐	-1599
▁들을	-1600
▁입학	-1601
거리를	-1602
이라도	-1603
▁민주주의	-1604
▁굳	-1605
▁심지어	-1606
대가	-1607
음이	-1608
▁자극	-1609
▁하나요	-1610
▁끔찍	-1611
▁토론	-1612
▁거지	-1613
▁맞지	-1614
▁울	-1615
세를	-1616
장에	-1617
▁맞는	-1618
▁때까지	-1619
▁녀	-1620
도한	-1621
▁소나	-1622
▁잠깐	-1623
▁푸는	-1624
▁단어	-1625
수에	-1626
▁상대방	-1627
▁만큼	-1628
▁멀쩡	-1629
▁목표	-1630
에요	-1631
겠지	-1632
▁누가	-1633
▁청와	-1634
만으로	-1635
소가	-1636
▁대답	-1637
▁수사	-1638
부분	-1639
▁수행	-1640
▁시청	-1641
▁다르다	-1642
▁모의고	-1643
경보	-1644
▁분이	-1645
▁똑바로	-1646
▁딱	-1647
▁싶어	-1648
▁아니었	-1649
▁개발	-1650
▁그룹	-1651
식의	-1652
▁그다	-1653
▁느낌	-1654
▁남에게	-1655
▁어려울	-1656
사고	-1657
▁꽤	-1658
▁욕	-1659
▁택	-1660
▁간의	-1661
▁누군	-1662
▁못하고	-1663
▁중에서	-1664
▁위기경보	-1665
▁섬	-1666
▁아프	-1667
▁있을지	-1668
▁했다는	-1669
▁노력	-1670
▁최종	-1671
▁발생하는	-1672
▁맨	-1673
하실	-1674
화의	-1675
▁게시	-1676
▁내놓	-1677
▁짭짤	-1678
▁후보	-1679
▁벗	-1680
▁잊	-1681
▁독서	-1682
▁잠을	-1683
▁충분	-1684
▁입맛을	-1685
▁갈등	-1686
▁그치	-1687
가야	-1688
▁오르	-1689
▁정부가	-1690
대표	-1691
류를	-1692
어질	-1693
▁나쁜	-1694
▁따르	-1695
▁현재	-1696
해지는	-1697
▁만나는	-1698
만의	-1699
▁복습	-1700
▁해주	-1701
▁훈련	-1702
▁공부를	-1703
▁마스터님	-1704
▁사람이다	-1705
▁같습니다	-1706
▁측	-1707
관이	-1708
우고	-1709
▁국정	-1710
▁들고	-1711
▁쭉	-1712
수록	-1713
▁아파	-1714
지에	-1715
▁버릇	-1716
길을	-1717
었을	-1718
었는데	-1719
▁강의를	-1720
란다	-1721
식에	-1722
▁달라	-1723
▁따로	-1724
▁방문	-1725
▁거짓말을	-1726
▁값	-1727
▁돌아가요	-1728
명의	-1729
▁과연	-1730
▁실수를	-1731
하든	-1732
▁것인가요	-1733
▁코	-1734
났다	-1735
▁가슴	-1736
▁넣어	-1737
▁리더	-1738
▁사정	-1739
▁야당	-1740
▁그다음	-1741
이한	-1742
져나	-1743
▁국어	-1744
▁그리	-1745
▁그만	-1746
▁다양	-1747
▁발휘	-1748
▁걱정이	-1749
▁장마가	-1750
▁낭	-1751
▁몫	-1752
▁고통을	-1753
▁마지막	-1754
도는	-1755
들과	-1756
▁없습니다	-1757
▁왠	-1758
익을	-1759
▁검색	-1760
▁늦게	-1761
▁왠지	-1762
▁우주	-1763
▁털	-1764
기와	-1765
무를	-1766
박이	-1767
세에	-1768
점이	-1769
▁미워	-1770
▁생존	-1771
▁아닙	-1772
▁싶어요	-1773
아가	-1774
▁느낀	-1775
▁분명	-1776
▁스타	-1777
했지만	-1778
▁대해서	-1779
▁세계의	-1780
▁소나기	-1781
▁크게	-1782
▁기억을	-1783
▁붉	-1784
성과	-1785
▁들지	-1786
▁걱정	-1787
▁뭐가	-1788
▁약간	-1789
▁사건은	-1790
▁오늘은	-1791
▁빈	-1792
▁염	-1793
어지	-1794
▁마련	-1795
▁있니	-1796
한다고	-1797
▁정시	-1798
▁있단다	-1799
▁교통	-1800
▁주기	-1801
▁들어보	-1802
▁상대로	-1803
▁아이들이	-1804
▁내일	-1805
▁반찬	-1806
▁삶이	-1807
▁점검	-1808
▁리더십	-1809
▁것입니다	-1810
▁그렇다면	-1811
▁떼	-1812
드릴	-1813
만한	-1814
▁한쪽	-1815
▁둘러싼	-1816
▁이름을	-1817
▁곁	-1818
▁천	-1819
미가	-1820
셔야	-1821
▁원내	-1822
▁이는	-1823
▁추천	-1824
▁칼럼	-1825
▁운동을	-1826
▁득	-1827
▁고려	-1828
▁논리	-1829
랍니다	-1830
버렸	-1831
▁앞에	-1832
▁인식	-1833
▁별도로	-1834
▁원인을	-1835
▁굳이	-1836
▁봐서	-1837
▁신뢰	-1838
▁높은	-1839
▁독립	-1840
▁역할을	-1841
텐데	-1842
판에	-1843
▁미안	-1844
▁부정	-1845
▁없다는	-1846
▁감사합니다	-1847
▁가볍	-1848
▁유리	-1849
▁정국	-1850
▁조언	-1851
장의	-1852
점에	-1853
▁유명	-1854
는다고	-1855
▁부분이	-1856
▁곳을	-1857
▁만약	-1858
▁비슷	-1859
▁혐오	-1860
▁날아	-1861
▁바꾸	-1862
▁일부	-1863
보다는	-1864
하고도	-1865
▁분위기가	-1866
우지	-1867
▁꾸준	-1868
▁사이	-1869
▁의사	-1870
▁있다면	-1871
▁원내대표	-1872
▁인간들이	-1873
▁몰아	-1874
▁숨	-1875
▁분석	-1876
▁작년	-1877
▁앞에서	-1878
러워	-1879
▁두루	-1880
▁생긴	-1881
▁최근	-1882
▁최고의	-1883
▁묻	-1884
▁뭘	-1885
회에	-1886
▁내에	-1887
▁헷	-1888
▁구경	-1889
▁노골	-1890
▁논술	-1891
▁헷갈	-1892
▁시청자	-1893
▁긴	-1894
▁칠	-1895
▁계획	-1896
▁끊임	-1897
▁모여	-1898
트는	-1899
▁대책이	-1900
▁싶다는	-1901
▁평소에	-1902
▁폭력을	-1903
▁궤	-1904
▁빼	-1905
▁씻	-1906
산에	-1907
선과	-1908
▁번째	-1909
▁생겨	-1910
▁먹으면	-1911
▁성공과	-1912
듯이	-1913
▁엄청	-1914
▁읽으면	-1915
외로	-1916
▁때가	-1917
▁소유	-1918
▁주주	-1919
▁사람에게	-1920
탄을	-1921
▁가득	-1922
▁시급	-1923
▁전국	-1924
▁정말로	-1925
치를	-1926
▁버스	-1927
▁의견을	-1928
▁쥐	-1929
성한	-1930
임이	-1931
푸르	-1932
▁다를	-1933
▁봄이	-1934
굽이	-1935
대만	-1936
으락	-1937
▁같지	-1938
▁집을	-1939
술하게	-1940
푸르락	-1941
▁붉으락	-1942
▁붉으락푸르락	-1943
▁씨	-1944
한데	-1945
▁고통	-1946
▁남녀	-1947
▁짓을	-1948
▁텐데	-1949
▁대부분	-1950
▁인하여	-1951
▁주머니	-1952
세의	-1953
▁그림	-1954
▁나왔	-1955
▁보낸	-1956
▁사장	-1957
▁털어	-1958
▁교통사고	-1959
느라	-1960
속에	-1961
▁대체	-1962
▁스트	-1963
▁두루뭉	-1964
▁끊임없이	-1965
됐다	-1966
쳤다	-1967
▁이사	-1968
▁대표적인	-1969
속도	-1970
태를	-1971
혀야	-1972
▁몸에	-1973
▁있게	-1974
▁가볍게	-1975
▁있는지	-1976
집은	-1977
측한	-1978
▁조용	-1979
하기가	-1980
▁스트레	-1981
▁두루뭉술하게	-1982
▁굴복	-1983
▁너희	-1984
▁어이	-1985
계에서	-1986
▁들어오	-1987
▁망측한	-1988
▁노골적으로	-1989
▁비상	-1990
▁이날	-1991
▁조금만	-1992
▁책상에	-1993
▁돌아다니	-1994
▁프로그램을	-1995
▁보였다	-1996
▁바랍니다	-1997
▁셋	-1998
▁줬	-1999
르신	-2000
음에도	-2001
▁아들을	-2002
▁인생의	-2003
▁빛	-2004
▁느낄	-2005
▁시리	-2006
▁벽	-2007
겨지	-2008
▁놓았다	-2009
▁되어서	-2010
▁어디로	-2011
▁어르신	-2012
▁엄연히	-2013
▁아니었다	-2014
▁팍	-2015
시된	-2016
품을	-2017
▁두렵	-2018
▁사서	-2019
▁오른	-2020
▁패배	-2021
▁가방에	-2022
▁어디서	-2023
▁행위가	-2024
운데	-2025
하신	-2026
학을	-2027
▁개혁	-2028
▁허무	-2029
리라고	-2030
▁학생을	-2031
로로	-2032
▁거친	-2033
▁교환	-2034
▁달아	-2035
▁도와	-2036
▁마케	-2037
▁우려	-2038
▁이론	-2039
하다고	-2040
▁제출한	-2041
▁씁	-2042
싸고	-2043
질을	-2044
▁끌고	-2045
▁나눠	-2046
▁느꼈	-2047
▁돈을	-2048
▁물을	-2049
▁추구	-2050
관에게	-2051
법으로	-2052
▁역량을	-2053
▁책들을	-2054
▁보게	-2055
레이션	-2056
▁될까요	-2057
▁못하게	-2058
▁최소한	-2059
▁능	-2060
해는	-2061
▁비가	-2062
해주는	-2063
▁논문이	-2064
▁부분에	-2065
▁올라왔	-2066
▁게시판에	-2067
▁아니지만	-2068
기로	-2069
꾸로	-2070
비한	-2071
▁과일	-2072
▁내게	-2073
▁마케팅	-2074
▁한국인	-2075
▁모르겠지만	-2076
날이	-2077
파로	-2078
▁남친	-2079
▁너를	-2080
▁흔히	-2081
넣으면	-2082
▁논문을	-2083
▁모르니	-2084
▁얼굴에	-2085
▁자리가	-2086
▁정해진	-2087
관적으로	-2088
▁객	-2089
▁쑤	-2090
▁밥을	-2091
▁서양	-2092
▁아님	-2093
▁용의	-2094
▁재산	-2095
▁거꾸로	-2096
▁꾸준히	-2097
▁사진이	-2098
▁확인이	-2099
▁광	-2100
▁면접	-2101
▁목적	-2102
▁쑤셔	-2103
▁팍팍	-2104
▁그동안	-2105
▁해놓고	-2106
▁후세에	-2107
▁것이라고	-2108
▁어이없는	-2109
▁주머니에	-2110
▁교통사고로	-2111
▁스스로에게	-2112
▁떡	-2113
료는	-2114
▁두려	-2115
▁소개	-2116
▁꾸겨지	-2117
▁상대편	-2118
▁꾸겨지잖아	-2119
▁쑤셔넣으면	-2120
▁:	-2121
집기	-2122
▁대응	-2123
▁마트	-2124
▁버티고	-2125
▁사고가	-2126
▁시간을	-2127
▁행사한	-2128
버리	-2129
▁게재	-2130
▁겨울	-2131
▁듯한	-2132
▁뜻을	-2133
▁뻔뻔	-2134
▁영혼	-2135
▁허리	-2136
▁깨끗이	-2137
▁끔찍이	-2138
▁억울한	-2139
▁이번엔	-2140
▁인기를	-2141
기지	-2142
▁대화	-2143
▁자는	-2144
▁다음에	-2145
▁불과한	-2146
▁여기던	-2147
기의	-2148
▁고등	-2149
▁대필	-2150
▁돌멩	-2151
▁생때	-2152
▁편의	-2153
▁허우	-2154
러지는	-2155
▁대표이	-2156
▁짜집기	-2157
▁회사는	-2158
▁구경시켜	-2159
▁국민에게	-2160
▁굴복하지	-2161
▁대필까지	-2162
▁생때같은	-2163
▁사정관에게	-2164
▁허무해졌다	-2165
보단	-2166
영할	-2167
▁가로	-2168
▁감각	-2169
▁강원	-2170
▁오일	-2171
▁중심	-2172
▁알지만	-2173
▁퍼져나	-2174
▁돌멩이가	-2175
▁돌아다니며	-2176
▁주주들에게	-2177
▁구경시켜줄게	-2178
파만	-2179
하셨	-2180
▁루머	-2181
▁바를	-2182
▁부부	-2183
▁시원	-2184
▁줘야	-2185
▁시리즈	-2186
▁일파만	-2187
▁대통령의	-2188
▁왕	-2189
금은	-2190
▁애에	-2191
▁어깨	-2192
▁유단	-2193
인데도	-2194
함에도	-2195
▁다행히	-2196
▁범죄야	-2197
▁않아도	-2198
▁정확히	-2199
▁멀쩡하지	-2200
▁유단자가	-2201
▁필요하다	-2202
▁허우대만	-2203
▁대표이사는	-2204
▁일파만파로	-2205
▁덤	-2206
▁키	-2207
선도	-2208
▁씁쓸	-2209
▁오지	-2210
▁유지	-2211
▁본인은	-2212
▁아이는	-2213
▁할아버지	-2214
▁퍼져나갔다	-2215
?:	-2216
▁낫	-2217
▁씌	-2218
체절	-2219
▁가자	-2220
▁고달	-2221
▁놓을	-2222
▁게재된	-2223
▁관심도	-2224
▁사과를	-2225
▁오르는	-2226
▁절체절	-2227
▁해결책	-2228
▁절체절명의	-2229
!!	-2230
무에	-2231
▁괜히	-2232
▁기한	-2233
▁둘이	-2234
▁방식	-2235
▁정권	-2236
▁틀어	-2237
▁단계를	-2238
▁찾아낸	-2239
▁가져왔다	-2240
▁굉	-2241
▁씩	-2242
레를	-2243
쇼크	-2244
▁변할	-2245
▁잔류	-2246
▁트렌	-2247
거리는	-2248
판으로	-2249
▁나서는	-2250
▁루머에	-2251
▁사랑은	-2252
▁알아낼	-2253
▁한다는	-2254
▁하시다니	-2255
▁불과함에도	-2256
이면	-2257
제를	-2258
워크를	-2259
주도한	-2260
집으로	-2261
▁가족이	-2262
▁씻어야	-2263
▁채소나	-2264
▁과일에는	-2265
▁잔류물이	-2266
▁어르신처럼	-2267
▁용의주도한	-2268
▁굉장	-2269
하시는	-2270
▁기자에	-2271
▁넘어갔	-2272
▁믿음을	-2273
▁방법을	-2274
▁트렌드	-2275
▁협상에	-2276
▁우리들의	-2277
▁원내대표는	-2278
▁낚	-2279
▁히	-2280
방향	-2281
비박	-2282
심탄	-2283
▁만일	-2284
▁여차	-2285
▁월세	-2286
심탄회	-2287
이션이	-2288
▁가기가	-2289
▁검색해	-2290
▁에너지	-2291
▁풍비박	-2292
▁마케팅이	-2293
▁허심탄회	-2294
▁풍비박산이	-2295
저씨	-2296
학교	-2297
▁갔다	-2298
▁고액	-2299
▁님은	-2300
▁받을	-2301
▁걸맞은	-2302
▁사장님	-2303
▁판치는	-2304
▁두렵다고	-2305
▁심각해서	-2306
▁여차하면	-2307
▁올라왔어	-2308
▁연예계에서	-2309
▁댓	-2310
위는	-2311
▁50	-2312
▁경계	-2313
▁뭔가	-2314
▁잃지	-2315
▁굉장히	-2316
▁그치만	-2317
▁생겼다	-2318
▁아저씨	-2319
래이션이	-2320
▁오일쇼크	-2321
▁팀워크를	-2322
▁허심탄회하게	-2323
▁스태그플래이션이	-2324
▁탁	-2325
이로	-2326
촬영	-2327
▁먹어	-2328
▁주지	-2329
▁웃는데	-2330
▁하려면	-2331
▁자유로워	-2332
▁형성되어	-2333
▁대통령이라고	-2334
▁넙	-2335
길이	-2336
데데	-2337
성은	-2338
이두	-2339
▁고맙	-2340
▁누런	-2341
▁오신	-2342
▁촬영	-2343
▁파악	-2344
데데한	-2345
▁나날이	-2346
▁따르지	-2347
▁바이럴	-2348
스러웠어	-2349
▁것인가를	-2350
▁넙데데한	-2351
▁만들어갈	-2352
▁있다면서	-2353
▁책임자는	-2354
▁드러내놓고	-2355
▁팍팍해지는	-2356
▁혐오스러웠어	-2357
길동	-2358
으며	-2359
▁그거	-2360
▁설레	-2361
▁정답	-2362
▁치매	-2363
분이나	-2364
▁것처럼	-2365
▁홍길동	-2366
▁너희들이	-2367
▁달려가는	-2368
레이션으로	-2369
▁사랑입니다	-2370
▁비판했습니다	-2371
▁구역	-2372
▁알박	-2373
▁찍힐	-2374
▁평가	-2375
▁말하고	-2376
▁받았다	-2377
▁뻔뻔한	-2378
▁임무를	-2379
▁보여주는	-2380
▁“	-2381
조차	-2382
▁59	-2383
▁껍질	-2384
▁명절	-2385
▁모태	-2386
▁수시	-2387
▁오라	-2388
▁웃는	-2389
▁전셋	-2390
▁증빙	-2391
파지고	-2392
▁기술을	-2393
▁아내는	-2394
▁알박기	-2395
▁한쪽이	-2396
▁당하고도	-2397
▁비상식의	-2398
▁고달파지고	-2399
▁스태그플레이션으로	-2400
▁켤	-2401
대한	-2402
린다	-2403
▁난리	-2404
▁떡볶	-2405
▁면이	-2406
▁옷차	-2407
▁당신이	-2408
▁모아서	-2409
▁모태솔	-2410
▁수행할	-2411
▁재판이	-2412
▁한다고	-2413
▁들판으로	-2414
▁떨어져서	-2415
▁시작되는	-2416
▁자유로워지는	-2417
▁밀	-2418
리우	-2419
워야	-2420
지현	-2421
▁30	-2422
▁가고	-2423
▁날씨	-2424
▁미래	-2425
▁김지현	-2426
▁나더러	-2427
▁남자가	-2428
▁떼들을	-2429
▁말았다	-2430
▁사태를	-2431
▁할리우	-2432
▁서주세요	-2433
▁선거에서	-2434
▁아니었어	-2435
▁요구했다	-2436
▁모태솔로로	-2437
▁미안하다는	-2438
▁발휘하지만	-2439
▁숙맥이었다	-2440
▁업무에서는	-2441
대는	-2442
록을	-2443
학에	-2444
▁덤터	-2445
▁버금	-2446
▁성장	-2447
▁예삿	-2448
었어요	-2449
일이긴	-2450
▁납세의	-2451
▁멋있는	-2452
▁알았어	-2453
▁압류를	-2454
▁협회에	-2455
▁궤도에서	-2456
▁놓는다고	-2457
▁누군가가	-2458
▁버금가는	-2459
▁예삿일이	-2460
▁의무인데	-2461
▁증빙해서	-2462
▁할리우드	-2463
상으로부터	-2464
▁제출하세요	-2465
냈다	-2466
체납	-2467
혔다	-2468
▁가나	-2469
▁가욋	-2470
▁건보	-2471
▁동구	-2472
▁지원	-2473
▁회피	-2474
▁가로막	-2475
▁곁들여	-2476
▁교신이	-2477
▁대하는	-2478
▁씌우지	-2479
▁제공해	-2480
▁건보료는	-2481
▁고액체납	-2482
▁덤터기를	-2483
▁사용되는	-2484
▁성공해야	-2485
▁시급하다	-2486
▁가욋일이긴	-2487
▁납세의무에	-2488
▁큰소리치는	-2489
우면	-2490
제는	-2491
타가	-2492
▁경쟁	-2493
▁경춘	-2494
▁댓글	-2495
▁차릴	-2496
했다고	-2497
▁것이고	-2498
▁시위를	-2499
▁양방향	-2500
▁싫어해서	-2501
▁7	-2502
▁깎	-2503
뿐만	-2504
▁귀신	-2505
▁산이	-2506
▁이건	-2507
▁전형	-2508
체로서	-2509
호선과	-2510
▁노선도	-2511
▁돌아갈	-2512
▁동구릉	-2513
▁씁쓸한	-2514
▁잡아야	-2515
▁타시면	-2516
▁경춘선을	-2517
▁예정입니다	-2518
▁큐브위성이	-2519
▁지상으로부터	-2520
제가	-2521
▁연습	-2522
▁제사	-2523
▁식사를	-2524
▁인원이	-2525
▁노래하는	-2526
▁어머니가	-2527
발로	-2528
찰나	-2529
프가	-2530
▁매너	-2531
▁이에	-2532
▁자연	-2533
▁제삿	-2534
▁주었	-2535
붙였다	-2536
▁격식에	-2537
▁느끼는	-2538
▁비싸고	-2539
▁켤레를	-2540
▁현관에	-2541
간에	-2542
▁가서	-2543
▁가지가	-2544
▁괜찮은	-2545
▁채소와	-2546
▁몫이었다	-2547
▁설거지는	-2548
▁위해서는	-2549
▁제삿날에	-2550
▁국제	-2551
▁꽃을	-2552
▁바뀌	-2553
▁쌀이	-2554
▁내려온	-2555
▁다리가	-2556
▁시험을	-2557
드러지는	-2558
▁스타일이	-2559
▁제사상을	-2560
▁며느리라고	-2561
▁즉	-2562
사할	-2563
약할	-2564
▁말야	-2565
▁오랫	-2566
▁집단	-2567
▁해설	-2568
▁번번이	-2569
▁포기할	-2570
▁대중에게	-2571
▁떡볶이가	-2572
▁오랫동안	-2573
▁옷차림을	-2574
▁음식으로	-2575
▁펼	-2576
▁핑	-2577
악산	-2578
안을	-2579
오를	-2580
인의	-2581
▁되게	-2582
▁사다	-2583
만하고	-2584
▁껍질째	-2585
▁농약이	-2586
▁예정이	-2587
▁지역에	-2588
▁곁들여진	-2589
▁자신에게	-2590
▁좋다는데	-2591
▁행위이지	-2592
▁죄	-2593
▁않니	-2594
▁우선	-2595
▁지옥	-2596
▁혹독	-2597
려지고	-2598
분하고	-2599
상이지	-2600
▁당연히	-2601
▁매너야	-2602
▁설악산	-2603
▁웃는다	-2604
▁자리든	-2605
▁잘못에	-2606
▁집으로	-2607
▁하면서	-2608
▁도착하면	-2609
▁사람들이	-2610
▁음식이다	-2611
▁트렌드에	-2612
▁할리우드에서는	-2613
▁혈	-2614
롯도	-2615
▁가스	-2616
▁메스	-2617
▁비교	-2618
▁서비	-2619
▁정상	-2620
▁지지	-2621
▁챙길	-2622
▁것같이	-2623
▁나지막	-2624
▁시간은	-2625
▁시중에	-2626
▁오늘이	-2627
▁육체가	-2628
▁팀같이	-2629
▁도착해야	-2630
▁시작하면서	-2631
▁돋	-2632
막한	-2633
울까	-2634
▁섭섭	-2635
▁손수	-2636
▁입은	-2637
▁함경	-2638
살이도	-2639
인지는	-2640
▁메스꺼	-2641
▁영혼은	-2642
▁월세방	-2643
▁정착한	-2644
▁트롯도	-2645
▁한계가	-2646
▁시리즈를	-2647
▁예정인데	-2648
▁창법으로	-2649
▁간드러지는	-2650
▁넉	-2651
▁왼	-2652
▁캔	-2653
구에	-2654
▁셋방	-2655
▁중이	-2656
▁쥐어	-2657
▁가운데	-2658
▁안타까	-2659
▁확연히	-2660
▁강원도에	-2661
▁구하기도	-2662
▁나지막한	-2663
▁시각까지	-2664
▁정국이도	-2665
기업	-2666
란을	-2667
이어	-2668
▁길에	-2669
▁낚시	-2670
▁대비	-2671
▁몰골	-2672
▁의혹	-2673
▁귀신이	-2674
▁뒷돈을	-2675
▁자체는	-2676
▁틀어박	-2677
▁등산하기	-2678
▁메스꺼워	-2679
▁상관없이	-2680
▁시작하는	-2681
▁아저씨의	-2682
▁전셋집은	-2683
▁셋방살이도	-2684
▁직관적으로	-2685
▁지긋지긋하다	-2686
나룻	-2687
미식	-2688
사랑	-2689
섬은	-2690
▁구레	-2691
겠어요	-2692
나룻은	-2693
▁나려고	-2694
▁눈살이	-2695
▁몰골만	-2696
▁악수를	-2697
▁어렵다	-2698
▁여름엔	-2699
▁흘렸다	-2700
미식해는	-2701
▁구역질이	-2702
▁드러내기	-2703
▁십상이지	-2704
▁않음에도	-2705
▁구레나룻은	-2706
▁찌푸려지고	-2707
▁함경도에서	-2708
▁가자미식해는	-2709
▁끓	-2710
▁뻗	-2711
랑이	-2712
모는	-2713
▁남편	-2714
▁넉넉	-2715
▁몰랐	-2716
▁은어	-2717
▁지저	-2718
▁흥밋	-2719
▁희생	-2720
스럽다	-2721
▁그룹이	-2722
▁몸으로	-2723
▁설레어	-2724
▁언론을	-2725
▁청했다	-2726
▁연예인은	-2727
▁틀어박혀	-2728
▁흥밋거리를	-2729
리게	-2730
모리	-2731
▁납량	-2732
▁사유	-2733
▁증가	-2734
▁폭발	-2735
▁학폭	-2736
▁마을이	-2737
▁방영할	-2738
▁자체가	-2739
▁무서울까	-2740
▁특집으로	-2741
대를	-2742
키코	-2743
탁지	-2744
▁옷을	-2745
▁확산	-2746
▁대가는	-2747
▁며칠인	-2748
▁방에만	-2749
▁웬만한	-2750
▁탐탁지	-2751
▁히키코	-2752
▁힘들다	-2753
▁시끄러워	-2754
▁히키코모리	-2755
▁건물	-2756
▁논이	-2757
▁떨며	-2758
▁응원	-2759
▁지가	-2760
▁폭력	-2761
기에는	-2762
꾼들이	-2763
▁가슴이	-2764
▁섭섭지	-2765
▁가로막고	-2766
▁넘어갔던	-2767
▁대학생들	-2768
▁주었으나	-2769
▁송	-2770
두리	-2771
▁단호	-2772
▁야트	-2773
▁돌아올	-2774
▁들으면	-2775
▁범인은	-2776
▁사인을	-2777
▁손자의	-2778
▁정도에	-2779
▁회사에	-2780
▁야트막한	-2781
▁장만하고	-2782
▁당하는구나	-2783
사정	-2784
▁국을	-2785
▁무사	-2786
▁병행	-2787
▁수석	-2788
모임이	-2789
버렸대	-2790
▁논이라	-2791
▁다니기	-2792
▁두어야	-2793
▁앞산에	-2794
▁오타가	-2795
행이라니	-2796
▁깨끗하고	-2797
▁나타나자	-2798
▁안전하게	-2799
▁은어같이	-2800
▁결혼하려고	-2801
▁등산모임이	-2802
▁떠나버렸대	-2803
▁설악산행이라니	-2804
▁낙선	-2805
▁이목	-2806
▁활용	-2807
법석을	-2808
아이돌	-2809
▁의원은	-2810
▁행복해	-2811
▁여아이돌	-2812
▁난리법석을	-2813
▁아름다움이	-2814
▁대학생들인데도	-2815
▁감당	-2816
▁거니	-2817
▁또한	-2818
▁일정	-2819
▁전략	-2820
▁탁월	-2821
▁녀석을	-2822
▁형사를	-2823
▁띌	-2824
칠치	-2825
▁뿐만	-2826
▁조직	-2827
▁주장	-2828
▁추가	-2829
▁시드는	-2830
▁오지랖	-2831
▁줬으면	-2832
▁칠칠치	-2833
▁효과가	-2834
▁이유일까	-2835
▁인정사정	-2836
▁점검해도	-2837
▁조용하던	-2838
▁몰아붙였다	-2839
▁소유하려는	-2840
▁지저분하고	-2841
▁안절부절못하고	-2842
거야	-2843
걸리	-2844
구비	-2845
저런	-2846
▁간이	-2847
▁밤새	-2848
▁이런저런	-2849
▁낚시꾼들이	-2850
▁상황이므로	-2851
▁시끄러워져	-2852
▁인정사정없이	-2853
▁붉으락푸르락해진	-2854
▁쓸	-2855
▁돼지	-2856
▁진학	-2857
▁하늘	-2858
밭에서	-2859
▁같은데	-2860
▁서양인	-2861
▁익혀야	-2862
▁치매로	-2863
▁합격자	-2864
▁낙선하면	-2865
▁들러봐야	-2866
▁반복하고	-2867
▁방법이긴	-2868
▁벌써부터	-2869
▁편의점에	-2870
▁혹독하지만	-2871
떠러	-2872
▁데에	-2873
▁삶도	-2874
▁소주	-2875
▁경우가	-2876
▁낭떠러	-2877
▁남았는데	-2878
다시	-2879
덕이	-2880
현직	-2881
▁되면	-2882
▁잡아	-2883
▁정신	-2884
▁해요	-2885
▁신발을	-2886
▁전현직	-2887
▁출시된	-2888
매도	-2889
스템	-2890
▁과학	-2891
▁금액	-2892
▁나를	-2893
▁독자	-2894
▁잔디	-2895
▁제시	-2896
▁참아	-2897
▁발견하지	-2898
▁살아가면서	-2899
바막	-2900
이란	-2901
▁많아	-2902
▁바밤	-2903
▁캔만	-2904
▁가려다	-2905
▁됐지만	-2906
▁시작할	-2907
▁언제든	-2908
▁절약할	-2909
바막걸리	-2910
▁고맙겠어	-2911
▁모의고사	-2912
▁바밤바막걸리	-2913
마의	-2914
▁가냘	-2915
▁뻗는	-2916
▁사례	-2917
▁음악	-2918
▁휴게	-2919
▁놀았다	-2920
▁보인다	-2921
▁아픔이	-2922
▁안된다	-2923
▁치르게	-2924
▁택시를	-2925
▁개수대에	-2926
▁개수통을	-2927
▁그다음에	-2928
▁낭떠러지를	-2929
차를	-2930
품인	-2931
▁곧은	-2932
▁근거	-2933
▁끝날	-2934
▁풀이	-2935
▁가냘픈	-2936
▁거거든	-2937
▁맨발로	-2938
▁무사히	-2939
▁시스템	-2940
▁인생에	-2941
구비뿐만	-2942
장에서는	-2943
▁알았는데	-2944
▁태형이는	-2945
▁이목구비뿐만	-2946
▁넋	-2947
으시	-2948
▁가팔	-2949
▁국물	-2950
▁발이	-2951
▁착한	-2952
▁한반	-2953
▁내용이	-2954
▁실시간	-2955
▁오르막	-2956
▁특이한	-2957
▁평생을	-2958
▁만난다면	-2959
▁사람들은	-2960
▁잔디밭에서	-2961
큰한	-2962
▁세게	-2963
▁역사	-2964
▁장애	-2965
▁주눅	-2966
▁찌개	-2967
▁체감	-2968
▁트럭	-2969
봐야지	-2970
했어요	-2971
▁당신을	-2972
▁얼큰한	-2973
▁하다니	-2974
▁한숨을	-2975
▁확인해야	-2976
▁시작한다는	-2977
▁깁	-2978
▁드라	-2979
▁보일	-2980
▁일품인	-2981
▁후회가	-2982
해지려면	-2983
▁마음만큼	-2984
▁스트레스	-2985
▁시간이나	-2986
▁찌개보단	-2987
▁훈련하고	-2988
▁찢	-2989
라리	-2990
▁나아	-2991
▁성적	-2992
▁한참	-2993
▁구사할	-2994
▁신으면	-2995
▁정도면	-2996
▁참아봐	-2997
▁책임을	-2998
▁가팔라서	-2999
▁넘어갔다	-3000
▁모르겠어	-3001
▁지역에서	-3002
▁휴게소가	-3003
▁오르막길이	-3004
▁자리에서도	-3005
밀리	-3006
▁갔대	-3007
▁건드	-3008
▁당시	-3009
▁드실	-3010
▁부어	-3011
하기에	-3012
▁것에든	-3013
▁깁스를	-3014
▁넉넉히	-3015
▁부담을	-3016
▁아픔을	-3017
▁정도로	-3018
▁아프듯이	-3019
▁여러분들	-3020
▁탁월해지려면	-3021
었던	-3022
▁내쉬	-3023
▁틀린	-3024
▁학원	-3025
▁내놓은	-3026
▁없지만	-3027
▁위험을	-3028
▁패밀리	-3029
▁가능성이	-3030
▁대답하였다	-3031
▁괜한	-3032
▁혼잣	-3033
▁힘을	-3034
▁것인지	-3035
▁넋두리	-3036
▁마쳤다	-3037
▁싸우는	-3038
▁의무가	-3039
▁집안이	-3040
리기까지	-3041
▁자극적인	-3042
▁댁	-3043
▁쏘	-3044
한한	-3045
▁갖는	-3046
▁구체	-3047
▁신호	-3048
▁치맥	-3049
▁통화	-3050
▁평화	-3051
거리며	-3052
이스트	-3053
팩으로	-3054
▁내쉬면	-3055
▁느꼈다	-3056
▁세트는	-3057
▁방문하실	-3058
▁싫어하는	-3059
▁혼잣말을	-3060
▁안절부절못해	-3061
▁패밀리팩으로	-3062
▁앨	-3063
▁팩	-3064
▁못생	-3065
해가는	-3066
▁명절날	-3067
▁지켜온	-3068
껍데기에	-3069
었습니다	-3070
▁카이스트	-3071
▁큰아버지	-3072
▁돼지껍데기에	-3073
전에	-3074
차피	-3075
▁건지	-3076
▁댁에	-3077
▁모은	-3078
▁부메	-3079
▁앨범	-3080
▁얼른	-3081
▁정당	-3082
▁주변	-3083
▁한복	-3084
▁눈살을	-3085
▁어차피	-3086
▁오기가	-3087
▁사람이야	-3088
▁말이겠지만	-3089
▁예정이세요	-3090
▁견	-3091
쏘냐	-3092
▁끝이	-3093
▁너는	-3094
▁보통	-3095
▁저리	-3096
▁지내	-3097
▁폭행	-3098
하는데	-3099
▁그대로	-3100
▁뛰어들	-3101
▁이야기	-3102
▁차이가	-3103
▁들어보렴	-3104
▁못생겼다	-3105
▁있을거야	-3106
▁안타까웠다	-3107
▁포기할쏘냐	-3108
단적	-3109
단한	-3110
송할	-3111
팀은	-3112
▁문장	-3113
▁부메랑이	-3114
▁찌푸리기까지	-3115
▁쌉	-3116
▁옛	-3117
쌀한	-3118
▁물어	-3119
▁종손	-3120
▁아까운	-3121
▁단호하게	-3122
▁망해가는	-3123
▁종갓집을	-3124
▁그러잖아도	-3125
▁종손으로서	-3126
기김	-3127
돼야	-3128
들빼	-3129
와서	-3130
▁나가	-3131
▁재수	-3132
▁고들빼	-3133
▁다이어	-3134
▁맛인데	-3135
▁쌉쌀한	-3136
▁왔으니	-3137
기김치는	-3138
▁고들빼기김치는	-3139
▁캠	-3140
▁살랑	-3141
▁잤다	-3142
▁향유	-3143
출해서	-3144
하나요	-3145
하라고	-3146
▁많아서	-3147
▁선거에	-3148
▁어른들	-3149
▁없었다	-3150
▁태도를	-3151
▁경신	-3152
▁더워	-3153
▁벽에	-3154
▁찰나	-3155
▁감각적	-3156
▁날씨가	-3157
▁어찌나	-3158
▁예의가	-3159
하였는데	-3160
▁가족에게	-3161
▁시간만큼	-3162
▁갹	-3163
근혜	-3164
금을	-3165
리의	-3166
조건	-3167
차가	-3168
혀서	-3169
▁곰살	-3170
▁끝내	-3171
▁어떡	-3172
여자가	-3173
▁박근혜	-3174
▁변덕이	-3175
▁본인이	-3176
▁팬들이	-3177
▁핑계를	-3178
▁여러분들이	-3179
가리	-3180
궂게	-3181
모드	-3182
▁감쇄	-3183
▁게임	-3184
▁결제	-3185
▁끓듯	-3186
▁멈출	-3187
▁조각	-3188
뒤치락	-3189
▁구는지	-3190
▁사내들	-3191
▁엎치락	-3192
▁전송할	-3193
▁갹출해서	-3194
▁곰살궂게	-3195
▁그여자가	-3196
▁먹을는지	-3197
▁뿐이었다	-3198
▁사내들이	-3199
▁인생에서	-3200
▁먹어봐야지	-3201
▁살랑거리며	-3202
▁엎치락뒤치락	-3203
▁녹	-3204
히지	-3205
▁13	-3206
▁35	-3207
▁없지	-3208
버리네	-3209
분쯤과	-3210
서라도	-3211
제어를	-3212
▁각속도	-3213
▁대금은	-3214
▁한숨도	-3215
▁감쇄모드	-3216
▁기다리는	-3217
▁법적으로	-3218
▁자세제어를	-3219
▁큐브위성의	-3220
▁카이스트팀은	-3221
▁횟	-3222
▁나올	-3223
▁새색	-3224
까지는	-3225
▁때부터	-3226
▁발라야	-3227
▁보이고	-3228
▁식으로	-3229
▁미워하는	-3230
▁버릇없이	-3231
▁새색시가	-3232
▁일반인이	-3233
▁누워버리네	-3234
▁엎치락뒤치락했다	-3235
▁테	-3236
수술	-3237
시위	-3238
▁무자	-3239
▁아예	-3240
▁인도	-3241
▁주로	-3242
▁채팅	-3243
▁희한한	-3244
▁트럭시위	-3245
▁해결책은	-3246
▁해결하려는	-3247
▁맡	-3248
▁빡	-3249
▁썩	-3250
▁좇	-3251
서관	-3252
해를	-3253
▁가래	-3254
▁전달	-3255
▁차를	-3256
역에서	-3257
▁것인가	-3258
▁내에서	-3259
▁마음에	-3260
▁자녀가	-3261
▁회피하고	-3262
▁구분하기가	-3263
▁곰팡	-3264
▁공식	-3265
▁공은	-3266
▁봐선	-3267
▁섭취	-3268
▁아닐	-3269
▁포함	-3270
▁권태를	-3271
▁노모는	-3272
▁찰나적인	-3273
▁추구하게	-3274
코지	-3275
▁교과	-3276
▁싶냐	-3277
▁적용	-3278
▁전문	-3279
▁졸업	-3280
▁머리에	-3281
▁모르는	-3282
▁해코지	-3283
▁대통령은	-3284
▁수평아리인지	-3285
▁암평아리인지	-3286
▁헌	-3287
올린	-3288
중한	-3289
▁배추	-3290
▁어린	-3291
▁갈가리	-3292
▁감당할	-3293
▁찢기는	-3294
▁칼까지	-3295
▁다이어트	-3296
▁대서라도	-3297
▁무자비한	-3298
삭아	-3299
융합	-3300
▁상처	-3301
▁표정을	-3302
▁행동인지는	-3303
됨에	-3304
삭한	-3305
▁강좌	-3306
▁골절	-3307
▁무릅	-3308
▁올려	-3309
▁제일	-3310
▁김장은	-3311
▁물속에	-3312
▁아니야	-3313
▁집에서	-3314
랭지	-3315
▁개지	-3316
▁그저	-3317
▁슬기	-3318
▁왔음	-3319
▁이걸	-3320
▁지구	-3321
▁현타	-3322
기록을	-3323
▁고랭지	-3324
▁담가야	-3325
▁배추로	-3326
▁식감이	-3327
▁아삭아	-3328
▁지속될	-3329
▁않습니다	-3330
▁아삭아삭한	-3331
▁척	-3332
했을	-3333
▁늦을	-3334
▁이가	-3335
▁팩폭	-3336
는데요	-3337
▁금액만	-3338
▁사이에	-3339
▁사회적	-3340
▁지금은	-3341
▁언제까지	-3342
▁뛰어들었을	-3343
▁뷔	-3344
▁썼	-3345
▁45	-3346
▁뷔바	-3347
▁쏘아	-3348
▁위법	-3349
바에서	-3350
억이다	-3351
▁다양한	-3352
▁무릅쓰	-3353
▁믿기지	-3354
▁입은채	-3355
▁곰팡이가	-3356
▁도와주는	-3357
▁뷔바이두	-3358
▁인상으로	-3359
▁채팅으로	-3360
▁판매기록을	-3361
▁경신하였는데	-3362
▁뷔바이두바에서	-3363
▁나고	-3364
▁내년	-3365
품들은	-3366
▁날아갔	-3367
▁마음을	-3368
▁위해서	-3369
▁장마의	-3370
▁멈출지를	-3371
▁지속됨에	-3372
▁시작할지를	-3373
퇴부	-3374
▁있기	-3375
▁접합	-3376
▁커서	-3377
는데도	-3378
판에서	-3379
▁대퇴부	-3380
▁자식은	-3381
▁할까요	-3382
그때	-3383
냐면	-3384
▁개는	-3385
▁영향을	-3386
▁과정에서	-3387
▁그때그때	-3388
▁접합수술	-3389
▁중이시다	-3390
과대	-3391
치지	-3392
▁깎고	-3393
▁맞아	-3394
▁발령	-3395
▁환경	-3396
▁있으시면	-3397
▁집에서도	-3398
▁해야겠다	-3399
▁곱	-3400
베리	-3401
자로	-3402
치가	-3403
▁낮은	-3404
▁됐다	-3405
쟁이가	-3406
했다는	-3407
▁단계는	-3408
▁달나라	-3409
▁소개해	-3410
도이	-3411
어오	-3412
와의	-3413
▁뭔데	-3414
▁보내	-3415
▁좇아	-3416
▁짭짤한	-3417
▁난쟁이가	-3418
▁쏘아올린	-3419
▁날아갔을까	-3420
▁달나라까지	-3421
찌가	-3422
▁의문	-3423
▁이어	-3424
▁무조건	-3425
▁세수가	-3426
▁시베리	-3427
▁아닙니까	-3428
▁선택이었다	-3429
구성	-3430
깎이	-3431
돼도	-3432
양이	-3433
이터	-3434
▁꼼짝	-3435
▁다칠	-3436
▁돋워	-3437
▁마주	-3438
▁장아	-3439
▁가다가	-3440
▁놓아두	-3441
▁도서관	-3442
▁유명해	-3443
▁의과대	-3444
▁장아찌가	-3445
온도	-3446
환이	-3447
▁고생	-3448
▁보시	-3449
▁암탉	-3450
▁가해자	-3451
▁감추지	-3452
드립니다	-3453
▁놓아두렴	-3454
▁손톱깎이	-3455
▁진학했다	-3456
▁의과대학에	-3457
보고	-3458
▁여야	-3459
▁나라의	-3460
▁따라서	-3461
▁몰라서	-3462
▁유리할	-3463
▁추위는	-3464
▁횟수에	-3465
면서까지	-3466
▁개수만큼	-3467
▁말씀하시	-3468
▁자식으로	-3469
▁폭행당하고	-3470
▁한복판에서	-3471
▁무릅쓰면서까지	-3472
진다	-3473
▁바꿔	-3474
▁여론	-3475
어나고	-3476
▁내용을	-3477
▁추위가	-3478
▁물품들은	-3479
▁그렇잖아도	-3480
히고	-3481
▁양치	-3482
이라면	-3483
▁안으로	-3484
0%	-3485
▁8	-3486
▁워	-3487
스레	-3488
000	-3489
▁33	-3490
▁따져	-3491
▁배는	-3492
▁쌀을	-3493
리오를	-3494
습니까	-3495
▁40%	-3496
▁걷혔다	-3497
▁손실이	-3498
▁예상될	-3499
도이상이	-3500
▁8000	-3501
▁체감온도	-3502
▁발령됩니다	-3503
▁시베리아의	-3504
▁왼손	-3505
▁일찌	-3506
▁재료	-3507
▁차이	-3508
▁가르치	-3509
▁나만의	-3510
▁돌아와	-3511
▁사람들을	-3512
▁패배하자	-3513
▁민주주의가	-3514
▁헛	-3515
다리	-3516
▁가난	-3517
▁거북	-3518
▁결합	-3519
▁부엌	-3520
▁적이	-3521
▁듯했다	-3522
▁마음도	-3523
▁신세를	-3524
▁원하는	-3525
▁전번이	-3526
잡을	-3527
트폴	-3528
▁돈이	-3529
▁조절	-3530
▁오른손	-3531
▁포트폴	-3532
라면	-3533
▁직업	-3534
▁화장	-3535
단지를	-3536
▁가르쳐	-3537
▁내리는	-3538
▁면하지	-3539
▁이장이	-3540
▁칸	-3541
품은	-3542
▁문학	-3543
▁퇴근	-3544
▁꼼짝을	-3545
▁못한대	-3546
▁사건을	-3547
▁위법성	-3548
▁의의가	-3549
▁항구에	-3550
▁거들	-3551
▁국내	-3552
▁연속	-3553
▁잡지	-3554
구성요	-3555
처리는	-3556
▁급소를	-3557
▁독단적	-3558
▁만들지	-3559
▁말한다	-3560
▁망치는	-3561
▁받혀서	-3562
▁소에게	-3563
▁피해를	-3564
▁피해자	-3565
▁동안이나	-3566
▁포트폴리오를	-3567
글세	-3568
▁못이	-3569
▁선릉	-3570
▁지냈	-3571
▁추운	-3572
▁태릉	-3573
소리에	-3574
▁부엌에	-3575
▁사글세	-3576
▁사유라는	-3577
▁유리할걸	-3578
▁해당돼도	-3579
구성요소에	-3580
▁만들어놔야	-3581
▁범죄구성요소에	-3582
사로	-3583
셨다	-3584
치러	-3585
▁강조	-3586
▁단순	-3587
▁솥에	-3588
▁싸움	-3589
▁편한데	-3590
▁좋을까요	-3591
▁태릉이나	-3592
▁선릉역에서	-3593
▁빡세	-3594
▁안치러	-3595
▁엎었다	-3596
▁솥단지를	-3597
시오	-3598
프레	-3599
▁생활	-3600
▁수상	-3601
▁재미	-3602
▁두드릴	-3603
▁해석할	-3604
▁일처리는	-3605
거려	-3606
▁구시	-3607
▁대신	-3608
▁일자	-3609
▁조건에	-3610
▁청와대	-3611
▁두려움을	-3612
비어	-3613
▁날씬	-3614
봤더니	-3615
▁진행한다	-3616
▁낯	-3617
게도	-3618
겨워	-3619
권을	-3620
이랑	-3621
▁껍데	-3622
▁오직	-3623
▁으레	-3624
▁적극	-3625
▁때마다	-3626
▁문제의	-3627
▁왼손은	-3628
▁주시기	-3629
▁치르고	-3630
▁등산하는	-3631
▁없었다는	-3632
▁오른손이	-3633
▁.	-3634
▁앉	-3635
드해	-3636
로운	-3637
시지	-3638
▁가만	-3639
▁넓적	-3640
▁두는	-3641
▁학습	-3642
뜨리는	-3643
제에서	-3644
▁구분해	-3645
▁나라가	-3646
▁날씬한	-3647
▁피어오	-3648
▁도착해서	-3649
▁빵	-3650
거니	-3651
▁마른	-3652
▁누우면	-3653
▁넓적다리	-3654
▁지냈더니	-3655
가게	-3656
간의	-3657
▁빠르	-3658
▁자면	-3659
려보는	-3660
을까요	-3661
프레시	-3662
▁본성이	-3663
▁올드해	-3664
▁리프레시	-3665
▁소개해줄게	-3666
주연	-3667
▁호두	-3668
렁거려	-3669
▁결정할	-3670
▁낫겠지	-3671
▁세력이	-3672
▁지겨워	-3673
▁한국이	-3674
▁전형적인	-3675
▁상대방에게	-3676
▁째	-3677
만은	-3678
▁비율	-3679
▁이동	-3680
▁이익	-3681
▁작은	-3682
▁바란다	-3683
▁죽겠어	-3684
▁일찌거니	-3685
▁큰소리로	-3686
▁지하철에서	-3687
지지	-3688
▁형제	-3689
▁피우고	-3690
▁힘들어	-3691
▁대한다는	-3692
▁지긋지긋한	-3693
▁즐	-3694
란에	-3695
▁그분	-3696
▁못된	-3697
▁바빠	-3698
▁수단	-3699
▁제재	-3700
▁거북지	-3701
▁선택할	-3702
▁썩어요	-3703
▁한반도	-3704
▁껍데기와	-3705
▁양치질을	-3706
▁좋아하는	-3707
▁째려보는	-3708
▁구분해놔야	-3709
▁구시렁거려	-3710
▁개비	-3711
▁경영	-3712
▁나은	-3713
▁우렛	-3714
▁인터	-3715
아이가	-3716
하구나	-3717
▁같아서	-3718
▁약속이	-3719
▁충분히	-3720
▁본성이지	-3721
▁안타까운	-3722
▁우렛소리에	-3723
▁쳐다봤더니	-3724
▁통화하기에	-3725
▁낳	-3726
▁밖	-3727
▁셰	-3728
▁나름	-3729
▁다만	-3730
▁마찬	-3731
▁발언	-3732
▁일로	-3733
하거나	-3734
▁가지러	-3735
▁개었다	-3736
▁데에서	-3737
▁시험이	-3738
▁없어요	-3739
▁우정이	-3740
더냐	-3741
▁무의	-3742
▁의심	-3743
▁카페	-3744
▁피도	-3745
▁상대가	-3746
▁셰프가	-3747
▁아비어	-3748
▁재료들을	-3749
▁행동했다	-3750
▁가르치더냐	-3751
▁들어오세요	-3752
▁아비어미가	-3753
▁아마	-3754
▁암기	-3755
▁목소리	-3756
▁못해서	-3757
▁시간에	-3758
▁곡	-3759
원의	-3760
▁돈은	-3761
▁듣지	-3762
▁생명	-3763
▁여당	-3764
▁하셔	-3765
소리는	-3766
해야지	-3767
▁끊이지	-3768
▁로	-3769
▁셈	-3770
마는	-3771
▁당연	-3772
▁떨어	-3773
▁옷에	-3774
▁가만히	-3775
▁감독이	-3776
▁실제로	-3777
▁준비해	-3778
▁어울	-3779
▁연결	-3780
▁영상	-3781
▁진실	-3782
▁투자자	-3783
▁생각하는	-3784
음료	-3785
▁공개	-3786
▁그걸	-3787
▁도전	-3788
▁북핵	-3789
▁삼가	-3790
▁가는데	-3791
▁날라리	-3792
▁말라고	-3793
▁이의가	-3794
▁잠갔다	-3795
▁학교를	-3796
▁화장은	-3797
▁딸아이가	-3798
▁날라리처럼	-3799
▁딴	-3800
▁쌓	-3801
란이	-3802
롭다	-3803
후군	-3804
▁빠른	-3805
▁죽는	-3806
호하는	-3807
▁된다는	-3808
▁증후군	-3809
▁무엇보다	-3810
▁꼬	-3811
어도	-3812
이기	-3813
▁안팎	-3814
반으로	-3815
▁바빠서	-3816
▁약속과	-3817
▁완전히	-3818
▁위상을	-3819
▁말씀하시오	-3820
▁나갈	-3821
▁반영	-3822
▁사와	-3823
▁문자를	-3824
▁않으니	-3825
▁조언을	-3826
▁콜	-3827
리당	-3828
사회	-3829
시에	-3830
▁봐야	-3831
▁사업	-3832
▁전혀	-3833
▁조정	-3834
▁지도	-3835
▁현대	-3836
▁먹고살	-3837
▁보내는	-3838
▁식음료	-3839
▁퇴근할	-3840
▁상황에서	-3841
려요	-3842
조림	-3843
퇴를	-3844
▁신경	-3845
▁뻔했다	-3846
▁사람의	-3847
▁탈	-3848
▁훨	-3849
▁검은	-3850
▁다녀	-3851
▁시키	-3852
▁역설	-3853
▁우린	-3854
가게에	-3855
으셔서	-3856
▁않으면	-3857
▁여기에	-3858
▁장조림	-3859
▁사람만이	-3860
▁반찬가게에	-3861
아를	-3862
함이	-3863
▁기말	-3864
▁너나	-3865
▁등을	-3866
▁한정	-3867
▁핵심	-3868
▁따라가	-3869
▁뿐이다	-3870
▁마찬가지	-3871
▁하마	-3872
▁고양이	-3873
▁배우가	-3874
▁일어났	-3875
▁기회라는	-3876
▁잘못해서	-3877
▁까다	-3878
▁니가	-3879
▁모면	-3880
▁엄한	-3881
▁여행	-3882
▁훨씬	-3883
다시피	-3884
▁일인데	-3885
▁준비된	-3886
▁선생님은	-3887
▁아니니까	-3888
▁섞	-3889
▁옹	-3890
▁염려	-3891
▁원인	-3892
▁트럼	-3893
▁주어야	-3894
▁황	-3895
▁근절	-3896
▁먹었	-3897
▁살피	-3898
▁삶을	-3899
▁숙제	-3900
▁순서	-3901
▁식사	-3902
졌다는	-3903
▁괜스레	-3904
▁보냈다	-3905
▁받아들여	-3906
▁논리입니다	-3907
▁달라고	-3908
▁찾아와서	-3909
▁얽	-3910
랄까	-3911
▁서술	-3912
버렸다	-3913
▁손실을	-3914
▁이유는	-3915
▁자신감	-3916
▁정답을	-3917
▁현상이	-3918
▁되었다는	-3919
▁소나기처럼	-3920
▁닦	-3921
보니	-3922
액을	-3923
이며	-3924
▁날카	-3925
▁남우	-3926
▁산업	-3927
▁알게	-3928
▁으악	-3929
영화의	-3930
▁대상이	-3931
▁붙잡을	-3932
▁헛소리	-3933
▁먹고살자고	-3934
강호	-3935
과는	-3936
구절	-3937
로를	-3938
에야	-3939
▁그랬	-3940
▁드높	-3941
▁명심	-3942
▁신생	-3943
▁워낙	-3944
구절절	-3945
▁보니까	-3946
▁송강호	-3947
▁전쟁이	-3948
▁하는군	-3949
주연상을	-3950
▁감독상을	-3951
▁구구절절	-3952
▁드높였다	-3953
▁수상하여	-3954
▁영화제에서	-3955
▁한국영화의	-3956
▁남우주연상을	-3957
부를	-3958
원을	-3959
터면	-3960
▁오발	-3961
입니까	-3962
▁군인이	-3963
▁빡세서	-3964
▁시간도	-3965
▁자기를	-3966
▁핵융합	-3967
▁하마터면	-3968
▁틈	-3969
▁관종	-3970
▁번만	-3971
▁살균	-3972
▁삶의	-3973
으니까	-3974
▁사라져	-3975
▁살아남	-3976
▁일반적	-3977
▁건드려서	-3978
▁받아들이	-3979
▁오발탄을	-3980
사의	-3981
▁구성	-3982
▁모른	-3983
▁방해	-3984
▁연애	-3985
▁하러	-3986
랄까봐	-3987
▁무의식	-3988
▁지나가는	-3989
▁헛소리만	-3990
▁아니랄까봐	-3991
▁겪	-3992
동한	-3993
류가	-3994
보지	-3995
▁놓고	-3996
▁다리	-3997
▁반응	-3998
▁부탁	-3999
▁원칙	-4000
▁인강	-4001
▁탄생	-4002
실에서	-4003
▁찾아갔	-4004
▁문제들을	-4005
▁태어나고	-4006
▁플	-4007
요가	-4008
▁감염	-4009
▁백신	-4010
▁새누	-4011
▁울음	-4012
▁최저	-4013
▁독립된	-4014
▁소중한	-4015
▁의사면	-4016
▁자료를	-4017
▁그렇다고	-4018
▁새누리당	-4019
▁헐	-4020
▁꺼내	-4021
▁작품	-4022
▁나서야	-4023
▁사태로	-4024
▁군인이면	-4025
▁느껴	-4026
▁수험	-4027
▁유형	-4028
▁어떡해	-4029
▁정리해	-4030
▁독자란에	-4031
▁의견란을	-4032
기세	-4033
츠를	-4034
▁담임	-4035
▁캠페	-4036
▁푸른	-4037
▁개발을	-4038
▁아이들	-4039
▁언어를	-4040
▁운명이	-4041
▁운동하는	-4042
과의	-4043
길에	-4044
▁간식	-4045
▁곤란	-4046
▁남북	-4047
▁오기	-4048
▁이뤄	-4049
▁안팎으로	-4050
▁우리에게	-4051
▁이루어져	-4052
변이	-4053
▁두고	-4054
▁떠난	-4055
▁시대	-4056
▁교과서	-4057
▁권력형	-4058
▁신호로	-4059
▁살아가게	-4060
▁자신만이	-4061
▁터뜨리는	-4062
▁회사에서	-4063
▁선생님께서	-4064
보면	-4065
▁상당	-4066
▁축구	-4067
국에는	-4068
자들이	-4069
▁들어봐	-4070
▁맞히지	-4071
▁뭐라고	-4072
▁살지를	-4073
▁의미가	-4074
▁정치적	-4075
▁자신감이	-4076
▁윤	-4077
분이	-4078
▁만족	-4079
▁쉬는	-4080
▁돌았다	-4081
▁상태로	-4082
▁아파트	-4083
▁소비자가	-4084
▁감수	-4085
▁본능	-4086
▁요새	-4087
▁원숭	-4088
▁개체로서	-4089
▁신생아가	-4090
▁울음소리는	-4091
▁닥	-4092
▁강화	-4093
▁만날	-4094
▁줄은	-4095
▁공매도	-4096
▁말았어	-4097
▁바에야	-4098
▁얘기를	-4099
으로부터	-4100
▁가르쳐준	-4101
▁알다시피	-4102
▁찾아갔는데도	-4103
부는	-4104
▁명확	-4105
▁속일	-4106
▁있죠	-4107
▁제기	-4108
▁조사	-4109
해야죠	-4110
▁단어를	-4111
▁상품을	-4112
▁연구로	-4113
▁종국에는	-4114
우외	-4115
추에	-4116
▁루나	-4117
▁아주	-4118
▁재고	-4119
었지만	-4120
▁기말고	-4121
▁내우외	-4122
▁움직여	-4123
▁주동한	-4124
▁봤다는데	-4125
간다	-4126
위의	-4127
정과	-4128
진한	-4129
하려	-4130
▁공포	-4131
▁쪽을	-4132
버리는	-4133
▁남편이	-4134
▁북한의	-4135
▁치르는	-4136
▁싶습니다	-4137
▁옹호하는	-4138
▁내우외환이	-4139
!"	-4140
▁밑	-4141
▁짤	-4142
다귀	-4143
부가	-4144
▁갈걸	-4145
▁개뼈	-4146
▁막는	-4147
▁여성	-4148
▁틀렸	-4149
▁힘이	-4150
한다면	-4151
▁문화와	-4152
▁시추에	-4153
▁의외로	-4154
▁펼치는	-4155
▁현장에	-4156
이션이야	-4157
▁개뼈다귀	-4158
▁이용해서	-4159
▁친구하고	-4160
▁핵융합에	-4161
▁시추에이션이야	-4162
그나	-4163
배반	-4164
상은	-4165
▁감쪽	-4166
▁기존	-4167
▁이율	-4168
▁확대	-4169
▁경우는	-4170
▁배그나	-4171
▁보이콧	-4172
▁감쪽같이	-4173
▁이율배반	-4174
▁얹	-4175
구먼	-4176
▁금세	-4177
▁듣는	-4178
겠다고	-4179
인지라	-4180
▁날카롭다	-4181
▁캠페인을	-4182
▁모면했지만	-4183
▁곱게	-4184
▁배척	-4185
▁보라	-4186
▁사지	-4187
▁속한	-4188
시오패	-4189
▁상대는	-4190
▁와중에	-4191
만으로는	-4192
▁소시오패	-4193
▁받아들여야	-4194
▁소시오패스가	-4195
▁벗어	-4196
▁보검	-4197
▁써도	-4198
▁이모	-4199
▁평생	-4200
년기의	-4201
도하게	-4202
▁거지반	-4203
▁질문을	-4204
▁칼날에	-4205
▁푸른빛이	-4206
▁보검인지라	-4207
줘도	-4208
▁검증	-4209
▁밥은	-4210
▁특정	-4211
이처럼	-4212
▁불가능	-4213
▁비슷한	-4214
▁셈이다	-4215
▁없으니	-4216
▁이유를	-4217
▁조른다	-4218
▁진정한	-4219
▁탓	-4220
미한	-4221
▁관리	-4222
▁양자	-4223
▁어둠	-4224
▁이길	-4225
▁줄래	-4226
▁관련된	-4227
▁그분은	-4228
▁되려면	-4229
▁위기에	-4230
▁학폭을	-4231
▁할는지	-4232
▁스트레스만	-4233
▁이율배반적	-4234
들에	-4235
샘이	-4236
▁등장	-4237
▁바탕	-4238
▁풀려	-4239
▁느리게	-4240
▁단단한	-4241
▁까다로워	-4242
▁해주는데	-4243
▁일반적이라니	-4244
▁뿌	-4245
▁찜	-4246
▁팔	-4247
브로	-4248
시고	-4249
▁도움	-4250
▁소독	-4251
▁오답	-4252
▁자각	-4253
▁나으시	-4254
▁살피는	-4255
▁이론이	-4256
▁조퇴를	-4257
▁생각했던	-4258
▁연속으로	-4259
▁했습니다	-4260
▁늙	-4261
▁디	-4262
▁착	-4263
문을	-4264
어가	-4265
토피	-4266
▁단결	-4267
▁만든	-4268
▁무시	-4269
▁외국	-4270
▁철저	-4271
▁체포	-4272
▁편찮	-4273
▁하굣	-4274
▁놓을까	-4275
▁먹었니	-4276
▁사실을	-4277
▁악마가	-4278
▁죽어서	-4279
▁트럼프	-4280
▁담임샘이	-4281
▁하굣길에	-4282
▁행동하게	-4283
▁나으시라고	-4284
▁편찮으셔서	-4285
드라	-4286
떠서	-4287
수의	-4288
▁계산	-4289
▁불이	-4290
▁선지	-4291
▁폐로	-4292
▁해라	-4293
▁시민의	-4294
▁요요가	-4295
▁이러한	-4296
▁혈액을	-4297
▁까다로워서	-4298
▁병행해야지	-4299
▁조절만으로는	-4300
▁젖	-4301
더라	-4302
쩍은	-4303
▁공간	-4304
▁대접	-4305
▁동맥	-4306
▁비싼	-4307
▁사슬	-4308
▁있던	-4309
▁내일을	-4310
▁본떠서	-4311
▁원하지	-4312
▁졸업한	-4313
▁태아의	-4314
▁되는구나	-4315
▁보이콧은	-4316
▁서비스가	-4317
▁없더라도	-4318
▁유년기의	-4319
▁해결하는	-4320
하였습니다	-4321
▁캐	-4322
▁마누	-4323
▁민주	-4324
▁불매	-4325
▁저희	-4326
▁곳만은	-4327
▁끊어질	-4328
▁끌리는	-4329
▁악마는	-4330
▁유토피	-4331
▁자유민	-4332
▁재수가	-4333
▁정부와	-4334
▁죽음이	-4335
▁지옥이	-4336
▁결혼하면	-4337
▁상대해야죠	-4338
▁자유민주주의	-4339
▁셔	-4340
깨나	-4341
드리	-4342
따란	-4343
▁그를	-4344
▁소득	-4345
▁지방	-4346
▁마누라	-4347
▁세상을	-4348
▁소리만	-4349
▁옷에든	-4350
▁짤따란	-4351
▁고생깨나	-4352
▁단결하여	-4353
▁동맥관이	-4354
▁시키겠어	-4355
▁심장에서	-4356
▁음식에든	-4357
▁태반으로	-4358
▁행복하게	-4359
▁심장에서는	-4360
▁흡	-4361
님도	-4362
부의	-4363
▁멋쩍	-4364
▁실을	-4365
▁사슬의	-4366
▁웃돈을	-4367
▁결합으로	-4368
▁그럼에도	-4369
▁당당하고	-4370
▁어제보다	-4371
▁대선	-4372
▁대추	-4373
▁사흘	-4374
▁없고	-4375
▁크다	-4376
▁객쩍은	-4377
▁실패가	-4378
▁행복한	-4379
어서인지	-4380
▁일어나는	-4381
▁주시는데	-4382
▁멋쩍어서인지	-4383
까이	-4384
▁끝난	-4385
▁모셔	-4386
▁언급	-4387
▁외교	-4388
라이팅	-4389
▁그만큼	-4390
▁따님이	-4391
▁반박이	-4392
▁사기가	-4393
▁없나요	-4394
▁전체의	-4395
▁가스라이팅	-4396
▁유토피아를	-4397
레이	-4398
심을	-4399
체는	-4400
▁곤혹	-4401
▁닦달	-4402
▁달인	-4403
▁얹혀	-4404
▁요거	-4405
▁원할	-4406
▁희망	-4407
▁게임만	-4408
▁분이나	-4409
▁세상은	-4410
▁장성한	-4411
만으로도	-4412
▁있으시지	-4413
▁첨	-4414
불을	-4415
척기	-4416
치기	-4417
▁기간	-4418
▁낯선	-4419
▁때론	-4420
▁머리	-4421
▁생기	-4422
▁가져다	-4423
▁모셔온	-4424
▁불가한	-4425
▁식기세	-4426
▁양자역	-4427
▁일본을	-4428
▁소독까지	-4429
▁이모님이	-4430
▁식기세척기	-4431
▁자유민주주의는	-4432
▁굼	-4433
▁콘	-4434
▁그가	-4435
▁내오	-4436
▁수강	-4437
▁숨이	-4438
상품은	-4439
▁만드는	-4440
▁보더니	-4441
▁최대한	-4442
▁닦달하면	-4443
▁얹혀줘도	-4444
▁숙제하라고	-4445
▁어머니께서	-4446
▁판매상품은	-4447
▁간직	-4448
▁굼벵	-4449
▁콜록	-4450
▁겨울이	-4451
▁셔츠를	-4452
▁수준을	-4453
▁점에서	-4454
▁내오셨다	-4455
▁다리다가	-4456
▁대추차를	-4457
▁콜록거리는	-4458
발을	-4459
수는	-4460
시아	-4461
▁달리	-4462
▁돌연	-4463
▁제도	-4464
▁진척	-4465
▁당신은	-4466
▁대접을	-4467
▁맞나요	-4468
▁연애는	-4469
▁응원해	-4470
▁인터넷	-4471
▁있겠어	-4472
▁좋아야	-4473
▁지금보다	-4474
▁굼벵이처럼	-4475
▁본능적으로	-4476
▁움직입니다	-4477
▁사라져버렸다	-4478
▁쓴	-4479
거의	-4480
서는	-4481
트를	-4482
▁득과	-4483
▁뭐야	-4484
▁불러	-4485
▁종일	-4486
▁풀고	-4487
▁할지	-4488
▁흐름	-4489
따라야	-4490
▁못하든	-4491
▁없어서	-4492
▁잘하면	-4493
▁엄마에게	-4494
▁자각하든	-4495
▁숲	-4496
겁지	-4497
▁망할	-4498
▁먹게	-4499
▁못할	-4500
▁문재	-4501
▁죽지	-4502
적이다	-4503
▁구하는	-4504
▁궁금해요	-4505
▁오래되어	-4506
식이	-4507
치자	-4508
▁개선	-4509
▁근본	-4510
▁기초	-4511
▁때도	-4512
▁살고	-4513
▁영양	-4514
▁점이	-4515
▁활동	-4516
길이다	-4517
▁정치권	-4518
▁정확한	-4519
▁곤혹스럽다	-4520
데요	-4521
아지	-4522
▁발전	-4523
▁수치	-4524
▁영광	-4525
▁예의	-4526
▁유럽	-4527
▁잠시	-4528
▁주요	-4529
▁것보다	-4530
▁여자가	-4531
▁좋다고	-4532
▁싸움에서	-4533
▁것만으로도	-4534
▁젊	-4535
화가	-4536
▁갈림	-4537
▁금새	-4538
▁기껏	-4539
▁이기	-4540
▁이익이	-4541
▁진척이	-4542
▁얼굴빛이	-4543
▁지내자고	-4544
▁환해졌다	-4545
▁휩	-4546
되면	-4547
묵은	-4548
▁따른	-4549
▁점을	-4550
준다고	-4551
▁경기를	-4552
▁경험만	-4553
▁넘어가	-4554
▁되었어	-4555
▁부분을	-4556
▁어제만	-4557
▁살아남을	-4558
▁쳐다보지	-4559
▁현장에서	-4560
승을	-4561
했고	-4562
▁라고	-4563
▁배가	-4564
▁메워야	-4565
▁몰랐어	-4566
▁수시와	-4567
▁수험생	-4568
▁숙맥이	-4569
▁어른은	-4570
▁얽히고	-4571
▁웃었다	-4572
▁하나의	-4573
▁떠난다는	-4574
▁미성년은	-4575
▁뽑	-4576
▁옳	-4577
뢰딩	-4578
지랑	-4579
▁남고	-4580
▁당장	-4581
▁몰디	-4582
▁부은	-4583
▁일에	-4584
▁잤어	-4585
겁지겁	-4586
슈뢰딩	-4587
▁꿈에도	-4588
▁땅에는	-4589
▁말하는	-4590
▁어둠이	-4591
▁카페가	-4592
적이게도	-4593
▁감수성이	-4594
▁돌연변이	-4595
▁얽히고설	-4596
▁허겁지겁	-4597
▁확실해요	-4598
▁선생님들의	-4599
▁역설적이게도	-4600
량이	-4601
로는	-4602
▁굽이	-4603
▁닥친	-4604
▁머물	-4605
▁물줄	-4606
▁밥통	-4607
▁빵이	-4608
▁쉽지	-4609
▁죄송	-4610
든지요	-4611
▁감정이	-4612
▁미국의	-4613
▁하든지	-4614
▁허기를	-4615
▁몰디브로	-4616
▁치르기를	-4617
슈뢰딩거의	-4618
▁설명해주는	-4619
▁양자역학을	-4620
▁얽히고설키는	-4621
번의	-4622
추고	-4623
▁년간	-4624
▁봤자	-4625
▁빛도	-4626
▁참여	-4627
▁곳에서	-4628
▁꺼내어	-4629
▁속도로	-4630
▁있도록	-4631
▁정시의	-4632
▁경찰에게	-4633
▁굽이굽이	-4634
▁기껏해야	-4635
▁명심하고	-4636
▁갈림길이다	-4637
▁기말고사를	-4638
▁보시든지요	-4639
▁최선입니까	-4640
▁던	-4641
진강	-4642
쩍게	-4643
체로	-4644
▁속담	-4645
▁어딨	-4646
▁기사가	-4647
▁내성과	-4648
▁북한이	-4649
▁섬진강	-4650
▁쉬어져	-4651
▁않아야	-4652
▁이러나	-4653
▁잡아당	-4654
▁체포된	-4655
▁간직하는	-4656
▁범죄자는	-4657
▁일어났었다	-4658
▁바이러스에게	-4659
▁바이러스와의	-4660
▁10	-4661
▁겸연	-4662
하시면	-4663
▁극진한	-4664
▁밥통째	-4665
▁있대요	-4666
▁겸연쩍게	-4667
▁단계에서	-4668
▁도도하게	-4669
▁딴따라야	-4670
▁마주치자	-4671
▁망할려고	-4672
▁물줄기를	-4673
▁사흘간의	-4674
▁풀려났다	-4675
롭게	-4676
막이	-4677
법을	-4678
에만	-4679
젠더	-4680
▁개입	-4681
▁끝낸	-4682
▁나누	-4683
▁읽고	-4684
▁접근	-4685
▁접종	-4686
▁효율	-4687
십니까	-4688
자에게	-4689
▁기차가	-4690
▁인생이	-4691
▁초점을	-4692
▁친구는	-4693
▁탄생도	-4694
▁목적지에	-4695
▁보기	-4696
▁젠더	-4697
▁대박이	-4698
▁문재인	-4699
▁점이다	-4700
▁경우에는	-4701
▁재고돼야	-4702
받지	-4703
하군	-4704
▁맞을	-4705
▁실수	-4706
▁증거	-4707
할까요	-4708
▁그림자	-4709
▁하기엔	-4710
▁드라마가	-4711
▁우리나라	-4712
▁무엇인가요	-4713
▁촉	-4714
명을	-4715
안이	-4716
치에	-4717
▁구매	-4718
▁깊숙	-4719
▁시절	-4720
▁완연	-4721
▁찜질	-4722
었다고	-4723
▁데려다	-4724
▁되었다	-4725
▁멈추지	-4726
▁알맞은	-4727
▁속담에는	-4728
▁최선이란	-4729
▁데려다준다고	-4730
▁거기	-4731
▁법이야	-4732
▁아들은	-4733
▁아지랑	-4734
▁친구를	-4735
▁반대하는	-4736
국의	-4737
▁리가	-4738
▁식품	-4739
▁실망	-4740
▁짜증	-4741
▁침범	-4742
▁늙어서	-4743
▁됐는데	-4744
▁이것으로	-4745
▁아지랑이가	-4746
▁좌	-4747
신은	-4748
▁제로	-4749
▁통합	-4750
자들은	-4751
▁구제는	-4752
▁깊숙이	-4753
▁의미를	-4754
▁찜질방	-4755
▁나라님도	-4756
▁사람한테	-4757
▁완연하군	-4758
▁있으려고	-4759
▁맞아버리는	-4760
▁여기까지는	-4761
▁피어오르는	-4762
▁덕	-4763
▁맹	-4764
▁것과	-4765
▁베풀	-4766
▁했던	-4767
니만큼	-4768
▁결과가	-4769
▁대박이길	-4770
▁화장품이	-4771
▁생각합니다	-4772
▁화장품이니만큼	-4773
절한	-4774
▁젖어	-4775
뿐더러	-4776
▁부정적인	-4777
▁주기까지	-4778
▁했을뿐더러	-4779
▁낼	-4780
▁색	-4781
기게	-4782
▁가진	-4783
▁남은	-4784
▁대상	-4785
▁뭔지	-4786
▁우산	-4787
▁잠이	-4788
▁주인	-4789
▁출제	-4790
▁동시에	-4791
▁먹기에	-4792
▁무엇을	-4793
▁손해를	-4794
력은	-4795
▁깊게	-4796
▁만한	-4797
▁장관	-4798
시키는	-4799
▁누구도	-4800
▁들어서	-4801
▁부분은	-4802
▁일어난	-4803
▁축사를	-4804
▁기본이다	-4805
▁혁	-4806
구요	-4807
▁감돌	-4808
▁감소	-4809
▁결론	-4810
▁아깝	-4811
▁치료	-4812
자들의	-4813
▁며느리는	-4814
▁독서실에서	-4815
안에	-4816
▁갈음	-4817
▁칼로	-4818
▁케케	-4819
▁합의	-4820
▁현역	-4821
님께서	-4822
되었다	-4823
▁여름의	-4824
▁지치지	-4825
▁호의를	-4826
▁케케묵은	-4827
▁영광스러운	-4828
.”	-4829
리면	-4830
임을	-4831
▁고기	-4832
▁대면	-4833
▁방송	-4834
▁별로	-4835
▁주저	-4836
드라마	-4837
사랑의	-4838
▁좋아요	-4839
▁주세요	-4840
▁했어요	-4841
▁인생으로	-4842
가간	-4843
성에	-4844
함을	-4845
▁공동	-4846
▁부동	-4847
▁제한	-4848
▁줄어	-4849
▁틀딱	-4850
▁휩싸	-4851
가까이	-4852
희미한	-4853
▁장가간	-4854
하겠다는	-4855
▁옛사랑의	-4856
▁만들어졌다는	-4857
▁갈음하겠습니다	-4858
▁긍	-4859
▁및	-4860
▁습	-4861
리기	-4862
▁비용	-4863
▁상향	-4864
▁읽어	-4865
▁주춤	-4866
▁지적	-4867
▁특별	-4868
▁파헤	-4869
▁같다고	-4870
▁단계로	-4871
▁모습을	-4872
▁무서운	-4873
▁버스나	-4874
▁아니고	-4875
▁알려주	-4876
▁공부하는	-4877
▁틀딱들의	-4878
마저	-4879
체의	-4880
▁글을	-4881
▁금방	-4882
▁내고	-4883
▁말로	-4884
▁점점	-4885
▁한일	-4886
▁감돌던	-4887
▁높지만	-4888
▁다녀라	-4889
▁바라지	-4890
▁버스엔	-4891
▁싶은데	-4892
▁열기도	-4893
▁자식아	-4894
▁적막이	-4895
▁바이러스가	-4896
▁2	-4897
▁걔	-4898
▁끼	-4899
▁든	-4900
▁물리	-4901
▁숲속	-4902
▁작용	-4903
▁추진	-4904
▁문제에	-4905
▁촬영을	-4906
▁상처받지	-4907
▁생각하고	-4908
▁어딨겠어	-4909
▁침범하지	-4910
▁들어가보니	-4911
▁시원하구나	-4912
▁술	-4913
턴트	-4914
▁걸핏	-4915
▁내부	-4916
▁분야	-4917
▁빠진	-4918
▁실전	-4919
▁압박	-4920
▁주제	-4921
▁더위가	-4922
▁걸핏하면	-4923
경계	-4924
▁기울	-4925
▁날이	-4926
▁논의	-4927
▁득을	-4928
▁성실	-4929
▁예방	-4930
으로는	-4931
▁감독은	-4932
▁공부할	-4933
▁궁금한	-4934
▁기승을	-4935
▁빠르게	-4936
▁속한다	-4937
▁귓	-4938
원은	-4939
치면	-4940
▁섞여	-4941
▁안에	-4942
▁부리고	-4943
▁원리의	-4944
▁이들이	-4945
▁일정하여	-4946
▁시스템이나	-4947
▁뜨	-4948
어버	-4949
오는	-4950
▁개시	-4951
▁미리	-4952
▁본다	-4953
▁안정	-4954
▁인스	-4955
▁처벌	-4956
냅니다	-4957
인데요	-4958
▁경우도	-4959
▁아파도	-4960
▁욕하는	-4961
▁패스트	-4962
▁하는지	-4963
▁제로섬은	-4964
푸드	-4965
▁언어	-4966
▁위함	-4967
▁유전	-4968
식품이	-4969
▁문제로	-4970
▁불안하다	-4971
▁패스트푸드	-4972
?”	-4973
▁긍정	-4974
▁동일	-4975
▁예를	-4976
▁인해	-4977
▁확보	-4978
먹었다	-4979
봅니다	-4980
▁귓불을	-4981
▁보느라	-4982
▁저렇게	-4983
▁하시노	-4984
▁영양가가	-4985
▁인스턴트	-4986
▁잡아당겼다	-4987
크푸	-4988
▁거부	-4989
▁해보	-4990
하네요	-4991
▁여기가	-4992
▁정크푸	-4993
▁칼로리는	-4994
▁정크푸드는	-4995
▁하겠습니다	-4996
▁인스턴트식품이	-4997
▁라	-4998
감독	-4999
서를	-5000
작용	-5001
▁가격	-5002
▁물이	-5003
▁수용	-5004
▁어릴	-5005
▁태워	-5006
이기도	-5007
▁문제집	-5008
▁하루에	-5009
과를	-5010
틈이	-5011
▁맞추	-5012
▁생산	-5013
▁위협	-5014
▁이따	-5015
▁재밌	-5016
▁전제	-5017
더기가	-5018
▁기대에	-5019
▁들으며	-5020
▁이겼다	-5021
▁지지율	-5022
▁한일전	-5023
▁전달하지	-5024
▁듬	-5025
▁높아	-5026
▁속도	-5027
▁하에	-5028
하시고	-5029
해지고	-5030
▁거라고	-5031
▁곤란한	-5032
▁대기업	-5033
▁국제사회	-5034
▁불이익을	-5035
▁사랑하는	-5036
▁주춤하며	-5037
▁하루네요	-5038
▁조정하였습니다	-5039
냐는	-5040
야지	-5041
체를	-5042
▁가시	-5043
▁놀고	-5044
▁바뀐	-5045
▁배경	-5046
▁불편	-5047
▁고등어	-5048
▁예의야	-5049
▁의리고	-5050
▁있었던	-5051
▁한국의	-5052
▁문제에서	-5053
▁척해주는	-5054
▁필요하지만	-5055
견을	-5056
두고	-5057
뒹굴	-5058
럽게	-5059
침은	-5060
▁갈게	-5061
▁계절	-5062
▁대립	-5063
▁민생	-5064
▁상승	-5065
▁어쨌	-5066
▁제거	-5067
▁경기가	-5068
▁사회가	-5069
▁상황에	-5070
▁전문가	-5071
하였지만	-5072
▁위함이다	-5073
▁각각	-5074
▁당사	-5075
▁듬뿍	-5076
▁아래	-5077
▁앞서	-5078
▁조마	-5079
▁지키	-5080
감독의	-5081
냐하면	-5082
조림을	-5083
▁부동산	-5084
▁이들의	-5085
▁전략상	-5086
▁전화를	-5087
▁졸이며	-5088
▁홍수가	-5089
▁조감독의	-5090
▁태워먹었다	-5091
▁개시하였지만	-5092
▁고등어조림을	-5093
상의	-5094
▁맞춘	-5095
▁받은	-5096
▁풀면	-5097
▁화학	-5098
▁개념을	-5099
▁결과를	-5100
▁대상을	-5101
▁모르고	-5102
▁배우기	-5103
▁생겨도	-5104
▁아깝지	-5105
▁휩싸일	-5106
▁파헤치기	-5107
인가	-5108
직한	-5109
▁꽃이	-5110
▁다섯	-5111
▁뒹굴	-5112
▁시골	-5113
▁주고	-5114
▁측면	-5115
▁되거든	-5116
▁분명히	-5117
▁정신이	-5118
▁풀어야	-5119
▁넘어지는	-5120
▁이야기를	-5121
▁앓	-5122
림칙	-5123
▁곡괭	-5124
▁아들	-5125
▁이때	-5126
▁전진	-5127
이섬은	-5128
▁공사로	-5129
▁꺼림칙	-5130
▁보시면	-5131
▁보이지	-5132
▁세상에	-5133
▁처하자	-5134
▁곡괭이로	-5135
▁조마이섬은	-5136
▁질문합니다	-5137
▁뚝	-5138
▁맺	-5139
데도	-5140
심과	-5141
요일	-5142
▁거는	-5143
▁공감	-5144
▁교수	-5145
▁극복	-5146
▁대북	-5147
▁보호	-5148
▁승낙	-5149
▁시도	-5150
▁인물	-5151
▁전부	-5152
▁충돌	-5153
▁태도	-5154
▁그렇지	-5155
▁맞아야	-5156
▁원숭이	-5157
▁틈틈이	-5158
▁건더기가	-5159
▁육개장에는	-5160
이무	-5161
▁가설	-5162
▁가치	-5163
▁공돈	-5164
▁늘어	-5165
▁받았	-5166
▁산책	-5167
▁전망	-5168
▁된다고	-5169
▁민생을	-5170
▁승낙이	-5171
▁절대적	-5172
▁통해서	-5173
▁음악이나	-5174
문제	-5175
▁밤을	-5176
▁쉬운	-5177
▁예쁜	-5178
▁코로	-5179
▁나온다	-5180
▁느낌이	-5181
▁뒹굴고	-5182
▁말이다	-5183
▁모르게	-5184
이라지만	-5185
▁꺼림칙해서	-5186
▁공돈이라지만	-5187
▁벼	-5188
▁두창	-5189
▁작든	-5190
▁지자	-5191
▁찾는	-5192
▁크든	-5193
▁그들이	-5194
▁반찬은	-5195
▁보이는	-5196
▁속에서	-5197
▁않아요	-5198
▁해서도	-5199
런히	-5200
시니	-5201
우연	-5202
점은	-5203
▁말은	-5204
▁망설	-5205
▁분노	-5206
▁싶지	-5207
▁검찰은	-5208
▁그래프	-5209
▁벗어나	-5210
▁수치심	-5211
▁아직도	-5212
▁앞길을	-5213
▁해외로	-5214
▁만들어라	-5215
▁아니에요	-5216
▁어울리지	-5217
▁지역에는	-5218
▁짭짤하게	-5219
우로	-5220
조름	-5221
▁등급	-5222
▁보도	-5223
▁안고	-5224
▁유도	-5225
▁하게	-5226
▁당기게	-5227
▁따위의	-5228
▁어쨌든	-5229
▁오이무	-5230
▁이제는	-5231
▁짭조름	-5232
▁오이무침은	-5233
▁짭조름해서	-5234
▁숫	-5235
▁규칙	-5236
▁이들	-5237
▁젊은	-5238
▁청년	-5239
▁놀이터	-5240
▁다르게	-5241
▁다수가	-5242
▁되는데	-5243
▁되는지	-5244
▁고등학교	-5245
정은	-5246
풀이	-5247
▁시행	-5248
▁이전	-5249
셨나요	-5250
화에서	-5251
▁기준이	-5252
▁신뢰가	-5253
▁코로나	-5254
▁후회나	-5255
▁방해하게	-5256
▁전진해야	-5257
▁해냅니다	-5258
▁가져다주는	-5259
▁나도	-5260
▁반면	-5261
▁영역	-5262
▁작업	-5263
▁장면	-5264
▁혹은	-5265
원에서	-5266
▁데리고	-5267
▁도로를	-5268
▁이들은	-5269
▁지문을	-5270
비아	-5271
▁공통	-5272
▁말할	-5273
▁맹목	-5274
▁번을	-5275
▁완벽	-5276
▁주목	-5277
▁참고	-5278
▁보면서	-5279
▁이기적인	-5280
▁깔	-5281
자와	-5282
▁기관	-5283
▁미세	-5284
▁평균	-5285
▁하락	-5286
▁형태	-5287
으려고	-5288
▁같네요	-5289
▁공익을	-5290
▁바람도	-5291
▁선생님의	-5292
국이	-5293
져야	-5294
▁경기	-5295
▁급히	-5296
▁기록	-5297
▁썼다	-5298
▁어딜	-5299
▁운영	-5300
▁이혼	-5301
▁정의	-5302
▁과정을	-5303
▁이따가	-5304
▁한국당	-5305
▁품	-5306
전을	-5307
한대	-5308
▁공격	-5309
▁나머	-5310
▁님비	-5311
▁속에	-5312
▁수출	-5313
▁자본	-5314
▁제작	-5315
▁호기	-5316
▁나오면	-5317
▁모른다	-5318
▁가지런히	-5319
▁생각보다	-5320
▁현상이란	-5321
집에	-5322
▁먹는	-5323
▁비도	-5324
▁빠져	-5325
▁왔다	-5326
▁점수	-5327
▁주민	-5328
▁책을	-5329
▁특징	-5330
▁헌법	-5331
적이고	-5332
하므로	-5333
▁누구나	-5334
▁밖에서	-5335
▁스치고	-5336
▁프로젝	-5337
▁피려면	-5338
▁학생들이	-5339
▁띄	-5340
▁페	-5341
증이	-5342
▁걸릴	-5343
▁다들	-5344
▁벌어	-5345
▁아침	-5346
▁예산	-5347
▁위원	-5348
▁않을까	-5349
▁질문이	-5350
▁맞아야지	-5351
▁시간마다	-5352
▁빚	-5353
▁가든	-5354
▁납득	-5355
▁이중	-5356
▁처리	-5357
▁판결	-5358
▁퍼부	-5359
부들이	-5360
▁가능할	-5361
▁가리지	-5362
▁시작한	-5363
▁조금씩	-5364
▁신발들은	-5365
▁냉	-5366
▁뇌	-5367
▁뉴	-5368
미를	-5369
에선	-5370
▁도시	-5371
▁매년	-5372
▁차별	-5373
▁필수	-5374
겠구먼	-5375
볼게요	-5376
소하게	-5377
▁놓아라	-5378
▁벗어던	-5379
▁현관의	-5380
▁만들어진	-5381
▁지금까지	-5382
▁놀이터에서	-5383
돌을	-5384
▁베트	-5385
▁아버	-5386
▁운명	-5387
▁위에	-5388
하도록	-5389
▁대해서는	-5390
▁시끄럽게	-5391
▁암기하세요	-5392
▁괴	-5393
락에	-5394
▁강력	-5395
▁계층	-5396
▁바랄	-5397
▁비를	-5398
▁비해	-5399
▁시장	-5400
▁베트남	-5401
▁올해는	-5402
▁입장을	-5403
▁익숙함이	-5404
▁맹목적으로	-5405
▁짧	-5406
▁찬	-5407
과학	-5408
섭섭	-5409
어줄	-5410
종의	-5411
▁검사	-5412
▁골칫	-5413
▁아드	-5414
▁아찔	-5415
▁커리	-5416
▁흔들	-5417
하는지	-5418
▁강아지	-5419
▁개념이	-5420
▁여자의	-5421
▁이유로	-5422
▁줄이면	-5423
섭섭하시	-5424
▁떠나시니	-5425
▁무서운지	-5426
▁아드님께서	-5427
▁시원섭섭하시	-5428
▁시원섭섭하시겠구먼	-5429
려야	-5430
문학	-5431
생활	-5432
황을	-5433
▁그에	-5434
▁문항	-5435
▁보다	-5436
▁아까	-5437
▁의대	-5438
▁중단	-5439
▁콘텐	-5440
▁부족한	-5441
▁사실은	-5442
▁심장이	-5443
▁애정과	-5444
▁골칫거리	-5445
▁감사하겠습니다	-5446
▁쏟	-5447
역한	-5448
▁설득	-5449
▁충격	-5450
▁끝내기	-5451
▁난이도	-5452
▁않아서	-5453
▁프로젝트	-5454
▁학생입니다	-5455
▁깍	-5456
규직	-5457
난다	-5458
버려	-5459
추장	-5460
▁거다	-5461
▁깍두	-5462
▁뚝배	-5463
▁미적	-5464
▁주역	-5465
▁글자로	-5466
▁뜻이다	-5467
▁말했다	-5468
▁메웠다	-5469
▁사실상	-5470
▁사회의	-5471
▁행동하면	-5472
▁골칫거리야	-5473
구가	-5474
주고	-5475
커녕	-5476
하죠	-5477
화는	-5478
▁명품	-5479
▁소통	-5480
▁안되	-5481
▁앓고	-5482
▁해물	-5483
라잖아	-5484
▁거추장	-5485
▁기억이	-5486
▁폭우로	-5487
리겠다는	-5488
▁깍두기가	-5489
▁마음으로	-5490
▁망설이다	-5491
▁아닙니다	-5492
▁아십니까	-5493
▁인부들이	-5494
▁퍼부어줄	-5495
▁뚝배기에는	-5496
▁벗어던지고	-5497
▁낸	-5498
게가	-5499
대체	-5500
례허	-5501
▁규제	-5502
▁길이	-5503
▁꿈은	-5504
▁법원	-5505
▁보인	-5506
▁안보	-5507
▁출근	-5508
례허식	-5509
▁남친과	-5510
▁도대체	-5511
▁예식을	-5512
▁이것도	-5513
▁간소하게	-5514
▁생각하면	-5515
▁허례허식	-5516
▁의미입니다	-5517
▁전번이란다	-5518
▁거추장스러운	-5519
당한	-5520
지면	-5521
▁남의	-5522
▁말자	-5523
▁문법	-5524
▁음방	-5525
▁조작	-5526
▁말씀을	-5527
▁새웠어	-5528
▁생각하	-5529
▁아찔한	-5530
▁어디인	-5531
▁공포에는	-5532
▁녹화에서	-5533
▁대면하게	-5534
▁무엇인지	-5535
▁사이라도	-5536
▁아이돌을	-5537
▁큰소리치고	-5538
?'	-5539
▁빌	-5540
▁푼	-5541
교육	-5542
▁복잡	-5543
▁손을	-5544
▁요금	-5545
▁흐릿	-5546
당신은	-5547
비아니	-5548
았어요	-5549
▁나름의	-5550
▁누리는	-5551
▁막역한	-5552
▁머물기	-5553
▁아기를	-5554
▁인식할	-5555
▁고통에는	-5556
▁너비아니	-5557
▁산책한대	-5558
▁장애물을	-5559
▁하늘에서	-5560
▁괜찮을까요	-5561
▁생각했는데	-5562
▁여자라잖아	-5563
구를	-5564
르고	-5565
시키	-5566
▁개를	-5567
▁것에	-5568
▁상상	-5569
▁실험	-5570
▁적지	-5571
▁직장	-5572
점에서	-5573
▁똑같은	-5574
▁아이가	-5575
▁않도록	-5576
▁해결을	-5577
▁친구들이	-5578
▁흐릿하게	-5579
▁안전하지만	-5580
▁헤	-5581
막을	-5582
▁사망	-5583
▁올리	-5584
▁의식	-5585
▁중간	-5586
▁진자	-5587
▁차례	-5588
하다가	-5589
▁끝까지	-5590
▁낳으면	-5591
▁수사를	-5592
▁옆	-5593
하나	-5594
▁녀석	-5595
▁신고	-5596
▁잊고	-5597
▁탄핵	-5598
니까요	-5599
집에서	-5600
▁국회의	-5601
▁사람들	-5602
▁산업의	-5603
▁성장과	-5604
▁의도는	-5605
▁첫사랑	-5606
았습니다	-5607
▁겉	-5608
군요	-5609
큘럼	-5610
피사	-5611
▁건데	-5612
▁군사	-5613
▁다루	-5614
▁달은	-5615
▁되돌	-5616
▁빠트	-5617
▁종교	-5618
▁좋다	-5619
▁해소	-5620
▁해외	-5621
▁현장	-5622
이에나	-5623
▁과정이	-5624
▁그것이	-5625
▁대책을	-5626
▁땅까지	-5627
▁미국이	-5628
▁잊어버	-5629
▁했지만	-5630
피사체로	-5631
▁사진이야	-5632
▁왜냐하면	-5633
▁촬영하여	-5634
▁하이에나	-5635
▁행복하다	-5636
▁중심피사체로	-5637
▁굵	-5638
▁능력	-5639
▁목욕	-5640
▁복지	-5641
▁선배	-5642
▁첨부	-5643
▁출발	-5644
▁하염	-5645
▁흡연	-5646
브레이	-5647
▁계절에	-5648
▁믿음이	-5649
▁생각과	-5650
▁주셔서	-5651
▁주시면	-5652
▁현대인	-5653
▁확대가	-5654
▁것이라는	-5655
▁커리큘럼	-5656
▁하염없이	-5657
▁계속하였다	-5658
▁첫사랑이었다	-5659
▁옮	-5660
분을	-5661
신을	-5662
▁가야	-5663
▁걔가	-5664
▁기능	-5665
▁등의	-5666
▁선수	-5667
▁열어	-5668
▁입장	-5669
▁노력을	-5670
▁논란이	-5671
▁북한은	-5672
▁불안해	-5673
▁자기가	-5674
▁아버지는	-5675
▁호기심과	-5676
렀다	-5677
약을	-5678
▁깊은	-5679
▁다가	-5680
▁무리	-5681
▁살펴	-5682
▁애초	-5683
▁자랑	-5684
▁설명을	-5685
▁수단과	-5686
▁주인공	-5687
▁학교에서	-5688
▁이유입니다	-5689
아도	-5690
트가	-5691
히는	-5692
▁검토	-5693
▁공정	-5694
▁모양	-5695
▁몸무	-5696
▁의도	-5697
▁파탄	-5698
▁행태	-5699
느라고	-5700
▁결혼을	-5701
▁고치면	-5702
▁나아갈	-5703
▁미세먼	-5704
▁일자리	-5705
▁장소를	-5706
▁변화되는	-5707
▁성공으로	-5708
나는	-5709
▁관한	-5710
▁봄만	-5711
▁비공	-5712
▁악은	-5713
으로써	-5714
▁상당히	-5715
▁아닌가	-5716
▁어디에	-5717
▁왕성한	-5718
▁이거는	-5719
▁있고요	-5720
▁생각해요	-5721
▁여기에서	-5722
▁러	-5723
▁맥	-5724
비를	-5725
선이	-5726
성도	-5727
▁규명	-5728
▁반발	-5729
▁방화	-5730
▁어휘	-5731
▁원망	-5732
▁위로	-5733
▁제외	-5734
▁회의	-5735
▁끝나고	-5736
▁대한민	-5737
▁호황을	-5738
▁부분에서	-5739
??	-5740
▁덜	-5741
▁봉	-5742
기만	-5743
지로	-5744
▁도덕	-5745
▁방역	-5746
▁사법	-5747
▁세대	-5748
▁외면	-5749
▁이끎	-5750
▁잡고	-5751
▁전환	-5752
▁중앙	-5753
이지만	-5754
▁나락에	-5755
▁시작하	-5756
▁잇	-5757
▁대법	-5758
▁비정	-5759
▁와서	-5760
▁철들	-5761
▁파일	-5762
느냐에	-5763
▁강의는	-5764
▁너무나	-5765
▁들어도	-5766
▁들어야	-5767
▁사랑과	-5768
▁싶어서	-5769
▁인식을	-5770
▁계속되어	-5771
▁맡겠다는	-5772
▁몸무게가	-5773
▁주역들이	-5774
▁증후군은	-5775
▁성실하므로	-5776
▁상대방으로부터	-5777
놈은	-5778
래도	-5779
심이	-5780
▁각종	-5781
▁고용	-5782
▁열등	-5783
▁일상	-5784
▁민주당	-5785
▁잘못을	-5786
▁공공기관을	-5787
▁죄송합니다	-5788
▁부정적인데도	-5789
▁빠트리겠다는	-5790
보며	-5791
임금	-5792
젠데	-5793
학생	-5794
했지	-5795
▁독해	-5796
▁떠올	-5797
▁병원	-5798
▁불법	-5799
▁애쓰	-5800
▁예술	-5801
▁자동	-5802
스럽게	-5803
▁갈수록	-5804
▁바꾸어	-5805
▁성적이	-5806
▁여자만	-5807
▁일본의	-5808
▁출장을	-5809
▁편견을	-5810
▁폭탄을	-5811
되었	-5812
▁데우	-5813
▁똑같	-5814
▁시기	-5815
▁어떠	-5816
▁올림	-5817
▁이끌	-5818
▁잠가	-5819
▁당하기	-5820
▁말이야	-5821
▁속도가	-5822
▁얘기다	-5823
▁여행은	-5824
▁구체적인	-5825
▁목소리가	-5826
▁잠가버려	-5827
▁희생되었다	-5828
▁징	-5829
구는	-5830
문이	-5831
사에	-5832
펄에	-5833
▁보수	-5834
▁비롯	-5835
▁읽는	-5836
▁캐고	-5837
▁가스를	-5838
▁개펄에	-5839
▁권리를	-5840
▁꼬막을	-5841
▁나오고	-5842
▁생겨서	-5843
▁성공한	-5844
▁속도를	-5845
▁심각한	-5846
▁요렇게	-5847
▁콘텐츠	-5848
적거리는	-5849
▁유지하는	-5850
▁시골집에서	-5851
."	-5852
▁석	-5853
먹은	-5854
별로	-5855
▁갈아	-5856
▁거리	-5857
▁꽤나	-5858
▁남겨	-5859
▁들으	-5860
▁보장	-5861
▁비핵	-5862
▁사안	-5863
▁쓰고	-5864
▁저지	-5865
▁청소	-5866
된다는	-5867
▁걸릴지	-5868
▁싶네요	-5869
▁어젠데	-5870
▁출장은	-5871
▁가해자를	-5872
▁며칠이나	-5873
▁목욕물을	-5874
▁방식으로	-5875
▁아니라고	-5876
▁것이었지만	-5877
▁데우느라고	-5878
▁잊어버린다	-5879
위에	-5880
▁등골	-5881
▁민간	-5882
▁불평	-5883
▁소설	-5884
▁예측	-5885
▁기술이	-5886
▁만약에	-5887
▁인사를	-5888
▁저놈은	-5889
▁중국의	-5890
▁행복은	-5891
▁아름다운	-5892
▁집적거리는	-5893
▁횡	-5894
리즘	-5895
▁고전	-5896
▁구속	-5897
▁기분	-5898
▁마무	-5899
▁부끄	-5900
▁소재	-5901
▁요런	-5902
▁포인	-5903
하려면	-5904
▁검찰이	-5905
▁관계는	-5906
▁기회를	-5907
▁많아요	-5908
▁작년에	-5909
▁사람들의	-5910
▁살아간다	-5911
▁시민들의	-5912
▁일어나기	-5913
▁좋겠어요	-5914
나고	-5915
자놀	-5916
▁끌어	-5917
▁다름	-5918
▁본인	-5919
▁성립	-5920
▁연계	-5921
▁진정	-5922
했는지	-5923
▁계획을	-5924
▁관자놀	-5925
▁단순히	-5926
▁문제도	-5927
▁보세요	-5928
▁살았다	-5929
▁올림픽	-5930
▁하시는	-5931
▁희생이	-5932
브레이커	-5933
▁바꿔주는	-5934
▁사건들이	-5935
끈지	-5936
던데	-5937
라우	-5938
▁간단	-5939
▁깨달	-5940
▁따뜻	-5941
▁봐요	-5942
▁빼야	-5943
▁임금	-5944
▁합리	-5945
끈지끈	-5946
▁가시밭	-5947
▁감추고	-5948
▁당연한	-5949
▁이유다	-5950
▁재발을	-5951
▁정책을	-5952
▁사실이다	-5953
▁지끈지끈	-5954
브레이커인	-5955
▁관자놀이가	-5956
▁등골브레이커인	-5957
▁지끈지끈하였다	-5958
워요	-5959
학과	-5960
▁가도	-5961
▁공유	-5962
▁번은	-5963
▁상담	-5964
▁생겼	-5965
▁입시	-5966
▁체크	-5967
▁게다가	-5968
▁믿어지	-5969
▁바탕이	-5970
▁애쓰지	-5971
▁정도는	-5972
▁트라우	-5973
적으로는	-5974
▁반복했다	-5975
▁클	-5976
▁휘	-5977
가고	-5978
이었	-5979
했기	-5980
▁감정	-5981
▁내는	-5982
▁아빠	-5983
▁인상	-5984
▁일주	-5985
▁장기	-5986
▁전파	-5987
▁좋지	-5988
▁기출을	-5989
▁미국은	-5990
▁사과는	-5991
▁오류가	-5992
▁있으니	-5993
▁친구들	-5994
▁않았다는	-5995
▁있잖아요	-5996
▁가시밭길을	-5997
▁부탁드립니다	-5998
▁컴	-5999
국은	-6000
았던	-6001
▁긴장	-6002
▁도입	-6003
▁알면	-6004
▁찾을	-6005
▁가해가	-6006
▁갔지만	-6007
▁소식을	-6008
▁일이란	-6009
하시나요	-6010
▁미워하고	-6011
▁트라우마가	-6012
▁좁	-6013
기고	-6014
뒤꿈	-6015
등을	-6016
리다	-6017
사일	-6018
이죠	-6019
▁것만	-6020
▁관찰	-6021
▁밝혀	-6022
▁의해	-6023
▁확률	-6024
▁걷느냐	-6025
▁굵직한	-6026
▁꽃길을	-6027
▁발뒤꿈	-6028
▁있었어	-6029
▁점수가	-6030
▁그런데도	-6031
▁사과하려	-6032
▁피해자로서	-6033
▁걷느냐보다는	-6034
▁받아들이느냐에	-6035
공동	-6036
뉘엿	-6037
말에	-6038
번에	-6039
셔도	-6040
▁공무	-6041
▁방치	-6042
▁온다	-6043
▁표시	-6044
되나요	-6045
되면서	-6046
하라는	-6047
▁거에요	-6048
▁말씀드	-6049
▁맞는지	-6050
▁수업을	-6051
▁아닌지	-6052
▁이해할	-6053
▁일간에	-6054
▁한다면	-6055
▁현실을	-6056
체로서의	-6057
▁믿어지니	-6058
▁운명공동	-6059
▁원망하면	-6060
▁지옥이다	-6061
▁운명공동체로서의	-6062
욕을	-6063
▁그나	-6064
▁들여	-6065
▁받지	-6066
▁빈칸	-6067
▁쉬고	-6068
▁어쩌	-6069
▁전공	-6070
▁각질이	-6071
▁고생들	-6072
▁부작용	-6073
▁사회에	-6074
▁안되는	-6075
▁혐의를	-6076
▁버티느라	-6077
▁알고리즘	-6078
▁제거해도	-6079
▁걱정거리를	-6080
▁발뒤꿈치에	-6081
▁시작하더니	-6082
▁꿔	-6083
감생	-6084
과가	-6085
류의	-6086
았을	-6087
▁기숙	-6088
▁노조	-6089
▁답을	-6090
▁덕분	-6091
▁심리	-6092
▁악화	-6093
▁알겠	-6094
▁인권	-6095
▁재떨	-6096
감생심	-6097
일까요	-6098
▁것들이	-6099
▁관계를	-6100
▁놓아둘	-6101
▁들어와	-6102
▁방식을	-6103
▁사건이	-6104
▁재미난	-6105
▁풀어도	-6106
▁한국사	-6107
▁건물인데	-6108
▁시민들이	-6109
▁아무래도	-6110
▁언감생심	-6111
▁여러분이	-6112
▁열등감을	-6113
▁재떨이를	-6114
▁불안해하며	-6115
봐도	-6116
▁객관	-6117
▁노트	-6118
▁시계	-6119
▁촉구	-6120
▁플래	-6121
▁하신	-6122
하기는	-6123
▁경제가	-6124
▁고민이	-6125
▁대화를	-6126
▁자신을	-6127
▁최선을	-6128
▁않는다고	-6129
▁구체적으로	-6130
▁브	-6131
단을	-6132
대의	-6133
▁논란	-6134
▁마치	-6135
▁상징	-6136
▁싶을	-6137
▁일탈	-6138
▁전반	-6139
▁제목	-6140
▁나오지	-6141
▁순간이	-6142
▁아무런	-6143
▁이거야	-6144
▁일주일	-6145
▁강의에서	-6146
▁공부하고	-6147
▁아니라면	-6148
▁않는다면	-6149
이스	-6150
해져	-6151
▁요청	-6152
하지도	-6153
▁걸까요	-6154
▁것들을	-6155
▁모두가	-6156
▁변화가	-6157
▁신뢰를	-6158
▁상황이다	-6159
▁처음부터	-6160
▁묘	-6161
세가	-6162
없다	-6163
▁가정	-6164
▁개정	-6165
▁던져	-6166
▁드리	-6167
▁비난	-6168
▁쏟아	-6169
▁입력	-6170
▁자격	-6171
▁조치	-6172
▁하죠	-6173
자리에	-6174
▁나왔다	-6175
▁아들과	-6176
▁플래너	-6177
졌어	-6178
주로	-6179
체에	-6180
하니	-6181
▁거론	-6182
▁무너	-6183
▁습관	-6184
▁일방	-6185
▁통한	-6186
▁파인	-6187
▁따위가	-6188
▁모두를	-6189
▁대통령과	-6190
▁바라야지	-6191
▁평화로운	-6192
▁겹	-6193
거운	-6194
디어	-6195
말로	-6196
지의	-6197
행이	-6198
▁강한	-6199
▁거래	-6200
▁곳이	-6201
▁대목	-6202
▁동물	-6203
▁마땅	-6204
▁않으	-6205
▁위안	-6206
▁점은	-6207
▁지배	-6208
▁직원	-6209
▁한데	-6210
▁혼란	-6211
▁뭐냐면	-6212
▁발표는	-6213
▁버리는	-6214
▁예산이	-6215
▁지금도	-6216
▁철저히	-6217
▁해석이	-6218
▁기준으로	-6219
▁블	-6220
동을	-6221
많은	-6222
▁개가	-6223
▁너의	-6224
▁높다	-6225
▁대처	-6226
▁여쭤	-6227
▁채로	-6228
▁컴퓨	-6229
▁한편	-6230
▁개인의	-6231
▁변화를	-6232
▁수많은	-6233
▁자체를	-6234
▁그렇지만	-6235
▁하더라도	-6236
▁갚	-6237
계는	-6238
▁드릴	-6239
▁베어	-6240
▁실력	-6241
▁안돼	-6242
▁인공	-6243
▁작성	-6244
▁정작	-6245
▁주도	-6246
▁허용	-6247
▁회담	-6248
보세요	-6249
▁그니까	-6250
▁그들의	-6251
▁내년에	-6252
▁반성은	-6253
▁봅니다	-6254
▁순간도	-6255
▁이것이	-6256
▁한국은	-6257
▁정확하게	-6258
▁좋겠습니다	-6259
워서	-6260
조사	-6261
▁곳곳	-6262
▁규정	-6263
▁대단	-6264
▁등이	-6265
▁외부	-6266
▁유권	-6267
▁재벌	-6268
▁확진	-6269
답니다	-6270
▁강의가	-6271
▁근거가	-6272
▁시키는	-6273
▁하셔야	-6274
▁들어가는	-6275
▁아니라는	-6276
▁둔	-6277
▁멍	-6278
▁묶	-6279
가로	-6280
되기	-6281
사님	-6282
회를	-6283
▁길게	-6284
▁도발	-6285
▁바랐	-6286
▁배신	-6287
▁보편	-6288
▁실천	-6289
▁오는	-6290
▁인한	-6291
▁피우	-6292
▁국정원	-6293
▁그렇다	-6294
▁마무리	-6295
▁분들이	-6296
▁사람도	-6297
▁상황은	-6298
▁시계를	-6299
▁자세히	-6300
▁컴퓨터	-6301
▁같아서요	-6302
▁있는데요	-6303
모가	-6304
애플	-6305
▁드렸	-6306
▁생도	-6307
▁유사	-6308
▁적당	-6309
▁조선	-6310
▁통일	-6311
▁특검	-6312
▁프랑	-6313
로부터	-6314
어진다	-6315
▁되돌아	-6316
▁없으면	-6317
▁일본이	-6318
▁줄어들	-6319
▁한번뿐	-6320
이라는걸	-6321
▁고려하지	-6322
▁기출문제	-6323
▁베어먹은	-6324
▁않는다는	-6325
▁최저임금	-6326
▁파인애플	-6327
▁한번뿐이라는걸	-6328
▁엉	-6329
스란	-6330
접종	-6331
▁가속	-6332
▁도망	-6333
▁부인	-6334
▁조심	-6335
▁주문	-6336
▁해가	-6337
▁갈등을	-6338
▁결과는	-6339
▁서비스	-6340
▁의문이	-6341
▁청소년	-6342
▁바라보며	-6343
▁생각해야	-6344
있다	-6345
▁공급	-6346
▁그날	-6347
▁그녀	-6348
▁나니	-6349
▁남성	-6350
▁바다	-6351
▁비유	-6352
▁신기	-6353
▁애매	-6354
▁예외	-6355
▁완전	-6356
▁잠재	-6357
▁종이	-6358
된다고	-6359
셨으면	-6360
주시면	-6361
▁그러다	-6362
▁설명해	-6363
▁책임감	-6364
▁필요는	-6365
드백	-6366
이트	-6367
▁공약	-6368
▁과제	-6369
▁뭐냐	-6370
▁부여	-6371
▁윤리	-6372
▁협상	-6373
▁검찰의	-6374
▁교재를	-6375
▁미사일	-6376
▁방법은	-6377
▁사실이	-6378
▁얘기가	-6379
▁지난해	-6380
▁않을까요	-6381
▁지자체는	-6382
▁출근했지	-6383
동이	-6384
라인	-6385
▁거라	-6386
▁고위	-6387
▁공직	-6388
▁금지	-6389
▁급증	-6390
▁데는	-6391
▁뜻이	-6392
▁서쪽	-6393
▁세금	-6394
▁신청	-6395
▁예전	-6396
▁일관	-6397
▁일으	-6398
▁장소	-6399
▁통제	-6400
▁필기	-6401
▁행정	-6402
깁니다	-6403
옵니다	-6404
인들이	-6405
▁갑니다	-6406
▁관심이	-6407
▁국가의	-6408
▁그나마	-6409
▁목표를	-6410
▁무엇이	-6411
▁문장이	-6412
▁피드백	-6413
▁하나도	-6414
▁하나하나	-6415
▁꼴	-6416
▁짚	-6417
가족	-6418
병을	-6419
▁감안	-6420
▁글로	-6421
▁등에	-6422
▁머릿	-6423
▁무관	-6424
▁수정	-6425
▁위임	-6426
▁총선	-6427
▁취업	-6428
▁커피	-6429
할게요	-6430
▁공부가	-6431
▁기분이	-6432
▁마세요	-6433
▁올라오	-6434
▁회장이	-6435
▁효과를	-6436
▁것인지도	-6437
것도	-6438
계의	-6439
내고	-6440
랐다	-6441
록만	-6442
률을	-6443
▁금리	-6444
▁나면	-6445
▁바닥	-6446
▁상호	-6447
▁설정	-6448
▁수리	-6449
▁일도	-6450
▁적어	-6451
▁그것을	-6452
▁그렇기	-6453
▁나머지	-6454
▁남아돌	-6455
▁노래를	-6456
▁보도블	-6457
▁선지가	-6458
드릴게요	-6459
▁방향으로	-6460
▁있었습니다	-6461
▁균	-6462
네가	-6463
락을	-6464
력의	-6465
▁가요	-6466
▁같을	-6467
▁쉬어	-6468
▁시설	-6469
▁아쉬	-6470
▁은행	-6471
▁인제	-6472
▁적응	-6473
▁죽음	-6474
▁증명	-6475
▁평소	-6476
▁향해	-6477
주셔서	-6478
▁관계가	-6479
▁너무도	-6480
▁도움을	-6481
▁방안을	-6482
▁수능을	-6483
▁이해를	-6484
▁중학교	-6485
▁친구가	-6486
▁풀이가	-6487
▁학생이	-6488
▁씹	-6489
군은	-6490
으신	-6491
장과	-6492
화된	-6493
훼손	-6494
▁문과	-6495
▁법을	-6496
▁보험	-6497
▁본격	-6498
▁분리	-6499
▁실질	-6500
▁써야	-6501
▁왜곡	-6502
▁이와	-6503
▁저런	-6504
▁집합	-6505
▁키워	-6506
▁해법	-6507
하지는	-6508
▁바람은	-6509
▁방향을	-6510
▁북한을	-6511
▁실력이	-6512
▁엎는다	-6513
▁책임이	-6514
▁풀이를	-6515
▁피우길	-6516
▁남아돌아서	-6517
▁보도블록만	-6518
가의	-6519
권이	-6520
사와	-6521
여야	-6522
▁거고	-6523
▁글씨	-6524
▁꽃만	-6525
▁맺히	-6526
▁묻고	-6527
▁믿고	-6528
▁비중	-6529
▁선언	-6530
▁이과	-6531
봅시다	-6532
이네요	-6533
▁가치를	-6534
▁그것은	-6535
▁덕분에	-6536
▁말아야	-6537
▁열매도	-6538
▁감사해요	-6539
▁맺히더라	-6540
▁바랐는데	-6541
▁지금부터	-6542
▁닿	-6543
▁덮	-6544
개를	-6545
처에	-6546
춰서	-6547
화에	-6548
▁구별	-6549
▁권한	-6550
▁동의	-6551
▁든다	-6552
▁듣기	-6553
▁배려	-6554
▁배운	-6555
▁빈곤	-6556
▁사전	-6557
▁주실	-6558
▁주어	-6559
▁지경	-6560
▁테러	-6561
▁퍼즐	-6562
으면서	-6563
주의에	-6564
▁거리가	-6565
▁나와서	-6566
▁나이는	-6567
▁단어가	-6568
▁시장을	-6569
▁전하는	-6570
▁책임의	-6571
▁하세요	-6572
▁유도하는	-6573
▁이루어진	-6574
▁잠자리에	-6575
끼리	-6576
마트	-6577
시킨	-6578
지능	-6579
▁금융	-6580
▁막기	-6581
▁범위	-6582
▁보지	-6583
▁삶일	-6584
▁얘가	-6585
▁요소	-6586
▁유엔	-6587
▁이곳	-6588
▁주관	-6589
▁지위	-6590
▁하세	-6591
▁흥미	-6592
드려요	-6593
식으로	-6594
정이야	-6595
▁늘어나	-6596
▁데까지	-6597
▁드라마	-6598
▁떨어지	-6599
▁멋졌어	-6600
▁못한다	-6601
▁방향이	-6602
▁비공식	-6603
▁어렵지	-6604
▁어린이	-6605
▁없단다	-6606
▁이기는	-6607
▁학교가	-6608
겠습니까	-6609
▁대상으로	-6610
▁말인가요	-6611
▁친구들은	-6612
▁마찬가지다	-6613
드리겠습니다	-6614
▁멘	-6615
▁왈	-6616
▁짐	-6617
석에	-6618
얘야	-6619
잖니	-6620
▁고백	-6621
▁기후	-6622
▁돌려	-6623
▁사설	-6624
▁살짝	-6625
▁승객	-6626
▁어묵	-6627
▁여유	-6628
▁파트	-6629
멈춰서	-6630
잡이로	-6631
▁강력한	-6632
▁기회가	-6633
▁다르지	-6634
▁똑같이	-6635
▁맞잖니	-6636
▁모습이	-6637
▁미래를	-6638
▁바람직	-6639
▁설명이	-6640
▁어떠한	-6641
하셨나요	-6642
▁관련해서	-6643
▁시계조차	-6644
▁인공지능	-6645
▁모르겠네요	-6646
▁삭	-6647
계에	-6648
▁감시	-6649
▁대형	-6650
▁모순	-6651
▁심화	-6652
▁얘는	-6653
▁역전	-6654
▁절차	-6655
▁취재	-6656
▁투표	-6657
▁그것도	-6658
▁바꾸기	-6659
▁반대로	-6660
▁불평등	-6661
▁안에서	-6662
▁애들이	-6663
▁이것은	-6664
▁판단을	-6665
▁하나가	-6666
▁할머니	-6667
▁비정규직	-6668
▁알겠는데	-6669
▁풀었는데	-6670
▁나왔습니다	-6671
면을	-6672
치게	-6673
▁경고	-6674
▁그려	-6675
▁대충	-6676
▁봤을	-6677
▁새벽	-6678
▁성찰	-6679
▁예시	-6680
▁우월	-6681
▁정체	-6682
▁경제적	-6683
▁들었다	-6684
▁쓰인다	-6685
▁않다고	-6686
▁의미로	-6687
▁중국이	-6688
▁프랑스	-6689
▁했다고	-6690
▁실정이야	-6691
보겠습니다	-6692
너무	-6693
덩어	-6694
력과	-6695
슐린	-6696
었고	-6697
형을	-6698
▁개헌	-6699
▁긴급	-6700
▁더불	-6701
▁되죠	-6702
▁몰라	-6703
▁벼슬	-6704
▁없기	-6705
▁종종	-6706
▁지식	-6707
▁통과	-6708
왔다고	-6709
▁규칙의	-6710
▁기업의	-6711
▁나아가	-6712
▁바로잡	-6713
▁비문학	-6714
▁우려가	-6715
▁원인이	-6716
▁의지가	-6717
▁인슐린	-6718
▁잘하는	-6719
▁잡기를	-6720
▁태도로	-6721
▁공부해야	-6722
▁생각밖에	-6723
▁지구과학	-6724
▁만족시키는	-6725
여서	-6726
증을	-6727
하긴	-6728
회가	-6729
..?	-6730
▁관광	-6731
▁국방	-6732
▁뒤집	-6733
▁메밀	-6734
▁양은	-6735
▁영국	-6736
▁오해	-6737
▁위치	-6738
▁전통	-6739
▁청진	-6740
러미를	-6741
▁끔찍한	-6742
▁데이터	-6743
▁받아들	-6744
▁세금을	-6745
▁양이야	-6746
▁엄청난	-6747
▁연습을	-6748
▁영상을	-6749
▁자세한	-6750
▁조건이	-6751
▁최선의	-6752
▁궁금해서	-6753
▁그러면서	-6754
▁대통령을	-6755
▁떨어지고	-6756
▁말씀하신	-6757
▁보이지만	-6758
▁아이들의	-6759
▁청진기를	-6760
▁팁	-6761
마디	-6762
인과	-6763
▁구할	-6764
▁나선	-6765
▁너만	-6766
▁방안	-6767
▁법안	-6768
▁비로	-6769
▁서민	-6770
▁앉은	-6771
▁최소	-6772
▁출신	-6773
▁훼손	-6774
국수에	-6775
하니까	-6776
▁경험일	-6777
▁공기업	-6778
▁불가피	-6779
▁생각은	-6780
▁여기는	-6781
▁위주로	-6782
▁이상한	-6783
▁잡더니	-6784
▁꾸러미를	-6785
▁돌잡이로	-6786
▁바탕으로	-6787
▁원했는데	-6788
▁중심으로	-6789
▁메밀국수에	-6790
▁혜	-6791
는가	-6792
부에	-6793
비가	-6794
자랑	-6795
짜리	-6796
▁가까	-6797
▁강제	-6798
▁남자	-6799
▁독일	-6800
▁될지	-6801
▁신이	-6802
▁애들	-6803
▁외우	-6804
▁의한	-6805
▁저항	-6806
▁절실	-6807
▁존중	-6808
▁청문	-6809
심이고	-6810
▁벼슬이	-6811
▁어렵게	-6812
▁의지를	-6813
▁주장을	-6814
▁쪽으로	-6815
▁나타나는	-6816
▁선택지는	-6817
▁좋습니다	-6818
▁뚫	-6819
▁첩	-6820
경을	-6821
논술	-6822
쉬고	-6823
연한	-6824
와는	-6825
을이	-6826
출을	-6827
▁나발	-6828
▁뉴스	-6829
▁멀리	-6830
▁모자	-6831
▁반성	-6832
▁보완	-6833
▁신속	-6834
▁아내	-6835
▁접촉	-6836
▁통계	-6837
▁계기로	-6838
▁능력이	-6839
▁없는데	-6840
▁외국인	-6841
▁정부나	-6842
▁조치를	-6843
▁죽어야	-6844
모를	-6845
생이	-6846
해줘	-6847
현실	-6848
▁고대	-6849
▁기쁜	-6850
▁눈을	-6851
▁둘의	-6852
▁몸이	-6853
▁부실	-6854
▁빼고	-6855
▁안될	-6856
▁얻어	-6857
▁의료	-6858
▁절반	-6859
▁해명	-6860
▁경우에	-6861
▁구성원	-6862
▁더구나	-6863
▁더불어	-6864
▁문장을	-6865
▁않지만	-6866
▁없었던	-6867
▁일본은	-6868
▁입력된	-6869
▁정도다	-6870
▁출력을	-6871
▁평가원	-6872
▁하나만	-6873
▁할게요	-6874
▁나발이고	-6875
▁보기에는	-6876
▁시민들은	-6877
▁언제부터	-6878
▁있거든요	-6879
▁최소한의	-6880
▁모의고사를	-6881
도의	-6882
받을	-6883
어붙	-6884
자도	-6885
주시	-6886
지기	-6887
할지	-6888
▁군과	-6889
▁나쁘	-6890
▁말라	-6891
▁법률	-6892
▁변동	-6893
▁부처	-6894
▁않기	-6895
▁어쩔	-6896
▁의존	-6897
▁주의	-6898
▁집권	-6899
▁천당	-6900
애에게	-6901
이라서	-6902
인이나	-6903
하셔야	-6904
▁가냐는	-6905
▁갈등이	-6906
▁기초로	-6907
▁맞추면	-6908
▁목사님	-6909
▁분들은	-6910
▁분위기	-6911
▁살짜리	-6912
▁서울대	-6913
▁앞두고	-6914
▁애초에	-6915
▁위안부	-6916
▁있겠죠	-6917
▁진실을	-6918
▁풀면서	-6919
▁대부분의	-6920
▁방법으로	-6921
▁학생에게	-6922
▁어린애에게	-6923
▁이해심이고	-6924
▁책임감이고	-6925
▁뼈	-6926
▁획	-6927
료를	-6928
배로	-6929
이자	-6930
제의	-6931
해온	-6932
▁거듭	-6933
▁과탐	-6934
▁관객	-6935
▁내세	-6936
▁막을	-6937
▁물러	-6938
▁민족	-6939
▁밖에	-6940
▁법적	-6941
▁손님	-6942
▁시점	-6943
▁앉아	-6944
▁얻을	-6945
▁이르	-6946
▁챙겨	-6947
▁현상	-6948
해진다	-6949
화하는	-6950
▁것일까	-6951
▁과목을	-6952
▁국민이	-6953
▁그러니	-6954
▁배우는	-6955
▁오늘도	-6956
▁자리를	-6957
▁치렀다	-6958
▁한마디	-6959
▁가능성을	-6960
▁같은데요	-6961
▁나오나요	-6962
▁남깁니다	-6963
▁대한민국	-6964
▁앞으로도	-6965
▁예방접종	-6966
과목	-6967
놓은	-6968
당이	-6969
명한	-6970
원인	-6971
해할	-6972
▁거쳐	-6973
▁부산	-6974
▁비례	-6975
▁이른	-6976
▁입고	-6977
▁한두	-6978
▁한의	-6979
봤는데	-6980
▁거고요	-6981
▁거기서	-6982
▁경제를	-6983
▁계란이	-6984
▁곤욕을	-6985
▁공부는	-6986
▁교재가	-6987
▁나서자	-6988
▁된다면	-6989
▁비로소	-6990
▁수학은	-6991
▁온라인	-6992
▁적절한	-6993
▁정문을	-6994
▁참으로	-6995
▁처음에	-6996
▁너무너무	-6997
▁기본적으로	-6998
▁바이러스를	-6999
드를	-7000
마자	-7001
이니	-7002
적을	-7003
정보	-7004
했어	-7005
▁기하	-7006
▁물건	-7007
▁상식	-7008
▁양이	-7009
▁위반	-7010
▁초등	-7011
▁최초	-7012
▁탐구	-7013
▁혜택	-7014
▁횡령	-7015
릅니다	-7016
집에는	-7017
▁감정을	-7018
▁대가로	-7019
▁등으로	-7020
▁미국과	-7021
▁사례가	-7022
▁상관없	-7023
▁알아차	-7024
▁요즘도	-7025
▁건강하게	-7026
▁받으려고	-7027
▁있었는데	-7028
▁헷갈려요	-7029
▁묵	-7030
막에	-7031
모에	-7032
였던	-7033
향이	-7034
▁돼야	-7035
▁딱히	-7036
▁맞게	-7037
▁메시	-7038
▁부추	-7039
▁분들	-7040
▁소속	-7041
▁쓰지	-7042
▁의지	-7043
▁중소	-7044
가지고	-7045
▁날아와	-7046
▁되네요	-7047
▁때보다	-7048
▁아니지	-7049
▁지나가	-7050
▁해석을	-7051
▁유전자를	-7052
▁이번에는	-7053
▁있다는데	-7054
▁상대적으로	-7055
▁피어오른다	-7056
▁쌤	-7057
녘에	-7058
범위	-7059
섰다	-7060
형이	-7061
호를	-7062
회의	-7063
▁건넌	-7064
▁글이	-7065
▁깔끔	-7066
▁당황	-7067
▁돼서	-7068
▁때다	-7069
▁부르	-7070
▁색깔	-7071
▁이래	-7072
▁있나	-7073
▁제발	-7074
▁집값	-7075
▁해질	-7076
하기로	-7077
▁가치가	-7078
▁노을이	-7079
▁달라진	-7080
▁드러난	-7081
▁또다시	-7082
▁러시아	-7083
▁스마트	-7084
▁안이한	-7085
▁있잖아	-7086
▁많습니다	-7087
▁아무것도	-7088
▁인슐린을	-7089
▁전제하고	-7090
▁하늘에는	-7091
▁해질녘에	-7092
▁개인적으로	-7093
▁껌	-7094
금리	-7095
들게	-7096
주실	-7097
표를	-7098
▁공연	-7099
▁끝났	-7100
▁모를	-7101
▁몸을	-7102
▁변호	-7103
▁양적	-7104
▁읽을	-7105
▁전개	-7106
▁첩이	-7107
▁초래	-7108
▁총리	-7109
▁최대	-7110
▁흘러	-7111
로서는	-7112
▁가까운	-7113
▁거기에	-7114
▁결정을	-7115
▁공무원	-7116
▁관련이	-7117
▁국민을	-7118
▁그래요	-7119
▁나가는	-7120
▁누리고	-7121
▁사태가	-7122
▁선택을	-7123
▁않다는	-7124
▁나누세요	-7125
▁상태에서	-7126
▁우월감을	-7127
▁않았습니다	-7128
▁알려주세요	-7129
▁생각하겠지만	-7130
▁엘	-7131
시킬	-7132
▁건넛	-7133
▁나무	-7134
▁놀라	-7135
▁많지	-7136
▁묻자	-7137
▁본질	-7138
▁빨간	-7139
▁사상	-7140
▁아쉽	-7141
▁어떨	-7142
▁연관	-7143
▁자제	-7144
▁향후	-7145
자들을	-7146
했겠죠	-7147
▁거니까	-7148
▁겉으로	-7149
▁기준을	-7150
▁답변을	-7151
▁마음은	-7152
▁바라요	-7153
▁손톱에	-7154
▁아닐까	-7155
▁아무도	-7156
▁입안에	-7157
▁자유는	-7158
▁정도의	-7159
▁준비를	-7160
▁추천해	-7161
▁특별한	-7162
자랑하는	-7163
▁건넌방에	-7164
▁대답했다	-7165
▁없을까요	-7166
▁자랑이다	-7167
▁차이이다	-7168
▁행복하고	-7169
▁가능하구나	-7170
▁건넛집에는	-7171
▁되었습니다	-7172
▁적극적으로	-7173
▁정상적으로	-7174
감은	-7175
격을	-7176
들만	-7177
로도	-7178
었어	-7179
영업	-7180
져서	-7181
▁각국	-7182
▁만점	-7183
▁맥락	-7184
▁못하	-7185
▁변이	-7186
▁분류	-7187
▁악의	-7188
▁입증	-7189
▁치열	-7190
▁가속도	-7191
▁그들은	-7192
▁능력을	-7193
▁되겠죠	-7194
▁되풀이	-7195
▁번째는	-7196
▁새롭게	-7197
▁수사에	-7198
▁수학을	-7199
▁여부를	-7200
▁일이라	-7201
▁자영업	-7202
▁퍼즐만	-7203
▁학교는	-7204
였습니다	-7205
졌습니다	-7206
▁기대한다	-7207
▁멀쩡하게	-7208
▁보입니다	-7209
▁입장에서	-7210
▁하셨나요	-7211
▁입장에서는	-7212
▁쩨	-7213
방학	-7214
자인	-7215
저히	-7216
평가	-7217
▁끝에	-7218
▁답답	-7219
▁돌입	-7220
▁명백	-7221
▁실현	-7222
▁인구	-7223
▁저녁	-7224
▁전해	-7225
▁진지	-7226
▁쩨쩨	-7227
▁차지	-7228
▁화가	-7229
덩어리	-7230
에게는	-7231
▁갚아도	-7232
▁거스러	-7233
▁경찰은	-7234
▁마시고	-7235
▁문화를	-7236
▁알면서	-7237
▁여야가	-7238
▁인상이	-7239
▁있음을	-7240
▁찾아야	-7241
함으로써	-7242
▁말이에요	-7243
▁직장까지	-7244
▁쩨쩨하게	-7245
▁거스러미가	-7246
▁찾아왔다고	-7247
▁해결했겠죠	-7248
▁닫	-7249
가락	-7250
선의	-7251
시길	-7252
심한	-7253
이든	-7254
화로	-7255
회담	-7256
▁대원	-7257
▁떠오	-7258
▁많고	-7259
▁매번	-7260
▁보존	-7261
▁사퇴	-7262
▁수술	-7263
▁씹고	-7264
▁이렇	-7265
▁잡는	-7266
▁전면	-7267
▁헌재	-7268
▁후에	-7269
부터는	-7270
했다며	-7271
▁듯하다	-7272
▁많았다	-7273
▁보여주	-7274
▁복습을	-7275
▁사회화	-7276
▁역전사	-7277
▁예전에	-7278
▁헷갈리	-7279
▁희망이	-7280
하면서도	-7281
▁가능하다	-7282
▁나아가는	-7283
▁조작하여	-7284
▁홀	-7285
드가	-7286
률이	-7287
소득	-7288
진이	-7289
▁곳에	-7290
▁까먹	-7291
▁난민	-7292
▁논쟁	-7293
▁되기	-7294
▁분열	-7295
▁연대	-7296
▁용납	-7297
▁즉각	-7298
▁지시	-7299
▁피할	-7300
▁힘의	-7301
됐다고	-7302
...?	-7303
▁건수가	-7304
▁경제의	-7305
▁배신자	-7306
▁사건의	-7307
▁속력이	-7308
▁아이를	-7309
▁정권의	-7310
▁좋겠다	-7311
▁판단이	-7312
▁판단할	-7313
▁평화를	-7314
▁풀어보	-7315
▁학생분	-7316
됐습니다	-7317
▁들으면서	-7318
▁생각해서	-7319
▁뮤	-7320
권의	-7321
냐고	-7322
러운	-7323
서가	-7324
웠던	-7325
지게	-7326
화할	-7327
▁개의	-7328
▁계약	-7329
▁광고	-7330
▁기여	-7331
▁나을	-7332
▁달님	-7333
▁들은	-7334
▁미친	-7335
▁밑에	-7336
▁사무	-7337
▁수입	-7338
▁양국	-7339
▁완성	-7340
▁잇따	-7341
▁최악	-7342
▁프린	-7343
▁해님	-7344
▁했고	-7345
하자고	-7346
▁개인이	-7347
▁구조조	-7348
▁대표가	-7349
▁들어갈	-7350
▁생각할	-7351
▁역사를	-7352
▁오른쪽	-7353
▁이어질	-7354
▁정도가	-7355
▁정치인	-7356
▁커지고	-7357
▁필요도	-7358
▁하셔서	-7359
▁현실은	-7360
▁확산을	-7361
▁머리말에	-7362
▁청와대가	-7363
▁확대해줘	-7364
▁달님이라는	-7365
▁때문입니다	-7366
▁촉구했습니다	-7367
▁삽	-7368
▁티	-7369
다른	-7370
밀한	-7371
수로	-7372
전이	-7373
정에	-7374
주가	-7375
하러	-7376
향을	-7377
▁거랑	-7378
▁견제	-7379
▁고쳐	-7380
▁관점	-7381
▁무책	-7382
▁발목	-7383
▁유일	-7384
▁일각	-7385
▁적절	-7386
▁주신	-7387
▁진심	-7388
▁초기	-7389
▁펼쳐	-7390
▁풍경	-7391
신가요	-7392
었다는	-7393
▁고종의	-7394
▁단순한	-7395
▁때라는	-7396
▁머리가	-7397
▁머리를	-7398
▁문화가	-7399
▁볼게요	-7400
▁상석에	-7401
▁성과를	-7402
▁의혹이	-7403
▁재수생	-7404
▁차이를	-7405
▁고통스럽	-7406
▁불가능한	-7407
▁스마트폰	-7408
▁유럽에서	-7409
▁의미하는	-7410
▁이해하고	-7411
▁해당하는	-7412
▁짝	-7413
겁게	-7414
단의	-7415
세는	-7416
세대	-7417
원에	-7418
탄이	-7419
편에	-7420
▁강요	-7421
▁노출	-7422
▁단지	-7423
▁도출	-7424
▁동네	-7425
▁무릎	-7426
▁묻는	-7427
▁성폭	-7428
▁엄격	-7429
▁오류	-7430
▁인문	-7431
▁입법	-7432
▁자칫	-7433
▁존경	-7434
▁주말	-7435
▁중립	-7436
▁진동	-7437
▁추론	-7438
▁표본	-7439
되어야	-7440
집니다	-7441
▁광범위	-7442
▁동일한	-7443
▁모습은	-7444
▁미적분	-7445
▁비핵화	-7446
▁쉽다는	-7447
▁야당의	-7448
▁의혹을	-7449
▁이끌어	-7450
▁자동차	-7451
▁제재를	-7452
▁체하고	-7453
▁하고요	-7454
▁당연하다	-7455
▁대원군은	-7456
▁빠져들게	-7457
▁얘기하는	-7458
▁정상회담	-7459
▁지방으로	-7460
▁알아차리고	-7461
▁중요하다고	-7462
▁촛	-7463
나게	-7464
낸다	-7465
당은	-7466
수한	-7467
책을	-7468
▁가게	-7469
▁건가	-7470
▁건설	-7471
▁것들	-7472
▁관료	-7473
▁내면	-7474
▁동기	-7475
▁뒤로	-7476
▁명사	-7477
▁목숨	-7478
▁바뀔	-7479
▁삼성	-7480
▁작가	-7481
▁축소	-7482
▁혁신	-7483
▁휴대	-7484
▁과거의	-7485
▁군사적	-7486
▁글로벌	-7487
▁노력이	-7488
▁만들고	-7489
▁여성의	-7490
▁여지가	-7491
▁이후에	-7492
▁정부도	-7493
▁화나고	-7494
▁확인할	-7495
▁공부하면	-7496
▁기다리고	-7497
▁위임하는	-7498
▁저지르는	-7499
▁중소기업	-7500
▁하더라고요	-7501
▁맘	-7502
▁컸	-7503
개로	-7504
국을	-7505
려도	-7506
주를	-7507
▁걸까	-7508
▁걸린	-7509
▁깊이	-7510
▁내리	-7511
▁많을	-7512
▁말해	-7513
▁민감	-7514
▁반도	-7515
▁밝혔	-7516
▁방학	-7517
▁선물	-7518
▁수익	-7519
▁시즌	-7520
▁없애	-7521
▁연락	-7522
▁욕망	-7523
▁원전	-7524
▁진보	-7525
했나요	-7526
했다면	-7527
▁교재에	-7528
▁그런지	-7529
▁대화의	-7530
▁무책임	-7531
▁방식이	-7532
▁비율이	-7533
▁생기는	-7534
▁수사가	-7535
▁시민이	-7536
▁의도가	-7537
▁이름이	-7538
▁이중성	-7539
▁이처럼	-7540
▁정권을	-7541
▁중간에	-7542
▁충분한	-7543
▁하시면	-7544
▁미세먼지	-7545
▁실망했을	-7546
▁자본주의	-7547
▁국제사회의	-7548
▁마지막으로	-7549
▁헷갈립니다	-7550
▁확인하시고	-7551
▁팽	-7552
돼서	-7553
선은	-7554
측이	-7555
침을	-7556
▁걸리	-7557
▁나이	-7558
▁단기	-7559
▁동원	-7560
▁불행	-7561
▁삭제	-7562
▁선과	-7563
▁선은	-7564
▁신중	-7565
▁심판	-7566
▁올릴	-7567
▁이행	-7568
▁인지	-7569
▁정지	-7570
더구먼	-7571
듭니다	-7572
어지고	-7573
하셔서	-7574
▁개혁을	-7575
▁교육청	-7576
▁국회가	-7577
▁누구의	-7578
▁달려들	-7579
▁대표의	-7580
▁대학교	-7581
▁도저히	-7582
▁돌아가	-7583
▁뭔가요	-7584
▁아침에	-7585
▁않은데	-7586
▁알아서	-7587
▁약속을	-7588
▁어디가	-7589
▁이어지	-7590
▁이해한	-7591
▁자네가	-7592
▁정리를	-7593
▁중국은	-7594
▁태도가	-7595
▁틀리는	-7596
하셨는데	-7597
▁이야기가	-7598
▁이어지는	-7599
▁차원에서	-7600
▁학원에서	-7601
했다더구먼	-7602
▁권력자에게	-7603
▁자연스럽게	-7604
▁전체주의에	-7605
▁지금이라도	-7606
▁붉으락푸르락했다더구먼	-7607
▁는	-7608
관계	-7609
져요	-7610
▁개강	-7611
▁개편	-7612
▁골목	-7613
▁교사	-7614
▁맨날	-7615
▁명예	-7616
▁물질	-7617
▁뭐라	-7618
▁없게	-7619
▁외에	-7620
▁요약	-7621
▁입을	-7622
▁재정	-7623
▁체계	-7624
▁투쟁	-7625
▁특강	-7626
▁활성	-7627
▁끝날까	-7628
▁나이가	-7629
▁누군가	-7630
▁드리고	-7631
▁만하다	-7632
▁봤어요	-7633
▁올라가	-7634
▁위험한	-7635
▁이거를	-7636
▁이른다	-7637
▁있어도	-7638
▁제시문	-7639
▁지내자	-7640
▁질문은	-7641
▁포인트	-7642
▁가능성도	-7643
▁도망가지	-7644
▁올립니다	-7645
▁있으니까	-7646
▁편해지고	-7647
▁말씀하시는	-7648
▁고통스럽거나	-7649
▁꼽	-7650
▁쪼	-7651
고한	-7652
들아	-7653
보건	-7654
율이	-7655
일을	-7656
조를	-7657
▁간다	-7658
▁강경	-7659
▁건너	-7660
▁과감	-7661
▁권리	-7662
▁규범	-7663
▁기득	-7664
▁눈물	-7665
▁늘그	-7666
▁다짐	-7667
▁될까	-7668
▁드는	-7669
▁뮤지	-7670
▁배제	-7671
▁배치	-7672
▁비겟	-7673
▁완강	-7674
▁이념	-7675
▁주권	-7676
▁지휘	-7677
▁질병	-7678
▁찾기	-7679
▁하며	-7680
▁들여다	-7681
▁말하면	-7682
▁목표로	-7683
▁바에는	-7684
▁없네요	-7685
▁외치는	-7686
▁이유도	-7687
▁재미있	-7688
▁적어도	-7689
▁정부에	-7690
▁조건을	-7691
▁차이는	-7692
▁추가로	-7693
▁학교에	-7694
▁했는지	-7695
덩어리야	-7696
▁고통이야	-7697
▁국회의원	-7698
▁늘그막에	-7699
▁들었는데	-7700
▁문제풀이	-7701
▁않습니까	-7702
▁어렵다고	-7703
▁요구하는	-7704
▁이해하기	-7705
▁청와대는	-7706
▁조금이라도	-7707
▁비겟덩어리야	-7708
▁뚜	-7709
▁칭	-7710
부로	-7711
부와	-7712
안은	-7713
으셨	-7714
▁개성	-7715
▁계신	-7716
▁고구	-7717
▁교훈	-7718
▁내내	-7719
▁높이	-7720
▁법과	-7721
▁법무	-7722
▁법칙	-7723
▁변형	-7724
▁분배	-7725
▁신분	-7726
▁써서	-7727
▁원자	-7728
▁유출	-7729
▁의구	-7730
▁전기	-7731
▁제품	-7732
▁하실	-7733
기구는	-7734
야말로	-7735
▁괜찮지	-7736
▁교재로	-7737
▁드러나	-7738
▁말인지	-7739
▁부정적	-7740
▁안전을	-7741
▁역사적	-7742
▁역할이	-7743
▁예비한	-7744
▁저자는	-7745
▁조사를	-7746
▁지키는	-7747
▁편하게	-7748
▁합의를	-7749
▁근본적인	-7750
▁나옵니다	-7751
▁돌입해야	-7752
▁드렸으니	-7753
▁억울해할	-7754
▁처음으로	-7755
고사	-7756
단이	-7757
론을	-7758
아요	-7759
위원	-7760
주새	-7761
주신	-7762
해가	-7763
▁감이	-7764
▁계시	-7765
▁로봇	-7766
▁막상	-7767
▁모아	-7768
▁수식	-7769
▁언젠	-7770
▁중인	-7771
▁청산	-7772
▁출연	-7773
▁측은	-7774
▁파괴	-7775
이두창	-7776
조처에	-7777
▁경험을	-7778
▁교수님	-7779
▁다니는	-7780
▁동아리	-7781
▁따뜻한	-7782
▁떨어진	-7783
▁마을에	-7784
▁말씀이	-7785
▁받아야	-7786
▁범행을	-7787
▁사이의	-7788
▁시대에	-7789
▁올리는	-7790
▁외모에	-7791
▁정권이	-7792
▁행동에	-7793
하겠다고	-7794
하더라도	-7795
▁기본적인	-7796
▁깨달았다	-7797
▁당한다고	-7798
▁대립에서	-7799
▁세계보건	-7800
▁완벽하게	-7801
▁의문이다	-7802
▁일자리를	-7803
▁좋겠네요	-7804
▁진실이지	-7805
▁패배하기	-7806
▁급증했다며	-7807
▁긴급조처에	-7808
▁넘어가려고	-7809
▁되돌아가지	-7810
▁원숭이두창	-7811
▁조언했습니다	-7812
▁세계보건기구는	-7813
▁냈	-7814
▁쟁	-7815
란색	-7816
력에	-7817
리한	-7818
업을	-7819
온다	-7820
코패	-7821
한국	-7822
▁귀찮	-7823
▁근로	-7824
▁급격	-7825
▁기반	-7826
▁기자	-7827
▁깨닫	-7828
▁낸다	-7829
▁다소	-7830
▁명의	-7831
▁바꿀	-7832
▁발달	-7833
▁번도	-7834
▁블루	-7835
▁비밀	-7836
▁빛의	-7837
▁선정	-7838
▁아시	-7839
▁아픈	-7840
▁염소	-7841
▁옳은	-7842
▁요인	-7843
▁잃은	-7844
▁장난	-7845
▁조합	-7846
▁준다	-7847
▁취소	-7848
▁치고	-7849
▁피곤	-7850
▁하던	-7851
▁확정	-7852
된다면	-7853
화하고	-7854
▁결과에	-7855
▁대법원	-7856
▁되어야	-7857
▁명확한	-7858
▁물체가	-7859
▁발생한	-7860
▁부분도	-7861
▁북한에	-7862
▁분석을	-7863
▁사회를	-7864
▁얘기는	-7865
▁얘들아	-7866
▁이상의	-7867
▁이익을	-7868
▁진상을	-7869
▁질문에	-7870
▁집단이	-7871
▁철저한	-7872
▁통증이	-7873
▁확인해	-7874
▁것이었다	-7875
▁떨어지는	-7876
▁사이코패	-7877
▁생각한다	-7878
▁이해하면	-7879
▁자유한국	-7880
▁마스터님이	-7881
▁컨	-7882
▁흉	-7883
내기	-7884
명은	-7885
법이	-7886
제에	-7887
진을	-7888
▁기각	-7889
▁눈치	-7890
▁담당	-7891
▁대변	-7892
▁디지	-7893
▁맞고	-7894
▁맞서	-7895
▁멘탈	-7896
▁바른	-7897
▁방지	-7898
▁베이	-7899
▁수요	-7900
▁없죠	-7901
▁역대	-7902
▁예쁘	-7903
▁옛날	-7904
▁우울	-7905
▁운전	-7906
▁위축	-7907
▁인과	-7908
▁자발	-7909
▁점도	-7910
▁종합	-7911
▁주간	-7912
▁착각	-7913
▁채점	-7914
▁책은	-7915
▁초반	-7916
▁평범	-7917
▁하향	-7918
력으로	-7919
해왔다	-7920
▁강좌를	-7921
▁그림을	-7922
▁느낌을	-7923
▁대표는	-7924
▁빠져나	-7925
▁성격적	-7926
▁성적을	-7927
▁수능은	-7928
▁야당이	-7929
▁영어는	-7930
▁의미다	-7931
▁이들을	-7932
▁자세를	-7933
▁하니까	-7934
▁힘들지	-7935
▁분명하다	-7936
▁정신병을	-7937
▁타인이나	-7938
▁효율적으로	-7939
▁사이코패스란	-7940
▁생각하시나요	-7941
▁액	-7942
권은	-7943
방을	-7944
식은	-7945
집을	-7946
천히	-7947
회는	-7948
▁개최	-7949
▁고객	-7950
▁귀환	-7951
▁대결	-7952
▁들면	-7953
▁멋들	-7954
▁보냈	-7955
▁스포	-7956
▁식의	-7957
▁조성	-7958
▁집착	-7959
▁카메	-7960
▁학부	-7961
▁해봤	-7962
▁혐의	-7963
▁환자	-7964
대에서	-7965
▁것이기	-7966
▁과도한	-7967
▁국가가	-7968
▁기존의	-7969
▁나와요	-7970
▁나타난	-7971
▁디지털	-7972
▁변하지	-7973
▁상태에	-7974
▁생각한	-7975
▁수준의	-7976
▁시기에	-7977
▁안타깝	-7978
▁영어를	-7979
▁원칙을	-7980
▁일단은	-7981
▁전체를	-7982
▁지금의	-7983
▁차라리	-7984
▁찾아보	-7985
▁천천히	-7986
▁평가를	-7987
▁하다가	-7988
▁학생들	-7989
▁나오는데	-7990
▁멋들어진	-7991
▁목소리를	-7992
▁바라보는	-7993
▁어려움을	-7994
▁대통령에게	-7995
▁중요합니다	-7996
▁흑	-7997
길래	-7998
려진	-7999
버린	-8000
실을	-8001
역을	-8002
자들	-8003
힌다	-8004
▁고난	-8005
▁고유	-8006
▁관절	-8007
▁동료	-8008
▁마침	-8009
▁만만	-8010
▁맞은	-8011
▁명이	-8012
▁미칠	-8013
▁부적	-8014
▁삼각	-8015
▁성과	-8016
▁쓰면	-8017
▁작동	-8018
▁저의	-8019
▁제조	-8020
▁조교	-8021
▁책에	-8022
▁향한	-8023
리기나	-8024
에서만	-8025
▁강하게	-8026
▁계기가	-8027
▁과목이	-8028
▁기업이	-8029
▁기후변	-8030
▁되고요	-8031
▁마음의	-8032
▁문제만	-8033
▁봤는데	-8034
▁부담이	-8035
▁시기가	-8036
▁시민을	-8037
▁요구를	-8038
▁적당히	-8039
▁명확하게	-8040
▁사용하는	-8041
▁준비하는	-8042
▁어울리기나	-8043
▁쫓	-8044
▁펴	-8045
늦게	-8046
박한	-8047
보를	-8048
봐요	-8049
수철	-8050
시험	-8051
호가	-8052
▁간접	-8053
▁근육	-8054
▁기타	-8055
▁노릇	-8056
▁담겨	-8057
▁멋있	-8058
▁밑줄	-8059
▁부사	-8060
▁사탐	-8061
▁성취	-8062
▁양쪽	-8063
▁정서	-8064
▁진화	-8065
▁추억	-8066
▁충실	-8067
▁폐쇄	-8068
으로만	-8069
▁경제는	-8070
▁경제에	-8071
▁공부한	-8072
▁교재는	-8073
▁그에게	-8074
▁기업은	-8075
▁따르면	-8076
▁수능에	-8077
▁알아요	-8078
▁외우는	-8079
▁용수철	-8080
▁이전에	-8081
▁일정한	-8082
▁터이다	-8083
▁하네요	-8084
▁뜻인가요	-8085
▁않았다고	-8086
▁이해하는	-8087
▁일반적인	-8088
▁적극적인	-8089
▁지문에서	-8090
▁현실에서는	-8091
▁‘	-8092
▁깜	-8093
▁냄	-8094
▁놈	-8095
능이	-8096
재를	-8097
▁경희	-8098
▁계열	-8099
▁공천	-8100
▁기계	-8101
▁뉘엿	-8102
▁당국	-8103
▁당초	-8104
▁동아	-8105
▁띄엄	-8106
▁무작	-8107
▁빛이	-8108
▁선별	-8109
▁실효	-8110
▁안내	-8111
▁않나	-8112
▁외워	-8113
▁유치	-8114
▁자율	-8115
▁좁은	-8116
▁지혜	-8117
▁질적	-8118
▁참석	-8119
▁출판	-8120
▁폐지	-8121
▁협력	-8122
되는지	-8123
▁그거는	-8124
▁그렇죠	-8125
▁다음날	-8126
▁맞춰서	-8127
▁발언을	-8128
▁사진을	-8129
▁생각도	-8130
▁움직임	-8131
▁작품을	-8132
▁절차를	-8133
▁정보가	-8134
▁최근에	-8135
▁표현을	-8136
▁하나를	-8137
▁행위인	-8138
▁모양이다	-8139
▁사이에서	-8140
▁아니냐는	-8141
▁알려주실	-8142
▁존재하지	-8143
▁꿀	-8144
▁띠	-8145
▁멸	-8146
▁밟	-8147
▁붕	-8148
금이	-8149
들로	-8150
르게	-8151
언이	-8152
지않	-8153
▁거면	-8154
▁겪는	-8155
▁꾸짖	-8156
▁내지	-8157
▁놓은	-8158
▁데다	-8159
▁동맹	-8160
▁등록	-8161
▁맞다	-8162
▁소극	-8163
▁옆에	-8164
▁융합	-8165
▁이웃	-8166
▁잊지	-8167
▁자살	-8168
▁자존	-8169
▁저랑	-8170
▁주체	-8171
▁통신	-8172
▁투명	-8173
▁편이	-8174
졌다고	-8175
하고요	-8176
▁개념은	-8177
▁것이죠	-8178
▁괜찮다	-8179
▁끝나면	-8180
▁닿았을	-8181
▁대학을	-8182
▁말씀해	-8183
▁목표가	-8184
▁뮤지컬	-8185
▁바라는	-8186
▁서편에	-8187
▁소리를	-8188
▁수도권	-8189
▁시간과	-8190
▁오답노	-8191
▁자녀를	-8192
▁자유를	-8193
▁증상이	-8194
▁지문에	-8195
▁태도는	-8196
▁기업들이	-8197
▁뉘엿뉘엿	-8198
▁드러났다	-8199
▁원인이다	-8200
▁잠재력을	-8201
▁차이점이	-8202
▁헷갈려서	-8203
▁확실하게	-8204
▁새누리당은	-8205
▁널	-8206
▁레	-8207
댓값	-8208
띄엄	-8209
벌이	-8210
법은	-8211
본다	-8212
수와	-8213
오고	-8214
오스	-8215
통이	-8216
행은	-8217
화와	-8218
▁가벼	-8219
▁각자	-8220
▁같고	-8221
▁낭비	-8222
▁노인	-8223
▁동북	-8224
▁때의	-8225
▁라는	-8226
▁마인	-8227
▁명분	-8228
▁보상	-8229
▁부딪	-8230
▁불교	-8231
▁상품	-8232
▁생길	-8233
▁설치	-8234
▁스토	-8235
▁연기	-8236
▁연장	-8237
▁올린	-8238
▁이벤	-8239
▁이산	-8240
▁인하	-8241
▁일시	-8242
▁자고	-8243
▁저거	-8244
▁전세	-8245
▁절망	-8246
▁점차	-8247
▁좋고	-8248
▁중시	-8249
▁짐작	-8250
▁찍어	-8251
▁철학	-8252
▁출산	-8253
▁취지	-8254
▁타이	-8255
▁타협	-8256
▁하자	-8257
▁했어	-8258
▁화면	-8259
어지는	-8260
자로서	-8261
▁걸리는	-8262
▁꾸짖지	-8263
▁내신을	-8264
▁내신이	-8265
▁느끼고	-8266
▁니체가	-8267
▁답변이	-8268
▁댓글을	-8269
▁미치는	-8270
▁본인의	-8271
▁설명할	-8272
▁아닌데	-8273
▁어쩌면	-8274
▁주어진	-8275
▁지역의	-8276
▁찾아서	-8277
▁필요할	-8278
들에게는	-8279
▁기준금리	-8280
▁띄엄띄엄	-8281
▁말하면서	-8282
▁생각하지	-8283
▁성장률을	-8284
▁않겠다는	-8285
▁있었어요	-8286
▁존재하는	-8287
▁죽었다고	-8288
▁지속되는	-8289
▁처음에는	-8290
▁귀환하자고	-8291
▁보겠습니다	-8292
▁뜯	-8293
▁쇄	-8294
내야	-8295
덩이	-8296
센터	-8297
실에	-8298
어는	-8299
위로	-8300
▁거를	-8301
▁거에	-8302
▁걸어	-8303
▁고마	-8304
▁곳은	-8305
▁글쓰	-8306
▁남는	-8307
▁동사	-8308
▁말한	-8309
▁부채	-8310
▁삽입	-8311
▁생물	-8312
▁선진	-8313
▁수집	-8314
▁수축	-8315
▁실시	-8316
▁연휴	-8317
▁옳다	-8318
▁이명	-8319
▁책이	-8320
▁챙기	-8321
▁친절	-8322
▁침해	-8323
▁크고	-8324
▁틀리	-8325
▁협의	-8326
달라고	-8327
성으로	-8328
▁가설이	-8329
▁그러고	-8330
▁못하면	-8331
▁문화적	-8332
▁바꾸는	-8333
▁바뀌는	-8334
▁복잡한	-8335
▁비판을	-8336
▁상처를	-8337
▁수능이	-8338
▁외워야	-8339
▁자세로	-8340
▁점수를	-8341
▁정당한	-8342
▁정부를	-8343
▁중이다	-8344
▁카메라	-8345
▁해결할	-8346
▁해법을	-8347
기는커녕	-8348
▁긍정적인	-8349
▁꼼꼼하게	-8350
▁다름없다	-8351
▁사회주의	-8352
▁생각해도	-8353
▁수험생활	-8354
▁지나치게	-8355
▁태도로는	-8356
▁포기하고	-8357
▁마찬가지로	-8358
▁드리겠습니다	-8359
▁쾌	-8360
고를	-8361
관을	-8362
당에	-8363
동의	-8364
보자	-8365
사항	-8366
▁가깝	-8367
▁들려	-8368
▁뚜렷	-8369
▁몇몇	-8370
▁봤다	-8371
▁새삼	-8372
▁여겨	-8373
▁예습	-8374
▁왼쪽	-8375
▁유독	-8376
▁이겨	-8377
▁재난	-8378
▁증세	-8379
▁총수	-8380
▁한은	-8381
▁합법	-8382
▁힘드	-8383
갑니다	-8384
상이다	-8385
으세요	-8386
▁각각의	-8387
▁공부에	-8388
▁과정에	-8389
▁근거를	-8390
▁기능을	-8391
▁나네요	-8392
▁넘어갈	-8393
▁노래가	-8394
▁문화의	-8395
▁밀어붙	-8396
▁시도된	-8397
▁의미는	-8398
▁이대로	-8399
▁풀이는	-8400
▁마련이다	-8401
▁물어보는	-8402
▁비유하는	-8403
▁사람들도	-8404
▁에너지를	-8405
▁있겠지만	-8406
▁의도적으로	-8407
▁땀	-8408
▁엇	-8409
▁홈	-8410
량은	-8411
로드	-8412
롭지	-8413
문화	-8414
밀히	-8415
수도	-8416
오션	-8417
주기	-8418
표가	-8419
▁가려	-8420
▁견디	-8421
▁교차	-8422
▁그곳	-8423
▁답은	-8424
▁대출	-8425
▁두지	-8426
▁드물	-8427
▁때만	-8428
▁매달	-8429
▁멋진	-8430
▁무기	-8431
▁비극	-8432
▁비행	-8433
▁수혜	-8434
▁스펙	-8435
▁슬픔	-8436
▁시달	-8437
▁언니	-8438
▁오고	-8439
▁이슈	-8440
▁점심	-8441
▁주택	-8442
▁즐거	-8443
▁차단	-8444
▁충족	-8445
▁취약	-8446
▁측정	-8447
▁회독	-8448
셨는데	-8449
적이지	-8450
지면서	-8451
하고자	-8452
▁개성공	-8453
▁거잖아	-8454
▁것들은	-8455
▁국어는	-8456
▁나라를	-8457
▁내용도	-8458
▁말이죠	-8459
▁못했던	-8460
▁범위를	-8461
▁뻔하다	-8462
▁사회는	-8463
▁생활을	-8464
▁수준이	-8465
▁유명한	-8466
▁이명박	-8467
▁읽어야	-8468
▁저번에	-8469
▁전부터	-8470
▁정책의	-8471
▁정책이	-8472
▁좋아서	-8473
▁칼럼을	-8474
▁투자를	-8475
▁피해가	-8476
▁하나로	-8477
▁한국에	-8478
▁거잖아요	-8479
▁문제들이	-8480
▁사회에서	-8481
▁어려워요	-8482
▁어렵다는	-8483
▁얼마든지	-8484
▁움직이는	-8485
▁이야기는	-8486
▁중요해요	-8487
▁하는데요	-8488
▁광범위하고	-8489
▁끄	-8490
관의	-8491
렸을	-8492
로가	-8493
보가	-8494
주에	-8495
줘서	-8496
층의	-8497
▁남한	-8498
▁냄새	-8499
▁넓고	-8500
▁늘고	-8501
▁늦은	-8502
▁밝힌	-8503
▁방금	-8504
▁번에	-8505
▁법이	-8506
▁부는	-8507
▁생략	-8508
▁소송	-8509
▁손에	-8510
▁알지	-8511
▁어긋	-8512
▁얻는	-8513
▁오면	-8514
▁요게	-8515
▁유의	-8516
▁이틀	-8517
▁지급	-8518
▁진단	-8519
▁진술	-8520
▁짚어	-8521
▁패턴	-8522
겠는가	-8523
십니다	-8524
일수록	-8525
▁권력을	-8526
▁그러한	-8527
▁나와야	-8528
▁높이는	-8529
▁다루는	-8530
▁들어간	-8531
▁밝혀야	-8532
▁성격이	-8533
▁소리가	-8534
▁시대가	-8535
▁시장이	-8536
▁예시를	-8537
▁요거는	-8538
▁인터뷰	-8539
▁일어날	-8540
▁일하는	-8541
▁있느냐	-8542
▁젊은이	-8543
▁정규직	-8544
▁정치를	-8545
▁줄이는	-8546
▁확실한	-8547
렸습니다	-8548
▁넘어가는	-8549
▁등장하는	-8550
▁블루오션	-8551
▁틀렸다고	-8552
▁고백할까요	-8553
▁되더라고요	-8554
▁사과할까요	-8555
▁새누리당이	-8556
▁샀	-8557
▁잦	-8558
긴다	-8559
류는	-8560
만을	-8561
물에	-8562
받침	-8563
빨리	-8564
실이	-8565
해선	-8566
▁가질	-8567
▁계급	-8568
▁구입	-8569
▁답안	-8570
▁당뇨	-8571
▁데서	-8572
▁라이	-8573
▁민심	-8574
▁밀려	-8575
▁붙여	-8576
▁알았	-8577
▁약한	-8578
▁양측	-8579
▁엄중	-8580
▁유통	-8581
▁일치	-8582
▁있긴	-8583
▁좋게	-8584
▁지향	-8585
▁질환	-8586
▁한가	-8587
▁항공	-8588
▁호소	-8589
까지도	-8590
리면서	-8591
셨는지	-8592
▁것이라	-8593
▁국민은	-8594
▁국정을	-8595
▁대책은	-8596
▁동북아	-8597
▁만든다	-8598
▁머릿속	-8599
▁명확히	-8600
▁반응을	-8601
▁발생할	-8602
▁부분만	-8603
▁사고를	-8604
▁사안이	-8605
▁세상이	-8606
▁여야는	-8607
▁역사는	-8608
▁연세대	-8609
▁원인은	-8610
▁인강을	-8611
▁입장이	-8612
▁조치가	-8613
▁지원을	-8614
▁초부터	-8615
▁표현이	-8616
▁푸는데	-8617
▁하셨다	-8618
▁한국을	-8619
▁형태로	-8620
▁흐름을	-8621
하셨는지	-8622
▁곤란하다	-8623
▁대해서도	-8624
▁여론조사	-8625
▁주장하는	-8626
▁청와대와	-8627
▁판단하는	-8628
▁하셨는지	-8629
▁현실이다	-8630
▁공부하다가	-8631
▁지속적으로	-8632
▁끈	-8633
▁닮	-8634
▁돕	-8635
▁쇳	-8636
구니	-8637
망이	-8638
용이	-8639
우기	-8640
적일	-8641
▁간섭	-8642
▁강사	-8643
▁고령	-8644
▁그린	-8645
▁단원	-8646
▁달성	-8647
▁당일	-8648
▁대략	-8649
▁더더	-8650
▁도구	-8651
▁땅에	-8652
▁모델	-8653
▁몰려	-8654
▁부패	-8655
▁생태	-8656
▁세부	-8657
▁소홀	-8658
▁신문	-8659
▁온갖	-8660
▁임시	-8661
▁제주	-8662
▁중의	-8663
▁짧은	-8664
▁채워	-8665
▁취급	-8666
▁커질	-8667
▁태어	-8668
▁파업	-8669
▁파이	-8670
▁확장	-8671
았다는	-8672
어서는	-8673
점으로	-8674
쳤지만	-8675
▁결과로	-8676
▁경험이	-8677
▁고민을	-8678
▁나와있	-8679
▁논의가	-8680
▁도덕적	-8681
▁뒤늦게	-8682
▁뒷받침	-8683
▁라오스	-8684
▁마스크	-8685
▁밖으로	-8686
▁받는다	-8687
▁보면은	-8688
▁비롯한	-8689
▁시험에	-8690
▁안돼요	-8691
▁의견이	-8692
▁잡든지	-8693
▁저한테	-8694
▁정시로	-8695
▁지문이	-8696
▁척해야	-8697
▁키우는	-8698
▁드릴게요	-8699
▁생각했다	-8700
▁설명하는	-8701
▁어디까지	-8702
▁여기까지	-8703
▁이어지고	-8704
▁자세하게	-8705
▁중간고사	-8706
▁중이에요	-8707
▁해주세요	-8708
▁올라오나요	-8709
▁일반적으로	-8710
▁질문드립니다	-8711
▁낡	-8712
▁엔	-8713
▁옥	-8714
군이	-8715
나가	-8716
력도	-8717
렸던	-8718
르지	-8719
색이	-8720
선에	-8721
어로	-8722
조가	-8723
차별	-8724
필요	-8725
▁거두	-8726
▁근대	-8727
▁까닭	-8728
▁낙하	-8729
▁마이	-8730
▁배워	-8731
▁배웠	-8732
▁보유	-8733
▁불발	-8734
▁사항	-8735
▁소문	-8736
▁신라	-8737
▁완화	-8738
▁좌절	-8739
▁집행	-8740
▁처방	-8741
▁출마	-8742
▁칭찬	-8743
▁캠퍼	-8744
▁탈출	-8745
▁테이	-8746
▁평등	-8747
▁풀지	-8748
▁학기	-8749
▁후배	-8750
▁힘은	-8751
였는데	-8752
인들의	-8753
장으로	-8754
▁건강한	-8755
▁경찰이	-8756
▁고구려	-8757
▁공간이	-8758
▁국회는	-8759
▁끝내고	-8760
▁눈으로	-8761
▁물어보	-8762
▁불필요	-8763
▁사례는	-8764
▁생명을	-8765
▁선택한	-8766
▁숫자가	-8767
▁시민은	-8768
▁아니죠	-8769
▁없는지	-8770
▁자격이	-8771
▁전쟁을	-8772
▁정신을	-8773
▁주장이	-8774
▁협상을	-8775
▁간단하게	-8776
▁개인적인	-8777
▁누구보다	-8778
▁에너지가	-8779
▁측면에서	-8780
하더라고요	-8781
▁들었습니다	-8782
▁일방적으로	-8783
▁벤	-8784
▁쿠	-8785
▁훌	-8786
간이	-8787
규모	-8788
림이	-8789
범죄	-8790
위권	-8791
으실	-8792
주면	-8793
킬러	-8794
▁감동	-8795
▁구멍	-8796
▁그죠	-8797
▁남측	-8798
▁다뤄	-8799
▁담긴	-8800
▁담아	-8801
▁대다	-8802
▁대입	-8803
▁도표	-8804
▁모호	-8805
▁무방	-8806
▁뿌리	-8807
▁사적	-8808
▁수면	-8809
▁식이	-8810
▁예고	-8811
▁유용	-8812
▁임명	-8813
▁재개	-8814
▁저기	-8815
▁적혀	-8816
▁좌우	-8817
▁주식	-8818
▁줄이	-8819
▁침묵	-8820
관계가	-8821
관계를	-8822
드리고	-8823
이고요	-8824
자마자	-8825
▁같다는	-8826
▁논술을	-8827
▁대체로	-8828
▁떨어질	-8829
▁목숨을	-8830
▁몰라요	-8831
▁문장의	-8832
▁받아서	-8833
▁분명한	-8834
▁비교적	-8835
▁사태의	-8836
▁생기면	-8837
▁서울시	-8838
▁손으로	-8839
▁아시아	-8840
▁아직은	-8841
▁얼굴을	-8842
▁인식이	-8843
▁자세가	-8844
▁절대로	-8845
▁정책은	-8846
▁제도를	-8847
▁최악의	-8848
▁파장이	-8849
▁풀다가	-8850
▁프린트	-8851
▁한은의	-8852
▁현재의	-8853
▁감안하면	-8854
▁결정하는	-8855
▁마땅하다	-8856
▁만들어야	-8857
▁살아가는	-8858
▁수능에서	-8859
▁않았는데	-8860
▁장애인이	-8861
▁전망하게	-8862
▁청와대의	-8863
▁학생들은	-8864
▁민주주의의	-8865
▁밝혔습니다	-8866
▁덧	-8867
▁몽	-8868
▁쏠	-8869
관은	-8870
두에	-8871
리카	-8872
릭터	-8873
무가	-8874
약이	-8875
양을	-8876
인에	-8877
재가	-8878
친다	-8879
트럼	-8880
▁개방	-8881
▁고향	-8882
▁교체	-8883
▁날짜	-8884
▁내야	-8885
▁동반	-8886
▁미루	-8887
▁바꿨	-8888
▁붕괴	-8889
▁브리	-8890
▁식민	-8891
▁쌓여	-8892
▁양극	-8893
▁열린	-8894
▁열지	-8895
▁유익	-8896
▁이젠	-8897
▁적게	-8898
▁전화	-8899
▁체제	-8900
▁취임	-8901
▁탓에	-8902
▁특혜	-8903
▁풀었	-8904
▁호흡	-8905
▁흡수	-8906
는지는	-8907
덩이인	-8908
용하는	-8909
으려면	-8910
인들은	-8911
▁개혁의	-8912
▁검사를	-8913
▁결국은	-8914
▁공부해	-8915
▁과목은	-8916
▁규제를	-8917
▁노동자	-8918
▁논의를	-8919
▁대학에	-8920
▁들어요	-8921
▁뛰어난	-8922
▁뭐예요	-8923
▁반도체	-8924
▁뿌려진	-8925
▁소비자	-8926
▁시간의	-8927
▁시작해	-8928
▁이용해	-8929
▁이중적	-8930
▁중국과	-8931
▁질량이	-8932
▁책임은	-8933
▁캐릭터	-8934
▁페이스	-8935
으로서는	-8936
적이라는	-8937
▁건드리다	-8938
▁곳곳에서	-8939
▁국민의당	-8940
▁불발탄이	-8941
▁쇳덩이인	-8942
▁스펙트럼	-8943
▁이후에도	-8944
▁진지하게	-8945
▁라오스에는	-8946
▁생각하지만	-8947
가에	-8948
그라	-8949
래요	-8950
리로	-8951
바닥	-8952
악한	-8953
역이	-8954
정책	-8955
졌을	-8956
쳐서	-8957
켰다	-8958
포를	-8959
함과	-8960
▁가계	-8961
▁가기	-8962
▁강구	-8963
▁겪고	-8964
▁고발	-8965
▁고조	-8966
▁공장	-8967
▁난다	-8968
▁낮아	-8969
▁둘은	-8970
▁등은	-8971
▁따름	-8972
▁매체	-8973
▁무능	-8974
▁부를	-8975
▁분산	-8976
▁새해	-8977
▁서강	-8978
▁세워	-8979
▁세월	-8980
▁아우	-8981
▁없던	-8982
▁여건	-8983
▁예능	-8984
▁자습	-8985
▁재발	-8986
▁직면	-8987
▁차가	-8988
▁촛불	-8989
▁추정	-8990
▁출범	-8991
▁킬러	-8992
▁파고	-8993
▁하여	-8994
되거나	-8995
셨어요	-8996
으로도	-8997
▁가격이	-8998
▁개혁은	-8999
▁기출은	-9000
▁단어는	-9001
▁더욱이	-9002
▁됐어요	-9003
▁뛰어넘	-9004
▁발언은	-9005
▁범위가	-9006
▁브리핑	-9007
▁사교육	-9008
▁사안을	-9009
▁수사는	-9010
▁어려웠	-9011
▁여당이	-9012
▁여성이	-9013
▁유일한	-9014
▁이미지	-9015
▁인물이	-9016
▁있네요	-9017
▁제조업	-9018
▁좀처럼	-9019
▁풀어서	-9020
▁해주는	-9021
▁그래프를	-9022
▁난이도가	-9023
▁달라지는	-9024
▁됐습니다	-9025
▁분위기를	-9026
▁않았지만	-9027
▁어디에서	-9028
▁트럼프의	-9029
▁되겠습니다	-9030
▁생각하는데	-9031
▁현실적으로	-9032
▁추천드립니다	-9033
▁났	-9034
대요	-9035
두를	-9036
들고	-9037
레스	-9038
료가	-9039
르면	-9040
소는	-9041
수수	-9042
오늘	-9043
을지	-9044
전의	-9045
주지	-9046
토록	-9047
확실	-9048
▁간호	-9049
▁갖게	-9050
▁건조	-9051
▁겨냥	-9052
▁고정	-9053
▁규모	-9054
▁그간	-9055
▁그와	-9056
▁글자	-9057
▁기사	-9058
▁기운	-9059
▁기원	-9060
▁나중	-9061
▁놓친	-9062
▁당내	-9063
▁돌파	-9064
▁되겠	-9065
▁러시	-9066
▁마시	-9067
▁묻지	-9068
▁바쁘	-9069
▁비리	-9070
▁삶에	-9071
▁수렴	-9072
▁수의	-9073
▁시사	-9074
▁식을	-9075
▁압도	-9076
▁에이	-9077
▁오를	-9078
▁옮겨	-9079
▁유입	-9080
▁이로	-9081
▁적폐	-9082
▁전날	-9083
▁정황	-9084
▁증언	-9085
▁참가	-9086
▁창의	-9087
▁타당	-9088
▁형식	-9089
던데요	-9090
시간에	-9091
이니까	-9092
했다가	-9093
▁가난한	-9094
▁거짓말	-9095
▁검찰에	-9096
▁겁니까	-9097
▁것이나	-9098
▁경향이	-9099
▁공정한	-9100
▁과정은	-9101
▁구조를	-9102
▁권력의	-9103
▁그렇고	-9104
▁근거로	-9105
▁나에게	-9106
▁나타날	-9107
▁대화와	-9108
▁돌아오	-9109
▁되니까	-9110
▁많은데	-9111
▁몰라도	-9112
▁문제들	-9113
▁부모의	-9114
▁북한과	-9115
▁불확실	-9116
▁사례를	-9117
▁사업을	-9118
▁선지를	-9119
▁순서가	-9120
▁시기를	-9121
▁시대의	-9122
▁시험지	-9123
▁야당은	-9124
▁없어도	-9125
▁없을걸	-9126
▁일본에	-9127
▁일부러	-9128
▁일종의	-9129
▁절댓값	-9130
▁조직이	-9131
▁준비가	-9132
▁증가율	-9133
▁청문회	-9134
▁계속해서	-9135
▁구분하는	-9136
▁그러므로	-9137
▁나을까요	-9138
▁납득하기	-9139
▁대통령도	-9140
▁들어가서	-9141
▁들었어요	-9142
▁마련해야	-9143
▁목적으로	-9144
▁벌어지고	-9145
▁어제오늘	-9146
▁이번에도	-9147
▁자유롭게	-9148
▁중입니다	-9149
▁진심으로	-9150
▁기대하지도	-9151
▁질문입니다	-9152
▁헬	-9153
군의	-9154
물은	-9155
복을	-9156
음은	-9157
▁가리	-9158
▁겨우	-9159
▁군대	-9160
▁극한	-9161
▁길은	-9162
▁다닐	-9163
▁다운	-9164
▁대개	-9165
▁대안	-9166
▁맞죠	-9167
▁무게	-9168
▁미술	-9169
▁바깥	-9170
▁북측	-9171
▁수를	-9172
▁수습	-9173
▁앞장	-9174
▁어지	-9175
▁여부	-9176
▁연출	-9177
▁은근	-9178
▁자초	-9179
▁정해	-9180
▁창출	-9181
▁채택	-9182
▁첫째	-9183
▁치부	-9184
▁한양	-9185
으시면	-9186
▁경제학	-9187
▁고개를	-9188
▁권한을	-9189
▁들어갔	-9190
▁때로는	-9191
▁무리가	-9192
▁문제와	-9193
▁문학은	-9194
▁미국을	-9195
▁미디어	-9196
▁밝혔다	-9197
▁배우고	-9198
▁비용을	-9199
▁사진에	-9200
▁스타일	-9201
▁승객은	-9202
▁아무튼	-9203
▁예산을	-9204
▁우려를	-9205
▁조금은	-9206
▁테스트	-9207
▁한국과	-9208
▁행위를	-9209
▁행태를	-9210
▁활동을	-9211
▁후보가	-9212
▁희망을	-9213
▁겨울방학	-9214
▁기대지도	-9215
▁마지막에	-9216
▁무책임한	-9217
▁이해받을	-9218
▁자신들의	-9219
▁한국당은	-9220
▁한국에서	-9221
▁합리적인	-9222
▁새누리당의	-9223
▁어렵습니다	-9224
▁의미인가요	-9225
▁전체적으로	-9226
▁엿	-9227
당을	-9228
드로	-9229
매일	-9230
셨던	-9231
수다	-9232
스는	-9233
스터	-9234
족은	-9235
▁가입	-9236
▁같긴	-9237
▁건축	-9238
▁고립	-9239
▁나설	-9240
▁단정	-9241
▁당당	-9242
▁독학	-9243
▁만남	-9244
▁무언	-9245
▁받게	-9246
▁부피	-9247
▁분다	-9248
▁상실	-9249
▁양을	-9250
▁업체	-9251
▁연설	-9252
▁오염	-9253
▁요건	-9254
▁이외	-9255
▁인종	-9256
▁일대	-9257
▁제안	-9258
▁조기	-9259
▁중대	-9260
▁진출	-9261
▁차근	-9262
▁치는	-9263
▁풀기	-9264
보도록	-9265
뿐이다	-9266
인에게	-9267
지에서	-9268
하느라	-9269
▁감염이	-9270
▁같으면	-9271
▁결론을	-9272
▁관련한	-9273
▁교육과	-9274
▁국민연	-9275
▁기사는	-9276
▁기준은	-9277
▁남아있	-9278
▁다음과	-9279
▁당국의	-9280
▁대학이	-9281
▁들어온	-9282
▁때에는	-9283
▁뜻하는	-9284
▁목적이	-9285
▁미래가	-9286
▁방법도	-9287
▁버리고	-9288
▁봅시다	-9289
▁사랑을	-9290
▁상관이	-9291
▁상태를	-9292
▁스포츠	-9293
▁어렵고	-9294
▁역사의	-9295
▁영화를	-9296
▁요소가	-9297
▁이것을	-9298
▁이어진	-9299
▁재수를	-9300
▁크기가	-9301
▁크다는	-9302
▁특별히	-9303
▁학원을	-9304
▁해석은	-9305
▁가속도가	-9306
▁나타나고	-9307
▁대목이다	-9308
▁머릿속에	-9309
▁무시하고	-9310
▁문장에서	-9311
▁부분이다	-9312
▁사안이다	-9313
▁논리적으로	-9314
▁마스터님은	-9315
▁못했습니다	-9316
▁바람직하지	-9317
▁필요하다고	-9318
▁험	-9319
격이	-9320
금의	-9321
기면	-9322
량의	-9323
스라	-9324
인도	-9325
자면	-9326
전은	-9327
졌고	-9328
차근	-9329
추는	-9330
층이	-9331
할까	-9332
▁가짜	-9333
▁강행	-9334
▁공존	-9335
▁관행	-9336
▁구축	-9337
▁근무	-9338
▁내린	-9339
▁당의	-9340
▁둘을	-9341
▁무대	-9342
▁문단	-9343
▁발사	-9344
▁번씩	-9345
▁보충	-9346
▁부각	-9347
▁부합	-9348
▁분모	-9349
▁불거	-9350
▁빼앗	-9351
▁사기	-9352
▁선호	-9353
▁소련	-9354
▁수직	-9355
▁신규	-9356
▁심한	-9357
▁어두	-9358
▁익힘	-9359
▁인기	-9360
▁일컫	-9361
▁적발	-9362
▁중년	-9363
▁추락	-9364
▁추석	-9365
▁테니	-9366
▁특수	-9367
▁필연	-9368
▁학과	-9369
▁홀로	-9370
▁화려	-9371
▁회장	-9372
▁힘내	-9373
면으로	-9374
십시오	-9375
했으면	-9376
▁가하는	-9377
▁간단한	-9378
▁같지만	-9379
▁객관적	-9380
▁기대를	-9381
▁멀리서	-9382
▁바람에	-9383
▁부르는	-9384
▁부모님	-9385
▁수시로	-9386
▁습관을	-9387
▁여당의	-9388
▁여론을	-9389
▁영화는	-9390
▁전자가	-9391
▁정도만	-9392
▁정치의	-9393
▁죽음을	-9394
▁중국을	-9395
▁친절한	-9396
▁파악할	-9397
▁평범한	-9398
▁하나다	-9399
▁관점에서	-9400
▁매일매일	-9401
▁반복되는	-9402
▁배려해야	-9403
▁선택과목	-9404
▁세상에서	-9405
▁순서대로	-9406
▁이산가족	-9407
▁인생이나	-9408
▁정리하고	-9409
▁학생들의	-9410
▁힘들어요	-9411
▁지나가려고	-9412
▁생각했습니다	-9413
▁뉘	-9414
▁빗	-9415
▁싹	-9416
랫폼	-9417
리며	-9418
반기	-9419
받는	-9420
법에	-9421
순환	-9422
스의	-9423
스크	-9424
어넣	-9425
장도	-9426
절이	-9427
치단	-9428
해질	-9429
▁각오	-9430
▁교류	-9431
▁귀납	-9432
▁귀를	-9433
▁기획	-9434
▁노베	-9435
▁달러	-9436
▁되찾	-9437
▁로스	-9438
▁매출	-9439
▁무력	-9440
▁바가	-9441
▁법인	-9442
▁보며	-9443
▁복귀	-9444
▁분담	-9445
▁분쟁	-9446
▁소모	-9447
▁수립	-9448
▁압축	-9449
▁영토	-9450
▁있단	-9451
▁전자	-9452
▁줄일	-9453
▁지망	-9454
▁찍은	-9455
▁참담	-9456
▁청구	-9457
▁치명	-9458
▁투입	-9459
▁편집	-9460
▁표를	-9461
▁풀다	-9462
▁피의	-9463
▁한글	-9464
었나요	-9465
으려는	-9466
하자는	-9467
▁강좌가	-9468
▁공동체	-9469
▁나을걸	-9470
▁낙하산	-9471
▁내용에	-9472
▁늘어날	-9473
▁달라질	-9474
▁대학은	-9475
▁드러낸	-9476
▁변화에	-9477
▁서술형	-9478
▁선배님	-9479
▁압수수	-9480
▁없도록	-9481
▁연구를	-9482
▁영상이	-9483
▁외교적	-9484
▁외우고	-9485
▁위에서	-9486
▁유리한	-9487
▁인상을	-9488
▁저소득	-9489
▁전까지	-9490
▁정책에	-9491
▁중앙대	-9492
▁중에는	-9493
▁처벌을	-9494
▁치료를	-9495
▁풀이에	-9496
▁플랫폼	-9497
▁해서는	-9498
▁환경을	-9499
▁후보자	-9500
되었다고	-9501
▁드립니다	-9502
▁모습이다	-9503
▁벗어나지	-9504
▁이제라도	-9505
▁정치권이	-9506
▁차근차근	-9507
▁철저하게	-9508
▁틀렸는지	-9509
▁현실적인	-9510
▁확인하는	-9511
▁뜬	-9512
둘러	-9513
들어	-9514
로지	-9515
론이	-9516
르기	-9517
물의	-9518
받고	-9519
원과	-9520
전한	-9521
▁값이	-9522
▁관측	-9523
▁괴롭	-9524
▁권위	-9525
▁당선	-9526
▁도달	-9527
▁들었	-9528
▁맞대	-9529
▁미분	-9530
▁바꾼	-9531
▁방출	-9532
▁배송	-9533
▁보러	-9534
▁봐봐	-9535
▁뿌듯	-9536
▁서서	-9537
▁소수	-9538
▁시너	-9539
▁얻은	-9540
▁엘리	-9541
▁유발	-9542
▁이득	-9543
▁이탈	-9544
▁자산	-9545
▁자전	-9546
▁재능	-9547
▁전투	-9548
▁정반	-9549
▁조약	-9550
▁한때	-9551
▁함수	-9552
▁협조	-9553
▁화해	-9554
됐다는	-9555
면서도	-9556
았다고	-9557
▁괜찮을	-9558
▁국민적	-9559
▁근본적	-9560
▁금요일	-9561
▁길이다	-9562
▁나눠서	-9563
▁노래는	-9564
▁눈물을	-9565
▁늘어난	-9566
▁더더욱	-9567
▁돈으로	-9568
▁돌리는	-9569
▁로스쿨	-9570
▁면에서	-9571
▁명백한	-9572
▁미래에	-9573
▁벌어진	-9574
▁보는데	-9575
▁복습은	-9576
▁비율을	-9577
▁사전에	-9578
▁상대적	-9579
▁속도는	-9580
▁시장의	-9581
▁아마도	-9582
▁않았고	-9583
▁언론의	-9584
▁오늘날	-9585
▁오로지	-9586
▁유가족	-9587
▁유형을	-9588
▁의미의	-9589
▁인간을	-9590
▁있구나	-9591
▁있는가	-9592
▁작품의	-9593
▁좋았다	-9594
▁집중이	-9595
▁차원의	-9596
▁하겠다	-9597
▁하나씩	-9598
▁한계를	-9599
▁해설을	-9600
적으로도	-9601
▁가능성은	-9602
▁공부하기	-9603
▁문제집을	-9604
▁이해해야	-9605
▁일상생활	-9606
▁자리에서	-9607
▁하겠다는	-9608
▁해볼게요	-9609
▁결과적으로	-9610
▁소리쳤지만	-9611
▁있으신가요	-9612
▁헷갈리네요	-9613
,,	-9614
▁갇	-9615
▁꺾	-9616
▁맑	-9617
▁싱	-9618
▁턱	-9619
▁핸	-9620
리라	-9621
물로	-9622
봐서	-9623
상과	-9624
석이	-9625
으론	-9626
절을	-9627
정도	-9628
파가	-9629
프라	-9630
▁가이	-9631
▁개별	-9632
▁귀여	-9633
▁기소	-9634
▁들이	-9635
▁땅을	-9636
▁뜯어	-9637
▁막막	-9638
▁만화	-9639
▁말에	-9640
▁목격	-9641
▁받기	-9642
▁복수	-9643
▁부럽	-9644
▁사후	-9645
▁상봉	-9646
▁수수	-9647
▁쉽다	-9648
▁시비	-9649
▁싸우	-9650
▁쓰인	-9651
▁얻기	-9652
▁여의	-9653
▁연령	-9654
▁연말	-9655
▁자외	-9656
▁장담	-9657
▁져야	-9658
▁조짐	-9659
▁진로	-9660
▁크기	-9661
▁태양	-9662
▁혁명	-9663
▁환영	-9664
렸는데	-9665
밀하게	-9666
았지만	-9667
원으로	-9668
▁가까워	-9669
▁경제성	-9670
▁경희대	-9671
▁과거를	-9672
▁그거를	-9673
▁기출분	-9674
▁나라는	-9675
▁나한테	-9676
▁누구랑	-9677
▁대규모	-9678
▁대응이	-9679
▁두려워	-9680
▁뒤에는	-9681
▁들어왔	-9682
▁문장은	-9683
▁바꿔야	-9684
▁바뀌지	-9685
▁방안도	-9686
▁보편적	-9687
▁불안한	-9688
▁사라진	-9689
▁사소한	-9690
▁실패를	-9691
▁쓰이는	-9692
▁아니기	-9693
▁아빠가	-9694
▁않았을	-9695
▁열라고	-9696
▁염두에	-9697
▁오래다	-9698
▁올해도	-9699
▁요인이	-9700
▁유사한	-9701
▁유형이	-9702
▁의혹은	-9703
▁인류의	-9704
▁장관이	-9705
▁정의를	-9706
▁정치는	-9707
▁주장은	-9708
▁타격을	-9709
▁탓이다	-9710
▁특정한	-9711
▁평화와	-9712
일뿐이다	-9713
▁고마워요	-9714
▁과학논술	-9715
▁나머지는	-9716
▁분야에서	-9717
▁아버지가	-9718
▁위해서도	-9719
▁이들에게	-9720
▁이뤄지지	-9721
▁이제부터	-9722
▁읽으면서	-9723
▁정상적인	-9724
▁파악하는	-9725
▁해석하는	-9726
▁가능하다고	-9727
▁풀었습니다	-9728
감에	-9729
강의	-9730
관리	-9731
내지	-9732
디오	-9733
례가	-9734
사다	-9735
소의	-9736
용을	-9737
이개	-9738
차게	-9739
학이	-9740
▁가을	-9741
▁간과	-9742
▁거임	-9743
▁견해	-9744
▁공사	-9745
▁과외	-9746
▁귀지	-9747
▁그릇	-9748
▁급급	-9749
▁낯설	-9750
▁다수	-9751
▁대치	-9752
▁동생	-9753
▁듯이	-9754
▁때면	-9755
▁명시	-9756
▁모색	-9757
▁문건	-9758
▁믿는	-9759
▁반가	-9760
▁배울	-9761
▁보조	-9762
▁부회	-9763
▁비록	-9764
▁빛을	-9765
▁손상	-9766
▁수고	-9767
▁수동	-9768
▁실종	-9769
▁심심	-9770
▁쌤이	-9771
▁쓰여	-9772
▁앞선	-9773
▁얘네	-9774
▁오전	-9775
▁유족	-9776
▁잡을	-9777
▁전락	-9778
▁전시	-9779
▁조장	-9780
▁죽을	-9781
▁직후	-9782
▁진도	-9783
▁짝이	-9784
▁차량	-9785
▁통증	-9786
▁투기	-9787
▁파게	-9788
▁편안	-9789
▁풀리	-9790
▁학문	-9791
는지를	-9792
주시는	-9793
▁가능성	-9794
▁갈등은	-9795
▁과언이	-9796
▁교육을	-9797
▁구조가	-9798
▁국회를	-9799
▁궁금해	-9800
▁귀이개	-9801
▁그들을	-9802
▁그때는	-9803
▁기출이	-9804
▁못지않	-9805
▁무거운	-9806
▁물어야	-9807
▁미래의	-9808
▁바람이	-9809
▁발목을	-9810
▁방식은	-9811
▁번째로	-9812
▁베이징	-9813
▁사람과	-9814
▁실패한	-9815
▁싶었다	-9816
▁아들이	-9817
▁않았던	-9818
▁언어와	-9819
▁여론이	-9820
▁의사를	-9821
▁인구가	-9822
▁일요일	-9823
▁자료가	-9824
▁작품은	-9825
▁재밌게	-9826
▁절차에	-9827
▁조사가	-9828
▁지식을	-9829
▁평가가	-9830
▁표현의	-9831
▁한동안	-9832
▁해보고	-9833
▁혼란을	-9834
▁흐름이	-9835
적이라고	-9836
하기에는	-9837
하잖아요	-9838
▁가져다줘	-9839
▁개성공단	-9840
▁공부시간	-9841
▁국민들의	-9842
▁나름대로	-9843
▁대부분이	-9844
▁들어오는	-9845
▁말씀드리	-9846
▁봤습니다	-9847
▁스스로를	-9848
▁아버지의	-9849
▁엄청나게	-9850
▁이상하게	-9851
▁주문하신	-9852
▁지경이다	-9853
▁초등학교	-9854
▁하시는데	-9855
▁해결해야	-9856
▁사람들에게	-9857
▁선생님들이	-9858
▁있더라고요	-9859
▁추천드려요	-9860
▁꽂	-9861
▁빙	-9862
▁쇠	-9863
▁쇼	-9864
▁쌍	-9865
▁튀	-9866
각을	-9867
감과	-9868
계와	-9869
그러	-9870
놓는	-9871
시설	-9872
에이	-9873
왔던	-9874
으려	-9875
잡고	-9876
준다	-9877
체적	-9878
하루	-9879
함수	-9880
효율	-9881
▁개개	-9882
▁고양	-9883
▁공소	-9884
▁나빠	-9885
▁남지	-9886
▁높게	-9887
▁단체	-9888
▁담은	-9889
▁답지	-9890
▁둘째	-9891
▁말과	-9892
▁물고	-9893
▁반갑	-9894
▁번역	-9895
▁법정	-9896
▁변경	-9897
▁비서	-9898
▁삼아	-9899
▁싫은	-9900
▁안다	-9901
▁안심	-9902
▁앞뒤	-9903
▁엇갈	-9904
▁연일	-9905
▁완료	-9906
▁유동	-9907
▁이란	-9908
▁이례	-9909
▁이슬	-9910
▁임기	-9911
▁자가	-9912
▁전직	-9913
▁지리	-9914
▁지연	-9915
▁직결	-9916
▁찾지	-9917
▁한심	-9918
▁형용	-9919
▁화폐	-9920
▁훌륭	-9921
되기도	-9922
되네요	-9923
스란히	-9924
에게도	-9925
였다고	-9926
으므로	-9927
졌어요	-9928
▁가지로	-9929
▁각자의	-9930
▁강의에	-9931
▁거리를	-9932
▁경쟁을	-9933
▁고민해	-9934
▁공식적	-9935
▁과거에	-9936
▁그러지	-9937
▁그치지	-9938
▁기대가	-9939
▁나섰다	-9940
▁논술은	-9941
▁느껴지	-9942
▁대비를	-9943
▁대안을	-9944
▁듣다가	-9945
▁등급이	-9946
▁만들기	-9947
▁만만치	-9948
▁말라는	-9949
▁맞벌이	-9950
▁방향은	-9951
▁별다른	-9952
▁보시고	-9953
▁비중이	-9954
▁사이트	-9955
▁삼성전	-9956
▁상태가	-9957
▁서둘러	-9958
▁선지는	-9959
▁소식이	-9960
▁수능날	-9961
▁시작된	-9962
▁아름답	-9963
▁업로드	-9964
▁이렇다	-9965
▁익힘책	-9966
▁있으며	-9967
▁정도를	-9968
▁제도적	-9969
▁주변에	-9970
▁주제를	-9971
▁해설지	-9972
▁해야지	-9973
▁했으면	-9974
▁현실에	-9975
▁강조하는	-9976
▁개인이나	-9977
▁고스란히	-9978
▁괜찮아요	-9979
▁국회에서	-9980
▁그런가요	-9981
▁노동자의	-9982
▁들어가면	-9983
▁수준이다	-9984
▁압수수색	-9985
▁어려워서	-9986
▁중에서도	-9987
▁풀었어요	-9988
▁하루하루	-9989
▁확인하고	-9990
▁아니잖아요	-9991
▁있겠습니다	-9992
▁딩	-9993
▁샤	-9994
▁을	-9995
▁짙	-9996
계열	-9997
당의	-9998
동은	-9999
드의	-10000
론은	-10001
름이	-10002
말은	-10003
병이	-10004
봤다	-10005
분배	-10006
실험	-10007
았고	-10008
유의	-10009
이버	-10010
인한	-10011
점도	-10012
줄이	-10013
줘요	-10014
풍을	-10015
하라	-10016
화될	-10017
▁건국	-10018
▁곁에	-10019
▁골라	-10020
▁꿈이	-10021
▁낙인	-10022
▁넘겨	-10023
▁노는	-10024
▁다녔	-10025
▁독특	-10026
▁동영	-10027
▁만났	-10028
▁만드	-10029
▁묘사	-10030
▁반박	-10031
▁반에	-10032
▁밤에	-10033
▁불리	-10034
▁빌려	-10035
▁사대	-10036
▁수평	-10037
▁스킬	-10038
▁시나	-10039
▁시위	-10040
▁약대	-10041
▁어처	-10042
▁열공	-10043
▁유감	-10044
▁이민	-10045
▁재앙	-10046
▁적합	-10047
▁정기	-10048
▁정쟁	-10049
▁지우	-10050
▁지진	-10051
▁최우	-10052
▁표준	-10053
▁피로	-10054
▁해볼	-10055
▁해체	-10056
▁현안	-10057
▁현직	-10058
▁홍콩	-10059
▁후반	-10060
국이다	-10061
스라엘	-10062
시나요	-10063
였어요	-10064
으라고	-10065
정으로	-10066
조사를	-10067
하자면	-10068
▁갈등의	-10069
▁같나요	-10070
▁건강을	-10071
▁경우를	-10072
▁곧바로	-10073
▁곳곳에	-10074
▁구매할	-10075
▁구체적	-10076
▁국가적	-10077
▁기득권	-10078
▁기회에	-10079
▁납득이	-10080
▁논란을	-10081
▁당시에	-10082
▁댓글로	-10083
▁도발을	-10084
▁드네요	-10085
▁듭니다	-10086
▁때문일	-10087
▁미국에	-10088
▁부부를	-10089
▁불편한	-10090
▁사정이	-10091
▁상대를	-10092
▁소비가	-10093
▁수학에	-10094
▁시대를	-10095
▁아이디	-10096
▁얘기도	-10097
▁엄마가	-10098
▁업무를	-10099
▁영향이	-10100
▁일정을	-10101
▁작품이	-10102
▁장애인	-10103
▁접종을	-10104
▁존재를	-10105
▁존재할	-10106
▁지자체	-10107
▁챙기는	-10108
▁파란색	-10109
▁현실이	-10110
▁괜찮나요	-10111
▁국정원의	-10112
▁국정원이	-10113
▁늘어나는	-10114
▁다르다고	-10115
▁다른가요	-10116
▁대부분은	-10117
▁대표성이	-10118
▁드러난다	-10119
▁맞을까요	-10120
▁불필요한	-10121
▁사람마다	-10122
▁시스템을	-10123
▁어처구니	-10124
▁올라가는	-10125
▁이스라엘	-10126
▁인정하지	-10127
▁전체적인	-10128
▁제시하는	-10129
▁해당되는	-10130
▁현실에서	-10131
▁전문가들은	-10132
▁이해했습니다	-10133
▁뭉	-10134
▁쉴	-10135
간을	-10136
드컵	-10137
디션	-10138
령을	-10139
방이	-10140
별한	-10141
석은	-10142
움과	-10143
함에	-10144
..!	-10145
▁강남	-10146
▁그들	-10147
▁기쁨	-10148
▁단백	-10149
▁딩크	-10150
▁못했	-10151
▁미지	-10152
▁배를	-10153
▁부의	-10154
▁불신	-10155
▁사죄	-10156
▁삼수	-10157
▁세운	-10158
▁슬럼	-10159
▁여섯	-10160
▁위의	-10161
▁응시	-10162
▁인류	-10163
▁자취	-10164
▁저를	-10165
▁접속	-10166
▁제정	-10167
▁조만	-10168
▁조항	-10169
▁줄을	-10170
▁직선	-10171
▁체육	-10172
▁추세	-10173
▁파는	-10174
▁했었	-10175
▁현행	-10176
▁형평	-10177
▁확신	-10178
▁후퇴	-10179
는지도	-10180
봤어요	-10181
상적인	-10182
였지만	-10183
하다면	-10184
하시길	-10185
▁같고요	-10186
▁경찰의	-10187
▁공간을	-10188
▁기숙사	-10189
▁기술은	-10190
▁끌어올	-10191
▁눈치를	-10192
▁달라요	-10193
▁당국은	-10194
▁대학생	-10195
▁대학의	-10196
▁듣는다	-10197
▁들었던	-10198
▁막대한	-10199
▁무작정	-10200
▁문화는	-10201
▁반응이	-10202
▁보고서	-10203
▁분들도	-10204
▁분석이	-10205
▁불안을	-10206
▁비교해	-10207
▁생긴다	-10208
▁서로를	-10209
▁선진국	-10210
▁성범죄	-10211
▁손가락	-10212
▁시선을	-10213
▁실수가	-10214
▁아나요	-10215
▁아는데	-10216
▁야당을	-10217
▁얘기할	-10218
▁영어로	-10219
▁원칙에	-10220
▁의심을	-10221
▁이상이	-10222
▁일일이	-10223
▁일컫는	-10224
▁잘하고	-10225
▁저희가	-10226
▁전제로	-10227
▁증거를	-10228
▁측면이	-10229
▁테이블	-10230
▁표본의	-10231
▁피해는	-10232
▁하시고	-10233
▁확률이	-10234
▁개인정보	-10235
▁교과서에	-10236
▁기업들은	-10237
▁나왔어요	-10238
▁달라지지	-10239
▁보여주고	-10240
▁보이네요	-10241
▁부끄러운	-10242
▁부족해서	-10243
▁스스로의	-10244
▁영향력을	-10245
▁인정하고	-10246
▁일주일에	-10247
▁포기하지	-10248
▁하루빨리	-10249
▁헷갈리는	-10250
▁근본적으로	-10251
▁사실이라면	-10252
▁하셨는데요	-10253
▁낱	-10254
▁렌	-10255
▁잣	-10256
강을	-10257
계로	-10258
구의	-10259
글라	-10260
락이	-10261
례를	-10262
름을	-10263
리아	-10264
말이	-10265
면은	-10266
문에	-10267
민주	-10268
종을	-10269
착오	-10270
판을	-10271
▁가뜩	-10272
▁가습	-10273
▁걸고	-10274
▁걸려	-10275
▁걸쳐	-10276
▁공항	-10277
▁관념	-10278
▁관형	-10279
▁교황	-10280
▁근처	-10281
▁글은	-10282
▁남들	-10283
▁넘길	-10284
▁담고	-10285
▁도로	-10286
▁로그	-10287
▁모으	-10288
▁부러	-10289
▁뽑는	-10290
▁사관	-10291
▁삶은	-10292
▁상세	-10293
▁세수	-10294
▁속의	-10295
▁수월	-10296
▁쌓아	-10297
▁쓰기	-10298
▁쓴다	-10299
▁앞세	-10300
▁어리	-10301
▁어색	-10302
▁엉뚱	-10303
▁오케	-10304
▁외울	-10305
▁외환	-10306
▁웬만	-10307
▁유행	-10308
▁유혹	-10309
▁이리	-10310
▁인증	-10311
▁읽기	-10312
▁입에	-10313
▁저작	-10314
▁지니	-10315
▁지표	-10316
▁찬성	-10317
▁창조	-10318
▁채용	-10319
▁처한	-10320
▁천재	-10321
▁철회	-10322
▁출입	-10323
▁출처	-10324
▁치러	-10325
▁해고	-10326
▁후유	-10327
상에서	-10328
성이다	-10329
시키고	-10330
어지지	-10331
정하게	-10332
▁가져야	-10333
▁가지는	-10334
▁강의로	-10335
▁개념과	-10336
▁과학적	-10337
▁관광객	-10338
▁관련해	-10339
▁국어를	-10340
▁국제적	-10341
▁기간에	-10342
▁기간이	-10343
▁길이가	-10344
▁다수의	-10345
▁다음은	-10346
▁대화가	-10347
▁되도록	-10348
▁뜻으로	-10349
▁많다는	-10350
▁맞아요	-10351
▁멋대로	-10352
▁발언이	-10353
▁변화는	-10354
▁분석해	-10355
▁비용이	-10356
▁사법부	-10357
▁서로의	-10358
▁선택이	-10359
▁신경을	-10360
▁아이의	-10361
▁알려져	-10362
▁알려진	-10363
▁압력이	-10364
▁얘기해	-10365
▁언젠가	-10366
▁영화의	-10367
▁예시가	-10368
▁월드컵	-10369
▁음악을	-10370
▁의도를	-10371
▁이슬람	-10372
▁있었을	-10373
▁조만간	-10374
▁주목할	-10375
▁줄어든	-10376
▁지문의	-10377
▁최우선	-10378
▁충격을	-10379
▁텐데요	-10380
▁파이널	-10381
▁하거나	-10382
▁학교도	-10383
▁학부모	-10384
▁현상을	-10385
▁휴대폰	-10386
하거든요	-10387
▁가능하지	-10388
▁가뜩이나	-10389
▁경우에도	-10390
▁고민하고	-10391
▁나타난다	-10392
▁느껴지는	-10393
▁늘어나고	-10394
▁딩크족은	-10395
▁메시지를	-10396
▁모르는데	-10397
▁사진으로	-10398
▁선생님들	-10399
▁세계에서	-10400
▁솔직하게	-10401
▁어떻게든	-10402
▁일어나지	-10403
▁일자리가	-10404
▁있었나요	-10405
▁차이점을	-10406
▁판단해야	-10407
▁했는데요	-10408
▁민주주의를	-10409
▁불가능하다	-10410
▁언제인가요	-10411
▁필요합니다	-10412
▁율	-10413
▁족	-10414
▁펜	-10415
미는	-10416
속히	-10417
정의	-10418
줬다	-10419
함은	-10420
▁간주	-10421
▁갖지	-10422
▁고소	-10423
▁공권	-10424
▁그중	-10425
▁나섰	-10426
▁눈높	-10427
▁다툼	-10428
▁당부	-10429
▁대기	-10430
▁대사	-10431
▁독점	-10432
▁되나	-10433
▁모임	-10434
▁무료	-10435
▁무죄	-10436
▁물체	-10437
▁발을	-10438
▁범주	-10439
▁변수	-10440
▁불을	-10441
▁세포	-10442
▁쇄신	-10443
▁수십	-10444
▁숫자	-10445
▁시를	-10446
▁얻고	-10447
▁원서	-10448
▁월급	-10449
▁은폐	-10450
▁응답	-10451
▁적도	-10452
▁접어	-10453
▁정교	-10454
▁종사	-10455
▁줄여	-10456
▁지출	-10457
▁차분	-10458
▁찾고	-10459
▁청동	-10460
▁치유	-10461
▁패러	-10462
▁팽창	-10463
▁표명	-10464
▁한꺼	-10465
▁홈페	-10466
▁휘둘	-10467
렸어요	-10468
진다는	-10469
▁가족의	-10470
▁개인적	-10471
▁건데요	-10472
▁곳으로	-10473
▁공감을	-10474
▁구조적	-10475
▁국가와	-10476
▁끝나지	-10477
▁내신은	-10478
▁내용과	-10479
▁달라서	-10480
▁달라지	-10481
▁달랐다	-10482
▁답변해	-10483
▁대단한	-10484
▁되지만	-10485
▁명분이	-10486
▁모처럼	-10487
▁문학을	-10488
▁민감한	-10489
▁민심을	-10490
▁벌어질	-10491
▁별개로	-10492
▁보나요	-10493
▁부끄럽	-10494
▁비교할	-10495
▁빠르고	-10496
▁사고는	-10497
▁생각했	-10498
▁선거를	-10499
▁세계를	-10500
▁세우고	-10501
▁세우는	-10502
▁수업이	-10503
▁시험은	-10504
▁싶으면	-10505
▁어디를	-10506
▁어려움	-10507
▁예외가	-10508
▁오래된	-10509
▁입장은	-10510
▁있거나	-10511
▁있었고	-10512
▁자전거	-10513
▁장관의	-10514
▁전자기	-10515
▁정리가	-10516
▁정치와	-10517
▁제기된	-10518
▁제도가	-10519
▁제외한	-10520
▁좋을지	-10521
▁지지를	-10522
▁집단의	-10523
▁출제가	-10524
▁치열한	-10525
▁페이지	-10526
▁포함한	-10527
▁하늘을	-10528
▁하셔도	-10529
▁한참을	-10530
▁핵심은	-10531
▁행태는	-10532
▁혼자서	-10533
▁확진자	-10534
▁환자가	-10535
▁그러면은	-10536
▁기울여야	-10537
▁노릇이다	-10538
▁들어가야	-10539
▁못지않게	-10540
▁문제들은	-10541
▁수단으로	-10542
▁시작한다	-10543
▁언제든지	-10544
▁오답노트	-10545
▁왔습니다	-10546
▁의미인지	-10547
▁이용하는	-10548
▁있었다는	-10549
▁정치권은	-10550
▁준비하고	-10551
▁친구들도	-10552
▁풀어보는	-10553
▁한꺼번에	-10554
▁홈페이지	-10555
▁후보자의	-10556
▁문제입니다	-10557
▁상황입니다	-10558
▁필요하다는	-10559
▁눌	-10560
▁탑	-10561
▁폰	-10562
관에	-10563
국민	-10564
까진	-10565
나무	-10566
대도	-10567
대와	-10568
됐을	-10569
셔요	-10570
수칙	-10571
어의	-10572
일에	-10573
일지	-10574
적은	-10575
질의	-10576
치다	-10577
티브	-10578
하진	-10579
형은	-10580
▁교제	-10581
▁교회	-10582
▁국무	-10583
▁군은	-10584
▁궁극	-10585
▁글의	-10586
▁기념	-10587
▁꿈꾸	-10588
▁낡은	-10589
▁눈부	-10590
▁늘려	-10591
▁단속	-10592
▁당한	-10593
▁등등	-10594
▁레이	-10595
▁마냥	-10596
▁멀다	-10597
▁뭐죠	-10598
▁미뤄	-10599
▁박탈	-10600
▁발명	-10601
▁방증	-10602
▁방침	-10603
▁벼랑	-10604
▁봤던	-10605
▁불복	-10606
▁생생	-10607
▁선발	-10608
▁선을	-10609
▁선행	-10610
▁성추	-10611
▁세종	-10612
▁소년	-10613
▁손해	-10614
▁쉬워	-10615
▁시켜	-10616
▁양보	-10617
▁양심	-10618
▁영원	-10619
▁예민	-10620
▁예약	-10621
▁원작	-10622
▁유기	-10623
▁이견	-10624
▁이룬	-10625
▁이쪽	-10626
▁인내	-10627
▁읽은	-10628
▁자라	-10629
▁자의	-10630
▁저번	-10631
▁전염	-10632
▁조급	-10633
▁중재	-10634
▁지닌	-10635
▁지명	-10636
▁지울	-10637
▁쪽에	-10638
▁창작	-10639
▁체화	-10640
▁최순	-10641
▁한미	-10642
간다고	-10643
되는데	-10644
명하다	-10645
물이다	-10646
사들이	-10647
스러워	-10648
인으로	-10649
하게도	-10650
할수록	-10651
▁가치와	-10652
▁결과다	-10653
▁경쟁이	-10654
▁고난도	-10655
▁공부법	-10656
▁과제를	-10657
▁권력이	-10658
▁균형을	-10659
▁그녀는	-10660
▁극단적	-10661
▁나오게	-10662
▁납득할	-10663
▁네이버	-10664
▁대응은	-10665
▁많다고	-10666
▁물체의	-10667
▁방안이	-10668
▁방향과	-10669
▁배경지	-10670
▁보기는	-10671
▁상태다	-10672
▁성공할	-10673
▁수사의	-10674
▁시너지	-10675
▁안돼서	-10676
▁안되고	-10677
▁알아두	-10678
▁야당과	-10679
▁엄격한	-10680
▁없이는	-10681
▁오해를	-10682
▁우리를	-10683
▁이벤트	-10684
▁이상은	-10685
▁일대일	-10686
▁임금을	-10687
▁정해져	-10688
▁제품을	-10689
▁주변의	-10690
▁지문은	-10691
▁지키지	-10692
▁참고로	-10693
▁캠퍼스	-10694
▁크다고	-10695
▁판결이	-10696
▁핵실험	-10697
되었는지	-10698
▁너무나도	-10699
▁다릅니다	-10700
▁대학에서	-10701
▁맞습니다	-10702
▁받아들일	-10703
▁실질적인	-10704
▁싶어서요	-10705
▁안된다는	-10706
▁여쭤봐도	-10707
▁이어진다	-10708
▁있어서요	-10709
▁있었다고	-10710
▁있었지만	-10711
▁존재한다	-10712
▁중요하지	-10713
▁지지율이	-10714
▁진행되고	-10715
▁책임지는	-10716
▁친구들과	-10717
▁긍정적으로	-10718
▁마지막까지	-10719
▁꽉	-10720
▁콩	-10721
경이	-10722
도와	-10723
롭고	-10724
리와	-10725
번째	-10726
비는	-10727
제와	-10728
졌던	-10729
크라	-10730
특강	-10731
프를	-10732
하되	-10733
합은	-10734
▁가라	-10735
▁결심	-10736
▁경선	-10737
▁고집	-10738
▁귀한	-10739
▁기온	-10740
▁나지	-10741
▁내릴	-10742
▁너네	-10743
▁놓여	-10744
▁다해	-10745
▁대폭	-10746
▁무역	-10747
▁버리	-10748
▁불공	-10749
▁불합	-10750
▁붙어	-10751
▁브라	-10752
▁빨라	-10753
▁사문	-10754
▁성별	-10755
▁성향	-10756
▁세우	-10757
▁소식	-10758
▁소외	-10759
▁슬픈	-10760
▁실행	-10761
▁쓰레	-10762
▁쓰이	-10763
▁양의	-10764
▁열고	-10765
▁유연	-10766
▁이다	-10767
▁일제	-10768
▁임대	-10769
▁자아	-10770
▁잘한	-10771
▁종류	-10772
▁종속	-10773
▁직시	-10774
▁진입	-10775
▁질량	-10776
▁착용	-10777
▁찾은	-10778
▁채널	-10779
▁축하	-10780
▁포괄	-10781
▁화를	-10782
듯해요	-10783
에서의	-10784
응하는	-10785
주의는	-10786
주의를	-10787
해지면	-10788
▁건강에	-10789
▁것이란	-10790
▁것인데	-10791
▁결정이	-10792
▁계산이	-10793
▁관계에	-10794
▁교육의	-10795
▁구분이	-10796
▁국정의	-10797
▁그리스	-10798
▁김정은	-10799
▁나쁘지	-10800
▁다니고	-10801
▁되기도	-10802
▁뜨거운	-10803
▁마이너	-10804
▁멍하니	-10805
▁목표는	-10806
▁받으면	-10807
▁밝히지	-10808
▁법무부	-10809
▁보셔야	-10810
▁보여야	-10811
▁분모가	-10812
▁비효율	-10813
▁사용할	-10814
▁생명과	-10815
▁세계사	-10816
▁세상의	-10817
▁소득이	-10818
▁시점에	-10819
▁안전한	-10820
▁알았다	-10821
▁얘기야	-10822
▁언론에	-10823
▁여기저	-10824
▁온전히	-10825
▁올리고	-10826
▁의사가	-10827
▁의해서	-10828
▁이것만	-10829
▁이론은	-10830
▁이른바	-10831
▁인도적	-10832
▁일반화	-10833
▁일상을	-10834
▁자체로	-10835
▁장면이	-10836
▁저지른	-10837
▁정상이	-10838
▁주관적	-10839
▁주시는	-10840
▁즐겁게	-10841
▁집중을	-10842
▁특징이	-10843
▁편이다	-10844
▁함부로	-10845
▁현상은	-10846
▁혜택을	-10847
▁확신이	-10848
▁확인을	-10849
▁궁금하다	-10850
▁그래프가	-10851
▁나타내는	-10852
▁마음속에	-10853
▁모르지만	-10854
▁발생한다	-10855
▁비슷하게	-10856
▁실전에서	-10857
▁실제로는	-10858
▁어려움이	-10859
▁어린이집	-10860
▁인식하고	-10861
▁일이었다	-10862
▁제외하고	-10863
▁주변에서	-10864
▁칼럼으로	-10865
▁가능합니다	-10866
▁더불어민주	-10867
▁때문이라고	-10868
▁마스터님의	-10869
▁모르겠는데	-10870
▁문제에서는	-10871
▁부탁드려요	-10872
▁말씀하셨는데	-10873
▁놔	-10874
▁앱	-10875
▁엮	-10876
▁켜	-10877
▁햇	-10878
각이	-10879
돌이	-10880
되게	-10881
면에	-10882
면이	-10883
법과	-10884
분들	-10885
시적	-10886
앞에	-10887
연이	-10888
음에	-10889
의의	-10890
저리	-10891
전과	-10892
절로	-10893
중이	-10894
지요	-10895
진은	-10896
파를	-10897
해안	-10898
▁갖춰	-10899
▁공론	-10900
▁국한	-10901
▁기도	-10902
▁낙관	-10903
▁네가	-10904
▁놀랍	-10905
▁놀러	-10906
▁농촌	-10907
▁뉘앙	-10908
▁단일	-10909
▁당분	-10910
▁동참	-10911
▁메리	-10912
▁면역	-10913
▁멸망	-10914
▁무척	-10915
▁밝히	-10916
▁빚을	-10917
▁설령	-10918
▁세력	-10919
▁신선	-10920
▁애국	-10921
▁연도	-10922
▁열이	-10923
▁영업	-10924
▁올랐	-10925
▁왕이	-10926
▁자소	-10927
▁잡은	-10928
▁전향	-10929
▁죽은	-10930
▁중복	-10931
▁지워	-10932
▁지정	-10933
▁채우	-10934
▁책의	-10935
▁체력	-10936
▁택배	-10937
▁퇴직	-10938
▁특이	-10939
▁폐기	-10940
▁피고	-10941
▁해본	-10942
▁핸드	-10943
▁허락	-10944
▁홍보	-10945
로서의	-10946
마저도	-10947
었네요	-10948
전으로	-10949
점이다	-10950
졌는데	-10951
쪽으로	-10952
▁가슴에	-10953
▁개혁에	-10954
▁겹치는	-10955
▁곳이다	-10956
▁공교육	-10957
▁공부도	-10958
▁관리를	-10959
▁교재와	-10960
▁그리는	-10961
▁그림이	-10962
▁기대할	-10963
▁기출문	-10964
▁내용의	-10965
▁다른데	-10966
▁되기를	-10967
▁밝히고	-10968
▁법이다	-10969
▁변화의	-10970
▁삼아야	-10971
▁선글라	-10972
▁세워야	-10973
▁속도의	-10974
▁수학이	-10975
▁실력을	-10976
▁아니냐	-10977
▁않네요	-10978
▁앞장서	-10979
▁약간의	-10980
▁어두운	-10981
▁역사가	-10982
▁역할에	-10983
▁왔는데	-10984
▁요구에	-10985
▁우려도	-10986
▁위치를	-10987
▁위험이	-10988
▁이용한	-10989
▁인기가	-10990
▁일정이	-10991
▁있다가	-10992
▁작업을	-10993
▁전류가	-10994
▁정신적	-10995
▁정치가	-10996
▁정치에	-10997
▁제도의	-10998
▁제시된	-10999
▁좋나요	-11000
▁좋은데	-11001
▁주제가	-11002
▁줄이고	-11003
▁즐거운	-11004
▁즐기는	-11005
▁지적이	-11006
▁차별적	-11007
▁책임도	-11008
▁최순실	-11009
▁토대로	-11010
▁판결을	-11011
▁패러다	-11012
▁평화적	-11013
▁해결될	-11014
▁형태의	-11015
▁힘들고	-11016
▁교수님이	-11017
▁나라에서	-11018
▁넘어가야	-11019
▁노력해야	-11020
▁대통령에	-11021
▁되잖아요	-11022
▁마련하는	-11023
▁만들어서	-11024
▁벌어지는	-11025
▁생명과학	-11026
▁시작해야	-11027
▁아이디어	-11028
▁오늘부터	-11029
▁요구하고	-11030
▁위원장의	-11031
▁위협하는	-11032
▁이야기다	-11033
▁최근에는	-11034
▁표현하는	-11035
▁피해자의	-11036
▁하잖아요	-11037
▁한국당이	-11038
▁효율적인	-11039
▁말씀드리고	-11040
▁본격적으로	-11041
▁스트레스를	-11042
▁일각에서는	-11043
▁땜	-11044
▁섣	-11045
▁썰	-11046
▁흙	-11047
거래	-11048
기간	-11049
놓을	-11050
됐고	-11051
됐던	-11052
라기	-11053
문은	-11054
미로	-11055
반응	-11056
상도	-11057
설을	-11058
이긴	-11059
질에	-11060
합을	-11061
▁가동	-11062
▁간절	-11063
▁것의	-11064
▁겪은	-11065
▁공백	-11066
▁공을	-11067
▁국토	-11068
▁널리	-11069
▁농민	-11070
▁놓인	-11071
▁동양	-11072
▁되레	-11073
▁매력	-11074
▁문의	-11075
▁배달	-11076
▁번호	-11077
▁변별	-11078
▁불씨	-11079
▁비싸	-11080
▁설사	-11081
▁소멸	-11082
▁소화	-11083
▁수급	-11084
▁슬프	-11085
▁쓰신	-11086
▁쓸데	-11087
▁아노	-11088
▁약화	-11089
▁에어	-11090
▁역학	-11091
▁연골	-11092
▁연봉	-11093
▁오빠	-11094
▁잘해	-11095
▁재원	-11096
▁저출	-11097
▁중산	-11098
▁직전	-11099
▁쪽이	-11100
▁취향	-11101
▁편견	-11102
▁하긴	-11103
▁하든	-11104
▁확충	-11105
▁활발	-11106
까지만	-11107
됐지만	-11108
려고요	-11109
였다는	-11110
용으로	-11111
졌지만	-11112
하기를	-11113
해서요	-11114
했네요	-11115
했으나	-11116
▁가설을	-11117
▁가습기	-11118
▁강의도	-11119
▁강의와	-11120
▁결정에	-11121
▁공약을	-11122
▁관절염	-11123
▁금리를	-11124
▁끝나는	-11125
▁노력은	-11126
▁느끼지	-11127
▁당사자	-11128
▁동의를	-11129
▁되겠다	-11130
▁되느냐	-11131
▁따르는	-11132
▁뜻인지	-11133
▁맛있는	-11134
▁모순이	-11135
▁바른정	-11136
▁변하는	-11137
▁보도록	-11138
▁보여요	-11139
▁비판이	-11140
▁상담을	-11141
▁압박을	-11142
▁어렸을	-11143
▁엄정한	-11144
▁엉뚱한	-11145
▁연구는	-11146
▁운동은	-11147
▁이동을	-11148
▁인프라	-11149
▁잇따라	-11150
▁자체에	-11151
▁조직의	-11152
▁좋다는	-11153
▁중인데	-11154
▁찾아볼	-11155
▁첨부한	-11156
▁타이밍	-11157
▁함께한	-11158
▁해결에	-11159
▁해설이	-11160
▁행위다	-11161
▁현실과	-11162
▁혹시나	-11163
▁후보를	-11164
▁훈련을	-11165
▁힘으로	-11166
으니까요	-11167
했는데요	-11168
▁돌아가는	-11169
▁따름이다	-11170
▁바람직한	-11171
▁복습하는	-11172
▁부분들이	-11173
▁상호작용	-11174
▁생각으로	-11175
▁선택하는	-11176
▁어디에도	-11177
▁여러분의	-11178
▁올라오는	-11179
▁웬만하면	-11180
▁이어졌다	-11181
▁작용하는	-11182
▁정리하는	-11183
▁정치권의	-11184
▁줄어드는	-11185
▁지원하는	-11186
▁학교마다	-11187
▁한국당의	-11188
▁확진자가	-11189
▁활용하는	-11190
▁바람직하다	-11191
▁바로잡아야	-11192
▁생각하시면	-11193
▁시험장에서	-11194
▁어제오늘의	-11195
▁추천합니다	-11196
▁됩	-11197
▁린	-11198
가짐	-11199
걸요	-11200
과도	-11201
나서	-11202
나지	-11203
니깐	-11204
로만	-11205
르다	-11206
받은	-11207
습을	-11208
시죠	-11209
심은	-11210
에겐	-11211
위도	-11212
재판	-11213
터리	-11214
하길	-11215
▁값을	-11216
▁것일	-11217
▁공기	-11218
▁공단	-11219
▁균형	-11220
▁극단	-11221
▁금할	-11222
▁기성	-11223
▁남긴	-11224
▁내수	-11225
▁노예	-11226
▁능동	-11227
▁대구	-11228
▁덕에	-11229
▁돌고	-11230
▁돌이	-11231
▁뜻은	-11232
▁무더	-11233
▁무섭	-11234
▁문득	-11235
▁뭐뭐	-11236
▁반수	-11237
▁버린	-11238
▁변명	-11239
▁보듯	-11240
▁봉사	-11241
▁사각	-11242
▁사찰	-11243
▁살인	-11244
▁상반	-11245
▁새겨	-11246
▁선출	-11247
▁설립	-11248
▁소중	-11249
▁술을	-11250
▁숨어	-11251
▁쓰러	-11252
▁안의	-11253
▁어미	-11254
▁여럿	-11255
▁연역	-11256
▁연연	-11257
▁용인	-11258
▁운운	-11259
▁인위	-11260
▁읽지	-11261
▁있음	-11262
▁잘할	-11263
▁저질	-11264
▁제곱	-11265
▁종부	-11266
▁좋겠	-11267
▁준수	-11268
▁중독	-11269
▁즐겨	-11270
▁책무	-11271
▁철도	-11272
▁초월	-11273
▁크지	-11274
▁탈퇴	-11275
▁파견	-11276
▁풀릴	-11277
▁학평	-11278
▁형광	-11279
▁형편	-11280
가면서	-11281
나가는	-11282
나라는	-11283
드려도	-11284
었는지	-11285
하겠다	-11286
했으니	-11287
▁가까이	-11288
▁가라앉	-11289
▁간단히	-11290
▁게이트	-11291
▁계획은	-11292
▁고려해	-11293
▁교훈을	-11294
▁구분할	-11295
▁국회에	-11296
▁그녀의	-11297
▁기사를	-11298
▁기업에	-11299
▁내놓고	-11300
▁높이고	-11301
▁느끼게	-11302
▁답지를	-11303
▁당분간	-11304
▁됐다는	-11305
▁떨어뜨	-11306
▁목적을	-11307
▁물리를	-11308
▁벗어난	-11309
▁보상이	-11310
▁복습할	-11311
▁부모와	-11312
▁성장을	-11313
▁소비를	-11314
▁속도와	-11315
▁심리적	-11316
▁악순환	-11317
▁않았기	-11318
▁알겠지	-11319
▁애매한	-11320
▁언제쯤	-11321
▁엄마의	-11322
▁여부는	-11323
▁영화가	-11324
▁오케이	-11325
▁온도가	-11326
▁외에는	-11327
▁위기가	-11328
▁위치가	-11329
▁의문을	-11330
▁의원의	-11331
▁이루어	-11332
▁이어서	-11333
▁인생을	-11334
▁있거든	-11335
▁자연현	-11336
▁장점이	-11337
▁재분배	-11338
▁저에게	-11339
▁좋지만	-11340
▁주체가	-11341
▁중대한	-11342
▁지역이	-11343
▁진짜로	-11344
▁질문도	-11345
▁질서를	-11346
▁체제를	-11347
▁충돌이	-11348
▁피하기	-11349
▁학생은	-11350
▁합시다	-11351
▁핸드폰	-11352
▁현실의	-11353
▁현안에	-11354
봤습니다	-11355
웠습니다	-11356
자들에게	-11357
▁거거든요	-11358
▁고려해야	-11359
▁고전시가	-11360
▁구분해야	-11361
▁그야말로	-11362
▁나오는지	-11363
▁나와있는	-11364
▁만들었다	-11365
▁못한다면	-11366
▁물론이고	-11367
▁바랄게요	-11368
▁반복해서	-11369
▁방법이다	-11370
▁방역수칙	-11371
▁사라지고	-11372
▁선생님도	-11373
▁설명하고	-11374
▁아프리카	-11375
▁없잖아요	-11376
▁여름방학	-11377
▁이해하지	-11378
▁있었는지	-11379
▁절실하다	-11380
▁제공하는	-11381
▁직접적인	-11382
▁파악하고	-11383
▁해보세요	-11384
▁흥미로운	-11385
▁객관적으로	-11386
▁아니더라도	-11387
▁전반적으로	-11388
▁솜	-11389
감도	-11390
고도	-11391
둬야	-11392
든가	-11393
랜드	-11394
률은	-11395
모로	-11396
산을	-11397
서도	-11398
숙한	-11399
연의	-11400
열을	-11401
운다	-11402
운동	-11403
이의	-11404
정치	-11405
지리	-11406
차는	-11407
치란	-11408
풍이	-11409
하냐	-11410
▁가뭄	-11411
▁가신	-11412
▁거로	-11413
▁거주	-11414
▁결의	-11415
▁고사	-11416
▁과장	-11417
▁교대	-11418
▁구간	-11419
▁기가	-11420
▁깎아	-11421
▁나간	-11422
▁나눈	-11423
▁내몰	-11424
▁노년	-11425
▁대리	-11426
▁독도	-11427
▁동화	-11428
▁되냐	-11429
▁두드	-11430
▁또래	-11431
▁로켓	-11432
▁맞이	-11433
▁몰래	-11434
▁뭐다	-11435
▁미흡	-11436
▁민영	-11437
▁보낼	-11438
▁보복	-11439
▁부재	-11440
▁비춰	-11441
▁뽑아	-11442
▁사료	-11443
▁설계	-11444
▁소환	-11445
▁시가	-11446
▁시한	-11447
▁심사	-11448
▁안철	-11449
▁야구	-11450
▁억지	-11451
▁인용	-11452
▁재생	-11453
▁저게	-11454
▁전력	-11455
▁전후	-11456
▁제국	-11457
▁좋죠	-11458
▁죄를	-11459
▁주위	-11460
▁증폭	-11461
▁짓는	-11462
▁짚고	-11463
▁측의	-11464
▁침체	-11465
▁컸다	-11466
▁키우	-11467
▁통치	-11468
▁특성	-11469
▁표출	-11470
▁푼다	-11471
▁풍부	-11472
▁하려	-11473
▁해를	-11474
▁해방	-11475
▁해줄	-11476
▁획득	-11477
느냐는	-11478
달라는	-11479
되어서	-11480
셨네요	-11481
스러울	-11482
시고요	-11483
음으로	-11484
자들도	-11485
주의가	-11486
치면서	-11487
...!	-11488
▁갈등과	-11489
▁같기도	-11490
▁거대한	-11491
▁과목에	-11492
▁구성이	-11493
▁국가는	-11494
▁그러는	-11495
▁긍정적	-11496
▁기대해	-11497
▁기업을	-11498
▁내놓지	-11499
▁내려가	-11500
▁노트에	-11501
▁다르고	-11502
▁당국이	-11503
▁독특한	-11504
▁되잖아	-11505
▁드디어	-11506
▁들린다	-11507
▁등에서	-11508
▁따라오	-11509
▁린치란	-11510
▁몫이다	-11511
▁문제풀	-11512
▁물건을	-11513
▁미치지	-11514
▁발전을	-11515
▁방법에	-11516
▁백신을	-11517
▁벌이고	-11518
▁벌이나	-11519
▁비율로	-11520
▁빨간색	-11521
▁새벽에	-11522
▁시대적	-11523
▁시장에	-11524
▁시절의	-11525
▁실수로	-11526
▁싫어서	-11527
▁아노미	-11528
▁안정을	-11529
▁앉아서	-11530
▁올라갈	-11531
▁우리도	-11532
▁우선순	-11533
▁원리를	-11534
▁유익한	-11535
▁의원이	-11536
▁이러면	-11537
▁이해는	-11538
▁익숙한	-11539
▁인물의	-11540
▁인사가	-11541
▁일탈을	-11542
▁전제가	-11543
▁중심의	-11544
▁지위가	-11545
▁총리의	-11546
▁커진다	-11547
▁태어나	-11548
▁풀리는	-11549
▁하라는	-11550
▁해결의	-11551
▁활용해	-11552
▁후에는	-11553
▁휴대전	-11554
되었다는	-11555
▁감소하는	-11556
▁고등학생	-11557
▁공부해서	-11558
▁기반으로	-11559
▁남편에게	-11560
▁노동자가	-11561
▁동아시아	-11562
▁들으려고	-11563
▁물론이다	-11564
▁뭐냐하면	-11565
▁부정하는	-11566
▁사관학교	-11567
▁신속하게	-11568
▁어느정도	-11569
▁없어서요	-11570
▁여기저기	-11571
▁우려되는	-11572
▁의구심을	-11573
▁이해해도	-11574
▁적응하여	-11575
▁지금처럼	-11576
▁진행되는	-11577
▁처음이다	-11578
▁친절하게	-11579
▁통합되어	-11580
▁트럼프가	-11581
▁페이스북	-11582
▁필요성을	-11583
▁하거든요	-11584
▁형국이다	-11585
하기는커녕	-11586
▁강의에서는	-11587
▁같더라고요	-11588
▁많더라고요	-11589
▁모의고사는	-11590
▁무엇보다도	-11591
▁커리큘럼을	-11592
▁해보겠습니다	-11593
▁덩	-11594
▁뭡	-11595
로울	-11596
반장	-11597
부도	-11598
사도	-11599
산의	-11600
서에	-11601
셨을	-11602
유럽	-11603
일으	-11604
제로	-11605
질과	-11606
치한	-11607
침에	-11608
태가	-11609
판이	-11610
▁개학	-11611
▁공대	-11612
▁귀족	-11613
▁나요	-11614
▁너와	-11615
▁늘리	-11616
▁데도	-11617
▁도중	-11618
▁렌즈	-11619
▁맛있	-11620
▁면죄	-11621
▁무용	-11622
▁무지	-11623
▁방북	-11624
▁병이	-11625
▁보강	-11626
▁보건	-11627
▁복합	-11628
▁본래	-11629
▁부과	-11630
▁부등	-11631
▁부조	-11632
▁부호	-11633
▁분량	-11634
▁생윤	-11635
▁선고	-11636
▁성균	-11637
▁손이	-11638
▁스크	-11639
▁시공	-11640
▁시중	-11641
▁써먹	-11642
▁아르	-11643
▁악영	-11644
▁안이	-11645
▁알죠	-11646
▁앞둔	-11647
▁애플	-11648
▁얻지	-11649
▁요양	-11650
▁유흥	-11651
▁이별	-11652
▁인천	-11653
▁장학	-11654
▁저렴	-11655
▁적대	-11656
▁조국	-11657
▁지극	-11658
▁쪼개	-11659
▁차기	-11660
▁추적	-11661
▁키울	-11662
▁퇴행	-11663
▁학년	-11664
▁학력	-11665
▁한강	-11666
▁함은	-11667
▁해수	-11668
▁화재	-11669
놨어요	-11670
다고요	-11671
렸다는	-11672
생활을	-11673
어지면	-11674
인지도	-11675
해져서	-11676
▁강조한	-11677
▁갖는다	-11678
▁개선이	-11679
▁거라는	-11680
▁거라면	-11681
▁결론이	-11682
▁경기도	-11683
▁계획이	-11684
▁공식이	-11685
▁구멍이	-11686
▁규모가	-11687
▁근거는	-11688
▁기관이	-11689
▁기업과	-11690
▁긴장을	-11691
▁나누는	-11692
▁늘리고	-11693
▁대다수	-11694
▁되겠지	-11695
▁되면서	-11696
▁맞추는	-11697
▁무리한	-11698
▁문제인	-11699
▁뭡니까	-11700
▁바꿔서	-11701
▁벗어날	-11702
▁병원을	-11703
▁보시는	-11704
▁본다면	-11705
▁부당한	-11706
▁부반장	-11707
▁불만을	-11708
▁비중을	-11709
▁선지에	-11710
▁성적은	-11711
▁소통을	-11712
▁속으로	-11713
▁수업은	-11714
▁수출이	-11715
▁순서를	-11716
▁시급한	-11717
▁싶다면	-11718
▁어느새	-11719
▁여유가	-11720
▁연구가	-11721
▁영역을	-11722
▁완벽히	-11723
▁왔어요	-11724
▁용납할	-11725
▁의무를	-11726
▁이루는	-11727
▁이름은	-11728
▁인권을	-11729
▁있구요	-11730
▁자녀의	-11731
▁잘못한	-11732
▁저마다	-11733
▁적극적	-11734
▁적용할	-11735
▁정당이	-11736
▁제시한	-11737
▁제한이	-11738
▁조치는	-11739
▁주변국	-11740
▁준비할	-11741
▁지방자	-11742
▁지키고	-11743
▁최소화	-11744
▁평가할	-11745
▁풀려고	-11746
▁해마다	-11747
▁행동은	-11748
▁형광펜	-11749
▁활성화	-11750
▁후보는	-11751
하시는지	-11752
▁가속도의	-11753
▁경제정책	-11754
▁공동체의	-11755
▁국민들은	-11756
▁국정원은	-11757
▁권력기관	-11758
▁기출분석	-11759
▁깔끔하게	-11760
▁내부에서	-11761
▁내용이다	-11762
▁넘어가면	-11763
▁노베이스	-11764
▁마음가짐	-11765
▁마음대로	-11766
▁모릅니다	-11767
▁반영하는	-11768
▁봐주세요	-11769
▁부작용을	-11770
▁부족하다	-11771
▁불과하다	-11772
▁불러일으	-11773
▁사진처럼	-11774
▁수리논술	-11775
▁순간이다	-11776
▁시스템이	-11777
▁시작하면	-11778
▁시점이다	-11779
▁심각하게	-11780
▁아니고요	-11781
▁아니잖아	-11782
▁알았어요	-11783
▁어렵네요	-11784
▁여기에는	-11785
▁요구된다	-11786
▁움직이지	-11787
▁이뤄져야	-11788
▁인정하는	-11789
▁있습니까	-11790
▁적당해서	-11791
▁전반적인	-11792
▁피해자가	-11793
▁한반도의	-11794
▁행동으로	-11795
▁형식으로	-11796
▁느낌이에요	-11797
▁대한민국의	-11798
▁때문인가요	-11799
▁시민들에게	-11800
▁여러분들은	-11801
▁자유한국당	-11802
▁학생들에게	-11803
▁부반장인데요	-11804
▁뵙	-11805
고루	-11806
공을	-11807
공학	-11808
권에	-11809
기기	-11810
낱이	-11811
두는	-11812
라니	-11813
라이	-11814
란드	-11815
망을	-11816
묘한	-11817
뮤니	-11818
분의	-11819
산은	-11820
실로	-11821
아노	-11822
였고	-11823
자나	-11824
작을	-11825
쪽에	-11826
프트	-11827
하듯	-11828
▁가늠	-11829
▁가수	-11830
▁갖춘	-11831
▁거세	-11832
▁고급	-11833
▁고런	-11834
▁공산	-11835
▁공화	-11836
▁구현	-11837
▁기상	-11838
▁기조	-11839
▁깔려	-11840
▁날은	-11841
▁내보	-11842
▁넘쳐	-11843
▁늦지	-11844
▁단축	-11845
▁되길	-11846
▁되새	-11847
▁뒤처	-11848
▁떠넘	-11849
▁떠밀	-11850
▁똑똑	-11851
▁만성	-11852
▁말아	-11853
▁맛이	-11854
▁맡겨	-11855
▁미치	-11856
▁방위	-11857
▁배타	-11858
▁법관	-11859
▁부총	-11860
▁비단	-11861
▁삶과	-11862
▁상업	-11863
▁석유	-11864
▁세입	-11865
▁속력	-11866
▁수소	-11867
▁스케	-11868
▁실내	-11869
▁실적	-11870
▁아기	-11871
▁영웅	-11872
▁예비	-11873
▁요걸	-11874
▁용어	-11875
▁원리	-11876
▁원소	-11877
▁원활	-11878
▁월간	-11879
▁위헌	-11880
▁유대	-11881
▁은퇴	-11882
▁익히	-11883
▁인근	-11884
▁인원	-11885
▁있겠	-11886
▁잡혀	-11887
▁장르	-11888
▁재단	-11889
▁저걸	-11890
▁전수	-11891
▁접할	-11892
▁제법	-11893
▁조율	-11894
▁주한	-11895
▁지났	-11896
▁지목	-11897
▁지상	-11898
▁집회	-11899
▁찍는	-11900
▁총체	-11901
▁치면	-11902
▁침략	-11903
▁한결	-11904
▁한창	-11905
▁해킹	-11906
▁회원	-11907
보다도	-11908
보면서	-11909
어가고	-11910
이면서	-11911
▁가벼운	-11912
▁가족과	-11913
▁가족을	-11914
▁가지다	-11915
▁같았다	-11916
▁개념에	-11917
▁거리두	-11918
▁골고루	-11919
▁관리가	-11920
▁국가를	-11921
▁그랬어	-11922
▁기억에	-11923
▁기존에	-11924
▁꼴이다	-11925
▁나타났	-11926
▁남았다	-11927
▁낱낱이	-11928
▁논리가	-11929
▁높아지	-11930
▁눈물이	-11931
▁늘리는	-11932
▁대목이	-11933
▁마당에	-11934
▁못하다	-11935
▁물어볼	-11936
▁바람을	-11937
▁방침을	-11938
▁법안을	-11939
▁변수가	-11940
▁부러워	-11941
▁북한도	-11942
▁불행한	-11943
▁사건에	-11944
▁사고의	-11945
▁살아야	-11946
▁상당한	-11947
▁상대의	-11948
▁생기고	-11949
▁성공을	-11950
▁성과가	-11951
▁성폭력	-11952
▁세계가	-11953
▁습관이	-11954
▁시기는	-11955
▁시작을	-11956
▁실험을	-11957
▁알리는	-11958
▁어떨까	-11959
▁에어컨	-11960
▁여당은	-11961
▁여론의	-11962
▁여성은	-11963
▁완벽한	-11964
▁외우면	-11965
▁위해선	-11966
▁의혹의	-11967
▁일들이	-11968
▁일본과	-11969
▁일부는	-11970
▁있겠다	-11971
▁자초한	-11972
▁작가가	-11973
▁잡았다	-11974
▁장시간	-11975
▁저절로	-11976
▁저처럼	-11977
▁정리할	-11978
▁준비한	-11979
▁지극히	-11980
▁진도를	-11981
▁짐작할	-11982
▁집값이	-11983
▁친구도	-11984
▁칼럼이	-11985
▁커뮤니	-11986
▁케이스	-11987
▁특성을	-11988
▁풀이도	-11989
▁피아노	-11990
▁하라고	-11991
▁하반기	-11992
▁학생의	-11993
▁학원에	-11994
▁해봐야	-11995
▁해서요	-11996
▁행태에	-11997
▁형태가	-11998
▁후보의	-11999
었는데요	-12000
▁공부하다	-12001
▁국민들이	-12002
▁궁금증이	-12003
▁그러다가	-12004
▁기말고사	-12005
▁눈부셨다	-12006
▁느낌으로	-12007
▁다양하게	-12008
▁대표하는	-12009
▁되는데요	-12010
▁마스크를	-12011
▁맞는다고	-12012
▁목소리는	-12013
▁목소리도	-12014
▁무리하게	-12015
▁무엇일까	-12016
▁문제점을	-12017
▁미국에서	-12018
▁벌어졌다	-12019
▁본격적인	-12020
▁분석하는	-12021
▁비공식적	-12022
▁수능특강	-12023
▁수준으로	-12024
▁시작됐다	-12025
▁시점에서	-12026
▁신중하게	-12027
▁심각하다	-12028
▁아닐까요	-12029
▁아직까지	-12030
▁안정적인	-12031
▁않았나요	-12032
▁의미한다	-12033
▁있다라고	-12034
▁자유로운	-12035
▁정보기관	-12036
▁주인공은	-12037
▁주장한다	-12038
▁집중해서	-12039
▁충분하다	-12040
▁가능할까요	-12041
▁공개적으로	-12042
▁궁금하네요	-12043
▁받아들이고	-12044
▁생각했어요	-12045
▁생겼습니다	-12046
▁세계적으로	-12047
▁알려주시면	-12048
▁여러분들의	-12049
▁합법적으로	-12050
▁감사드립니다	-12051
▁말씀드리겠습니다	-12052
▁흰	-12053
▁힐	-12054
가도	-12055
각각	-12056
국에	-12057
난히	-12058
다란	-12059
되자	-12060
문의	-12061
미니	-12062
보험	-12063
부여	-12064
사이	-12065
소설	-12066
시장	-12067
시켰	-12068
었기	-12069
으러	-12070
이게	-12071
자리	-12072
작이	-12073
정부	-12074
주와	-12075
주택	-12076
직을	-12077
패를	-12078
평균	-12079
포가	-12080
표는	-12081
혹한	-12082
화한	-12083
▁가릴	-12084
▁가중	-12085
▁가채	-12086
▁감을	-12087
▁갔을	-12088
▁거절	-12089
▁교양	-12090
▁극대	-12091
▁깜짝	-12092
▁끊어	-12093
▁끝낼	-12094
▁내각	-12095
▁내기	-12096
▁높을	-12097
▁높일	-12098
▁높지	-12099
▁다룬	-12100
▁단절	-12101
▁달고	-12102
▁동시	-12103
▁디자	-12104
▁뜬금	-12105
▁막고	-12106
▁맞출	-12107
▁몸의	-12108
▁몽골	-12109
▁무분	-12110
▁무산	-12111
▁문턱	-12112
▁밝은	-12113
▁배출	-12114
▁백분	-12115
▁부지	-12116
▁부진	-12117
▁사면	-12118
▁소용	-12119
▁소위	-12120
▁악용	-12121
▁애가	-12122
▁어법	-12123
▁우롱	-12124
▁원천	-12125
▁유력	-12126
▁유학	-12127
▁이내	-12128
▁이룰	-12129
▁이쁘	-12130
▁일쑤	-12131
▁장악	-12132
▁저만	-12133
▁조롱	-12134
▁주면	-12135
▁주무	-12136
▁직관	-12137
▁진영	-12138
▁창업	-12139
▁체중	-12140
▁추경	-12141
▁치환	-12142
▁타는	-12143
▁틀릴	-12144
▁퍼센	-12145
▁편은	-12146
▁평창	-12147
▁한약	-12148
▁한층	-12149
▁항의	-12150
▁핵무	-12151
▁헌신	-12152
▁홍삼	-12153
▁확통	-12154
방식을	-12155
속으로	-12156
시킨다	-12157
였는지	-12158
웠어요	-12159
주의의	-12160
행하는	-12161
형으로	-12162
회에서	-12163
▁가세요	-12164
▁검증을	-12165
▁결론은	-12166
▁경찰에	-12167
▁고쳐야	-12168
▁과거와	-12169
▁과제가	-12170
▁그런가	-12171
▁기다려	-12172
▁꼬리를	-12173
▁내일은	-12174
▁논란은	-12175
▁놀라운	-12176
▁다른지	-12177
▁다시는	-12178
▁단어의	-12179
▁독서는	-12180
▁동그라	-12181
▁되어있	-12182
▁됩니까	-12183
▁마땅히	-12184
▁마련에	-12185
▁모두의	-12186
▁몰랐던	-12187
▁물리는	-12188
▁민주적	-12189
▁바꾸고	-12190
▁바뀌고	-12191
▁바닥에	-12192
▁반응은	-12193
▁밝히는	-12194
▁범죄를	-12195
▁법원의	-12196
▁변호사	-12197
▁보기에	-12198
▁보다가	-12199
▁부모가	-12200
▁비서실	-12201
▁비행기	-12202
▁빡세게	-12203
▁사진과	-12204
▁생각만	-12205
▁선거가	-12206
▁수사로	-12207
▁시점이	-12208
▁아마존	-12209
▁않다면	-12210
▁어때요	-12211
▁어른이	-12212
▁언급이	-12213
▁연관이	-12214
▁연예인	-12215
▁오르면	-12216
▁운명을	-12217
▁이들도	-12218
▁이후로	-12219
▁인간과	-12220
▁인상은	-12221
▁인식은	-12222
▁작가는	-12223
▁장면을	-12224
▁전략적	-12225
▁전에는	-12226
▁접하는	-12227
▁정상화	-12228
▁정책과	-12229
▁조용히	-12230
▁줄줄이	-12231
▁중학생	-12232
▁지구를	-12233
▁지난달	-12234
▁찾아가	-12235
▁커지는	-12236
▁컨디션	-12237
▁파동의	-12238
▁파악을	-12239
▁편이라	-12240
▁하던데	-12241
▁합리적	-12242
▁했나요	-12243
▁했다면	-12244
▁협력을	-12245
▁화자의	-12246
▁확인한	-12247
▁환경에	-12248
▁회사를	-12249
▁회장의	-12250
▁효과는	-12251
왔습니다	-12252
으로서의	-12253
▁고민해야	-12254
▁공부해도	-12255
▁관계없이	-12256
▁교과서를	-12257
▁국내에서	-12258
▁규정하는	-12259
▁나왔는데	-12260
▁나타났다	-12261
▁떨어졌다	-12262
▁모두에게	-12263
▁모습으로	-12264
▁바뀌었다	-12265
▁부작용이	-12266
▁부적절한	-12267
▁선생님과	-12268
▁선수들의	-12269
▁안되는지	-12270
▁않아서요	-12271
▁앞으로는	-12272
▁움직임을	-12273
▁위원장이	-12274
▁의원들은	-12275
▁의원들이	-12276
▁이미지를	-12277
▁일어나고	-12278
▁일어났다	-12279
▁일자리는	-12280
▁입장이다	-12281
▁저소득층	-12282
▁정리해서	-12283
▁주인공이	-12284
▁증가하고	-12285
▁증가하는	-12286
▁포함되어	-12287
▁해석해야	-12288
▁해외에서	-12289
▁공부하면서	-12290
▁그렇습니다	-12291
▁노동자들이	-12292
▁들어갑니다	-12293
▁마스터님도	-12294
▁받았습니다	-12295
▁있으니까요	-12296
▁자발적으로	-12297
▁존재한다는	-12298
▁프로그램이	-12299
▁하셨습니다	-12300
▁한편으로는	-12301
▁붓	-12302
▁셀	-12303
▁쟤	-12304
▁젤	-12305
▁컷	-12306
값을	-12307
개가	-12308
나갈	-12309
달아	-12310
도도	-12311
리던	-12312
리스	-12313
리티	-12314
보기	-12315
상한	-12316
서요	-12317
였을	-12318
움은	-12319
익이	-12320
일로	-12321
임은	-12322
주민	-12323
터를	-12324
테롤	-12325
톨릭	-12326
하를	-12327
학습	-12328
후의	-12329
▁가급	-12330
▁간략	-12331
▁감찰	-12332
▁갖다	-12333
▁개설	-12334
▁걸림	-12335
▁검정	-12336
▁과반	-12337
▁과시	-12338
▁관건	-12339
▁관여	-12340
▁구글	-12341
▁군의	-12342
▁꼴이	-12343
▁누릴	-12344
▁누적	-12345
▁달이	-12346
▁더는	-12347
▁독재	-12348
▁되살	-12349
▁듣게	-12350
▁맞춤	-12351
▁매주	-12352
▁먹지	-12353
▁모바	-12354
▁목을	-12355
▁민망	-12356
▁법에	-12357
▁보안	-12358
▁분은	-12359
▁분자	-12360
▁불투	-12361
▁비대	-12362
▁산불	-12363
▁상임	-12364
▁서두	-12365
▁쇼핑	-12366
▁승리	-12367
▁실업	-12368
▁야권	-12369
▁어딘	-12370
▁에스	-12371
▁연고	-12372
▁연루	-12373
▁오픈	-12374
▁옳지	-12375
▁웃음	-12376
▁원치	-12377
▁자퇴	-12378
▁적을	-12379
▁전압	-12380
▁존엄	-12381
▁지은	-12382
▁진압	-12383
▁착취	-12384
▁최적	-12385
▁추측	-12386
▁탄탄	-12387
▁퇴진	-12388
▁틀림	-12389
▁포장	-12390
▁포털	-12391
▁폭로	-12392
▁호칭	-12393
▁후기	-12394
교육과	-12395
되지만	-12396
들과의	-12397
들었다	-12398
린다는	-12399
시켜야	-12400
으라는	-12401
자라는	-12402
책으로	-12403
하잖아	-12404
▁가격을	-12405
▁가깝다	-12406
▁가지를	-12407
▁가채점	-12408
▁강제로	-12409
▁갖추고	-12410
▁거구나	-12411
▁것임을	-12412
▁고려대	-12413
▁과제는	-12414
▁교사가	-12415
▁구조는	-12416
▁그러기	-12417
▁긴장이	-12418
▁나이에	-12419
▁누구를	-12420
▁다르기	-12421
▁담았다	-12422
▁당뇨병	-12423
▁대놓고	-12424
▁대응을	-12425
▁대중의	-12426
▁뒤에도	-12427
▁뒤에서	-12428
▁들어있	-12429
▁떠나는	-12430
▁말처럼	-12431
▁멀어질	-12432
▁문자가	-12433
▁문화재	-12434
▁물었다	-12435
▁미안해	-12436
▁믿는다	-12437
▁반대를	-12438
▁반면에	-12439
▁발표를	-12440
▁법원은	-12441
▁병원에	-12442
▁보네요	-12443
▁부분의	-12444
▁분노를	-12445
▁불신이	-12446
▁비난을	-12447
▁비해서	-12448
▁빼고는	-12449
▁사무총	-12450
▁사실과	-12451
▁사실로	-12452
▁사정은	-12453
▁사회탐	-12454
▁생명이	-12455
▁성균관	-12456
▁소홀히	-12457
▁시장은	-12458
▁애들은	-12459
▁얼어붙	-12460
▁엄중한	-12461
▁없겠죠	-12462
▁여야의	-12463
▁역할은	-12464
▁영어가	-12465
▁우크라	-12466
▁위기는	-12467
▁유지할	-12468
▁의심이	-12469
▁이거에	-12470
▁이만큼	-12471
▁인물을	-12472
▁인사는	-12473
▁있기를	-12474
▁작가의	-12475
▁재밌는	-12476
▁재판을	-12477
▁저자의	-12478
▁전반에	-12479
▁주간지	-12480
▁주말에	-12481
▁주한미	-12482
▁증거가	-12483
▁지구가	-12484
▁지나갔	-12485
▁지나친	-12486
▁지역은	-12487
▁진정성	-12488
▁진행이	-12489
▁집단은	-12490
▁책으로	-12491
▁최저가	-12492
▁콜레스	-12493
▁토요일	-12494
▁통하지	-12495
▁페미니	-12496
▁평화의	-12497
▁폭력이	-12498
▁풀었던	-12499
▁플러스	-12500
▁한국어	-12501
▁해법은	-12502
▁행복이	-12503
▁환경이	-12504
▁활용할	-12505
▁회사가	-12506
▁회사의	-12507
▁훌륭한	-12508
인들에게	-12509
▁가르치는	-12510
▁것일까요	-12511
▁고려하면	-12512
▁고민하는	-12513
▁공통점이	-12514
▁그러는데	-12515
▁노력하는	-12516
▁대기업의	-12517
▁되거든요	-12518
▁되었어요	-12519
▁드러내는	-12520
▁뛰어넘는	-12521
▁말입니다	-12522
▁명확하지	-12523
▁못했다는	-12524
▁못했어요	-12525
▁부분들을	-12526
▁불평등을	-12527
▁비핵화를	-12528
▁사라지는	-12529
▁살펴보면	-12530
▁시대착오	-12531
▁얘기하면	-12532
▁없었어요	-12533
▁일본에서	-12534
▁있어서는	-12535
▁있으므로	-12536
▁적용되는	-12537
▁적용하는	-12538
▁정체성을	-12539
▁좋았어요	-12540
▁주도하는	-12541
▁주민들은	-12542
▁줄어들고	-12543
▁총선에서	-12544
▁추구하는	-12545
▁트럼프는	-12546
▁하셨어요	-12547
▁확인됐다	-12548
▁힘드네요	-12549
▁구분하나요	-12550
▁국제사회가	-12551
▁노동자들의	-12552
▁못하겠어요	-12553
▁생각하면서	-12554
▁우리나라가	-12555
▁우크라이나	-12556
▁이해했는데	-12557
▁추가적으로	-12558
▁콜레스테롤	-12559
▁여러분들한테	-12560
▁깃	-12561
▁춤	-12562
▁흠	-12563
감의	-12564
걸음	-12565
공직	-12566
기자	-12567
대책	-12568
령이	-12569
비례	-12570
살을	-12571
세로	-12572
세와	-12573
스에	-12574
연을	-12575
졌기	-12576
파는	-12577
화폐	-12578
▁가공	-12579
▁감싸	-12580
▁갖추	-12581
▁건네	-12582
▁경북	-12583
▁고르	-12584
▁고수	-12585
▁곳도	-12586
▁공평	-12587
▁글에	-12588
▁대명	-12589
▁데려	-12590
▁되실	-12591
▁떠받	-12592
▁말의	-12593
▁먹기	-12594
▁모방	-12595
▁무렵	-12596
▁반짝	-12597
▁백화	-12598
▁법의	-12599
▁변환	-12600
▁보실	-12601
▁복원	-12602
▁볼까	-12603
▁불구	-12604
▁비문	-12605
▁사측	-12606
▁살려	-12607
▁삼는	-12608
▁성사	-12609
▁소상	-12610
▁속출	-12611
▁스페	-12612
▁스피	-12613
▁신체	-12614
▁실이	-12615
▁쓰일	-12616
▁않죠	-12617
▁애를	-12618
▁야기	-12619
▁양성	-12620
▁억압	-12621
▁여전	-12622
▁연주	-12623
▁요리	-12624
▁이도	-12625
▁이성	-12626
▁일차	-12627
▁일회	-12628
▁임신	-12629
▁잊을	-12630
▁작아	-12631
▁적는	-12632
▁전가	-12633
▁정착	-12634
▁주거	-12635
▁지칭	-12636
▁진료	-12637
▁책상	-12638
▁촉진	-12639
▁총기	-12640
▁추상	-12641
▁축적	-12642
▁출석	-12643
▁측근	-12644
▁커진	-12645
▁터다	-12646
▁토끼	-12647
▁특허	-12648
▁플라	-12649
▁피부	-12650
▁했지	-12651
▁호응	-12652
▁환율	-12653
▁휴가	-12654
김없이	-12655
나네요	-12656
들이는	-12657
민주연	-12658
베이터	-12659
사에서	-12660
스럽고	-12661
원들이	-12662
정이다	-12663
프트웨	-12664
해하는	-12665
▁가톨릭	-12666
▁갔어요	-12667
▁격이다	-12668
▁결정은	-12669
▁경쟁력	-12670
▁계산을	-12671
▁계약을	-12672
▁고려할	-12673
▁과감한	-12674
▁국민들	-12675
▁규정이	-12676
▁그래픽	-12677
▁그보다	-12678
▁근로자	-12679
▁급격히	-12680
▁급하게	-12681
▁기자회	-12682
▁기준에	-12683
▁나가야	-12684
▁나왔을	-12685
▁논란의	-12686
▁다해야	-12687
▁대국민	-12688
▁대책도	-12689
▁돌아온	-12690
▁되었던	-12691
▁따지는	-12692
▁말고도	-12693
▁문법은	-12694
▁민간인	-12695
▁반발이	-12696
▁반작용	-12697
▁불만이	-12698
▁비리를	-12699
▁사랑이	-12700
▁사이버	-12701
▁상위권	-12702
▁새정치	-12703
▁서울에	-12704
▁선택의	-12705
▁성격을	-12706
▁소문항	-12707
▁속력은	-12708
▁신호를	-12709
▁싶었던	-12710
▁아쉬운	-12711
▁않는데	-12712
▁앞부분	-12713
▁어쩌다	-12714
▁억지로	-12715
▁업체를	-12716
▁없어야	-12717
▁엘에이	-12718
▁역사에	-12719
▁요구가	-12720
▁위원장	-12721
▁위험에	-12722
▁유치원	-12723
▁의지와	-12724
▁이보다	-12725
▁인정을	-12726
▁일으키	-12727
▁잃었다	-12728
▁있기에	-12729
▁장관은	-12730
▁재판에	-12731
▁적당한	-12732
▁전략을	-12733
▁전환을	-12734
▁정반대	-12735
▁좋겠죠	-12736
▁줄기세	-12737
▁중간중	-12738
▁중국에	-12739
▁중심을	-12740
▁지나지	-12741
▁직장을	-12742
▁체제가	-12743
▁최초로	-12744
▁친구의	-12745
▁테니까	-12746
▁투자가	-12747
▁투자와	-12748
▁틀리면	-12749
▁판단은	-12750
▁판단한	-12751
▁푸시는	-12752
▁풀었다	-12753
▁프로필	-12754
▁하려는	-12755
▁하면은	-12756
▁학교의	-12757
▁한데요	-12758
▁합의가	-12759
▁해줘야	-12760
▁헤어져	-12761
▁현명한	-12762
▁환자의	-12763
▁활력을	-12764
▁회의록	-12765
▁회의를	-12766
▁흐름은	-12767
었거든요	-12768
▁가이드라	-12769
▁강구해야	-12770
▁개념으로	-12771
▁고위공직	-12772
▁과도하게	-12773
▁교육부는	-12774
▁나온다면	-12775
▁나중에는	-12776
▁남아있는	-12777
▁내용들이	-12778
▁내용으로	-12779
▁대비해야	-12780
▁동기부여	-12781
▁둘러싸고	-12782
▁들어주실	-12783
▁등장한다	-12784
▁말씀드린	-12785
▁말씀하셨	-12786
▁무관하게	-12787
▁부추기는	-12788
▁분명하게	-12789
▁생각이다	-12790
▁소프트웨	-12791
▁시장에서	-12792
▁싶었는데	-12793
▁의미에서	-12794
▁이야기도	-12795
▁이유이다	-12796
▁청와대에	-12797
▁커뮤니티	-12798
▁해석하면	-12799
▁해설지를	-12800
▁공부하는데	-12801
▁관련해서는	-12802
▁생각입니다	-12803
▁없었습니다	-12804
▁엘리베이터	-12805
▁의심스럽다	-12806
▁자연스러운	-12807
▁마스터님께서	-12808
▁마스터님처럼	-12809
▁새정치민주연	-12810
▁굽	-12811
▁껴	-12812
▁꾀	-12813
▁삐	-12814
▁싼	-12815
▁앙	-12816
가며	-12817
검토	-12818
겠네	-12819
공항	-12820
관과	-12821
권과	-12822
달을	-12823
던가	-12824
두면	-12825
렬한	-12826
리학	-12827
매를	-12828
먹는	-12829
무는	-12830
미디	-12831
법의	-12832
불에	-12833
사인	-12834
어준	-12835
열에	-12836
우를	-12837
자료	-12838
하의	-12839
혈압	-12840
▁거울	-12841
▁경향	-12842
▁교정	-12843
▁구제	-12844
▁권장	-12845
▁귀엽	-12846
▁그제	-12847
▁길고	-12848
▁길로	-12849
▁끼고	-12850
▁나눌	-12851
▁넣고	-12852
▁네덜	-12853
▁던진	-12854
▁돈과	-12855
▁돌리	-12856
▁동서	-12857
▁되니	-12858
▁디테	-12859
▁따지	-12860
▁때려	-12861
▁막히	-12862
▁말만	-12863
▁말투	-12864
▁맑은	-12865
▁맞나	-12866
▁명칭	-12867
▁모인	-12868
▁무한	-12869
▁문명	-12870
▁뭐지	-12871
▁미군	-12872
▁밀고	-12873
▁바보	-12874
▁배고	-12875
▁배당	-12876
▁백지	-12877
▁법은	-12878
▁법조	-12879
▁보좌	-12880
▁부자	-12881
▁불분	-12882
▁붙는	-12883
▁삼을	-12884
▁상쇄	-12885
▁상의	-12886
▁속이	-12887
▁수백	-12888
▁실무	-12889
▁실용	-12890
▁아끼	-12891
▁아동	-12892
▁열려	-12893
▁예견	-12894
▁예년	-12895
▁의결	-12896
▁의학	-12897
▁인재	-12898
▁인적	-12899
▁일곱	-12900
▁일과	-12901
▁잃는	-12902
▁자작	-12903
▁재건	-12904
▁전과	-12905
▁전성	-12906
▁전치	-12907
▁죄책	-12908
▁주된	-12909
▁지는	-12910
▁지어	-12911
▁지엽	-12912
▁지푸	-12913
▁질을	-12914
▁질이	-12915
▁집이	-12916
▁쪽은	-12917
▁쫓아	-12918
▁차고	-12919
▁차원	-12920
▁충청	-12921
▁쿠데	-12922
▁통상	-12923
▁파격	-12924
▁편성	-12925
▁포착	-12926
▁학업	-12927
▁해경	-12928
▁했죠	-12929
▁향상	-12930
▁허위	-12931
▁현황	-12932
▁혈액	-12933
▁획기	-12934
▁흉내	-12935
겁니다	-12936
렸지만	-12937
명하게	-12938
버리고	-12939
어버린	-12940
으시고	-12941
퀄리티	-12942
하기만	-12943
▁가치는	-12944
▁개념의	-12945
▁개선을	-12946
▁검찰과	-12947
▁겨냥한	-12948
▁경영학	-12949
▁경우의	-12950
▁계층이	-12951
▁공급이	-12952
▁과거사	-12953
▁관행을	-12954
▁구분을	-12955
▁구속영	-12956
▁깨닫게	-12957
▁내년엔	-12958
▁노란색	-12959
▁논리적	-12960
▁당기는	-12961
▁당시의	-12962
▁대화에	-12963
▁듯해요	-12964
▁마련할	-12965
▁만나면	-12966
▁말대로	-12967
▁머물다	-12968
▁무겁게	-12969
▁무관한	-12970
▁무시한	-12971
▁물러나	-12972
▁물리적	-12973
▁반비례	-12974
▁방식에	-12975
▁방역당	-12976
▁배제할	-12977
▁보수의	-12978
▁본연의	-12979
▁부끄러	-12980
▁불리한	-12981
▁브라질	-12982
▁비율은	-12983
▁사용을	-12984
▁사태는	-12985
▁서강대	-12986
▁성추행	-12987
▁세기가	-12988
▁소득을	-12989
▁수술을	-12990
▁수준에	-12991
▁수준은	-12992
▁스토리	-12993
▁시간만	-12994
▁시도는	-12995
▁시선은	-12996
▁신고한	-12997
▁쓰면서	-12998
▁안에는	-12999
▁안철수	-13000
▁양국이	-13001
▁언론이	-13002
▁없고요	-13003
▁여기다	-13004
▁연결이	-13005
▁올라온	-13006
▁올리신	-13007
▁왜냐면	-13008
▁외에도	-13009
▁운동이	-13010
▁의대를	-13011
▁의혹에	-13012
▁이름도	-13013
▁이어져	-13014
▁일반고	-13015
▁자외선	-13016
▁잘못이	-13017
▁재검토	-13018
▁저작권	-13019
▁저출산	-13020
▁정리한	-13021
▁정시를	-13022
▁제도는	-13023
▁제안을	-13024
▁좋네요	-13025
▁주장도	-13026
▁죽음에	-13027
▁지역을	-13028
▁지장이	-13029
▁지키기	-13030
▁체력이	-13031
▁최초의	-13032
▁코미디	-13033
▁타인의	-13034
▁틀렸다	-13035
▁판이다	-13036
▁평가는	-13037
▁필기를	-13038
▁합의에	-13039
▁행사를	-13040
▁혁신을	-13041
▁혼란이	-13042
▁희생을	-13043
하시면서	-13044
▁강조하고	-13045
▁걱정이다	-13046
▁것보다는	-13047
▁겉으로는	-13048
▁경영학과	-13049
▁경쟁력을	-13050
▁계속되고	-13051
▁공부하러	-13052
▁구조조정	-13053
▁국정조사	-13054
▁그랬어요	-13055
▁기업들의	-13056
▁느껴진다	-13057
▁당시에는	-13058
▁대응해야	-13059
▁러시아가	-13060
▁많았는데	-13061
▁명심해야	-13062
▁못한다는	-13063
▁받았다고	-13064
▁보낸다는	-13065
▁분석하고	-13066
▁비례대표	-13067
▁사람으로	-13068
▁사이에는	-13069
▁서비스를	-13070
▁선지에서	-13071
▁세계적인	-13072
▁수강하고	-13073
▁시험에서	-13074
▁아니어도	-13075
▁아이들을	-13076
▁안되네요	-13077
▁않았으면	-13078
▁어떨까요	-13079
▁의문점이	-13080
▁이름으로	-13081
▁이후에는	-13082
▁잇따르고	-13083
▁있는지를	-13084
▁있더라도	-13085
▁자기장의	-13086
▁재미있는	-13087
▁전통적인	-13088
▁정면으로	-13089
▁중국에서	-13090
▁지켜봐야	-13091
▁지푸라기	-13092
▁차지하는	-13093
▁포인트가	-13094
▁풀이에서	-13095
▁하셨으면	-13096
▁하시나요	-13097
▁한마디로	-13098
▁해결하기	-13099
▁해주시면	-13100
▁헌법재판	-13101
▁현상이다	-13102
▁확산되고	-13103
▁가겠습니다	-13104
▁민주주의는	-13105
▁우선적으로	-13106
▁이렇게까지	-13107
▁이야기하는	-13108
▁직접적으로	-13109
▁첨부했습니다	-13110
▁됨	-13111
▁둥	-13112
▁숭	-13113
▁힌	-13114
공이	-13115
기술	-13116
뉴얼	-13117
등한	-13118
래를	-13119
목을	-13120
무니	-13121
물쩍	-13122
바람	-13123
번호	-13124
색을	-13125
생의	-13126
선생	-13127
여보	-13128
의로	-13129
일비	-13130
작년	-13131
잖은	-13132
저것	-13133
점과	-13134
제한	-13135
집이	-13136
치의	-13137
컨대	-13138
쾌한	-13139
했죠	-13140
형의	-13141
후에	-13142
▁갈라	-13143
▁계실	-13144
▁고거	-13145
▁공조	-13146
▁공지	-13147
▁과도	-13148
▁관해	-13149
▁구석	-13150
▁굴절	-13151
▁극히	-13152
▁나만	-13153
▁나열	-13154
▁날을	-13155
▁내다	-13156
▁내서	-13157
▁놀랐	-13158
▁놓는	-13159
▁다닌	-13160
▁다스	-13161
▁달래	-13162
▁담보	-13163
▁대륙	-13164
▁도리	-13165
▁도박	-13166
▁독백	-13167
▁때와	-13168
▁땜에	-13169
▁망각	-13170
▁맞히	-13171
▁멍해	-13172
▁몰입	-13173
▁물결	-13174
▁물꼬	-13175
▁뭘까	-13176
▁번의	-13177
▁벤치	-13178
▁별표	-13179
▁부활	-13180
▁불참	-13181
▁비어	-13182
▁빠질	-13183
▁사인	-13184
▁살기	-13185
▁살던	-13186
▁상위	-13187
▁상충	-13188
▁생성	-13189
▁선보	-13190
▁성분	-13191
▁소신	-13192
▁속을	-13193
▁수호	-13194
▁쉽고	-13195
▁슬슬	-13196
▁시어	-13197
▁식당	-13198
▁신용	-13199
▁싶고	-13200
▁알기	-13201
▁애써	-13202
▁없음	-13203
▁오락	-13204
▁와야	-13205
▁요기	-13206
▁욕심	-13207
▁의회	-13208
▁이의	-13209
▁이쯤	-13210
▁인력	-13211
▁인쇄	-13212
▁있냐	-13213
▁자원	-13214
▁잡기	-13215
▁재활	-13216
▁정복	-13217
▁조종	-13218
▁지고	-13219
▁지불	-13220
▁집배	-13221
▁체결	-13222
▁체험	-13223
▁총장	-13224
▁클럽	-13225
▁탄압	-13226
▁통보	-13227
▁통찰	-13228
▁풍요	-13229
▁했기	-13230
▁회고	-13231
▁흐르	-13232
▁흔치	-13233
▁힐링	-13234
납니다	-13235
됐는지	-13236
되도록	-13237
들끼리	-13238
문에서	-13239
사들은	-13240
사들의	-13241
산이다	-13242
소에서	-13243
스럽지	-13244
식간에	-13245
이라며	-13246
임에도	-13247
하듯이	-13248
▁가족은	-13249
▁감정에	-13250
▁갔는데	-13251
▁강좌는	-13252
▁강하다	-13253
▁거겠죠	-13254
▁거쳐야	-13255
▁검토할	-13256
▁것에서	-13257
▁격차가	-13258
▁경영과	-13259
▁공간에	-13260
▁공부의	-13261
▁국민과	-13262
▁규정을	-13263
▁그러자	-13264
▁기억해	-13265
▁끝내는	-13266
▁나누고	-13267
▁나보다	-13268
▁남편의	-13269
▁내려야	-13270
▁너에게	-13271
▁높아진	-13272
▁놓치지	-13273
▁느낀다	-13274
▁느낌은	-13275
▁다해서	-13276
▁대비가	-13277
▁대응할	-13278
▁도구로	-13279
▁도시의	-13280
▁독서실	-13281
▁돌리고	-13282
▁동물이	-13283
▁드러날	-13284
▁드러났	-13285
▁드물다	-13286
▁때문이	-13287
▁때에도	-13288
▁뚜렷한	-13289
▁마침내	-13290
▁막아야	-13291
▁만점을	-13292
▁많지만	-13293
▁맞추고	-13294
▁면밀히	-13295
▁모르면	-13296
▁모자라	-13297
▁무서워	-13298
▁무시할	-13299
▁문화에	-13300
▁바뀌면	-13301
▁박수를	-13302
▁받았던	-13303
▁방식의	-13304
▁방위비	-13305
▁보기도	-13306
▁보내고	-13307
▁분노가	-13308
▁분노와	-13309
▁사용이	-13310
▁서서히	-13311
▁선정해	-13312
▁수없이	-13313
▁순서는	-13314
▁순서로	-13315
▁시민들	-13316
▁실질적	-13317
▁싶지만	-13318
▁약점을	-13319
▁어물쩍	-13320
▁열악한	-13321
▁예상치	-13322
▁옛날에	-13323
▁올리면	-13324
▁요구할	-13325
▁요청을	-13326
▁용기를	-13327
▁위로를	-13328
▁위협을	-13329
▁의대는	-13330
▁인력을	-13331
▁임금이	-13332
▁있겠지	-13333
▁있으신	-13334
▁있으실	-13335
▁자소서	-13336
▁자신도	-13337
▁자체의	-13338
▁잡아서	-13339
▁장거리	-13340
▁장담할	-13341
▁재작년	-13342
▁저희는	-13343
▁전쟁의	-13344
▁전체에	-13345
▁전환이	-13346
▁정답이	-13347
▁정보는	-13348
▁정보의	-13349
▁조직을	-13350
▁지구촌	-13351
▁지나면	-13352
▁지식이	-13353
▁진행을	-13354
▁집중할	-13355
▁찾아내	-13356
▁찾았다	-13357
▁커다란	-13358
▁크기는	-13359
▁크기와	-13360
▁키워드	-13361
▁태어난	-13362
▁터무니	-13363
▁토론을	-13364
▁통합을	-13365
▁특성이	-13366
▁특징을	-13367
▁퍼센트	-13368
▁표현할	-13369
▁한양대	-13370
▁해결이	-13371
▁해명을	-13372
▁했고요	-13373
▁행위에	-13374
▁혐의로	-13375
▁협상의	-13376
▁화자가	-13377
▁후에도	-13378
▁흐름에	-13379
▁힘들게	-13380
스럽네요	-13381
이야말로	-13382
했었는데	-13383
▁것이라면	-13384
▁결정적인	-13385
▁공유하는	-13386
▁그들에게	-13387
▁그랬더니	-13388
▁높아지고	-13389
▁다르지만	-13390
▁단기간에	-13391
▁달라진다	-13392
▁대비하는	-13393
▁드러나고	-13394
▁듯합니다	-13395
▁떠오르는	-13396
▁마스터가	-13397
▁메시지가	-13398
▁못합니다	-13399
▁무엇인가	-13400
▁불가피한	-13401
▁비슷하다	-13402
▁비판하는	-13403
▁사법부의	-13404
▁상대방의	-13405
▁상황으로	-13406
▁시작된다	-13407
▁않았다면	-13408
▁어떡하죠	-13409
▁연결해서	-13410
▁영상으로	-13411
▁예상된다	-13412
▁움직임이	-13413
▁이것저것	-13414
▁이미지가	-13415
▁이해되지	-13416
▁일이라고	-13417
▁있다라는	-13418
▁죄송해요	-13419
▁지도부가	-13420
▁지속적인	-13421
▁찾아보기	-13422
▁초등학생	-13423
▁충격적인	-13424
▁풀어보고	-13425
▁학생들도	-13426
▁한국인의	-13427
▁해당하지	-13428
▁했으니까	-13429
▁효과적인	-13430
▁걱정스럽다	-13431
▁고민입니다	-13432
▁들여다보면	-13433
▁받아들이는	-13434
▁살아간다고	-13435
▁얘기입니다	-13436
▁올려볼게요	-13437
▁인공지능이	-13438
▁중요하지만	-13439
▁필요하다면	-13440
▁공부하셨나요	-13441
▁더불어민주당	-13442
.'	-13443
▁떳	-13444
▁벨	-13445
가와	-13446
겁다	-13447
계도	-13448
구와	-13449
군을	-13450
단은	-13451
단체	-13452
도시	-13453
돼요	-13454
련의	-13455
로잡	-13456
발이	-13457
버릴	-13458
법도	-13459
변을	-13460
볼까	-13461
선거	-13462
시한	-13463
었나	-13464
였기	-13465
의에	-13466
이제	-13467
인들	-13468
장난	-13469
지와	-13470
진의	-13471
쳐야	-13472
추를	-13473
터가	-13474
투리	-13475
하가	-13476
하겠	-13477
했나	-13478
행의	-13479
▁갇혀	-13480
▁감옥	-13481
▁감지	-13482
▁감탄	-13483
▁강대	-13484
▁거대	-13485
▁고득	-13486
▁귀결	-13487
▁그로	-13488
▁금강	-13489
▁기체	-13490
▁나갔	-13491
▁나뉘	-13492
▁노무	-13493
▁농업	-13494
▁놓지	-13495
▁누리	-13496
▁당혹	-13497
▁대박	-13498
▁됐어	-13499
▁두말	-13500
▁드문	-13501
▁때를	-13502
▁떳떳	-13503
▁마비	-13504
▁마찰	-13505
▁막아	-13506
▁망가	-13507
▁매듭	-13508
▁멈춰	-13509
▁모독	-13510
▁모욕	-13511
▁모집	-13512
▁모험	-13513
▁묶어	-13514
▁묻어	-13515
▁물려	-13516
▁믿어	-13517
▁밀접	-13518
▁바쁜	-13519
▁방어	-13520
▁방정	-13521
▁버전	-13522
▁별반	-13523
▁부대	-13524
▁불면	-13525
▁불문	-13526
▁비타	-13527
▁상을	-13528
▁새끼	-13529
▁선뜻	-13530
▁센터	-13531
▁속상	-13532
▁수록	-13533
▁시야	-13534
▁식물	-13535
▁실로	-13536
▁쓰게	-13537
▁암호	-13538
▁압력	-13539
▁양수	-13540
▁얘도	-13541
▁어마	-13542
▁역량	-13543
▁오만	-13544
▁온실	-13545
▁운이	-13546
▁울고	-13547
▁유교	-13548
▁율령	-13549
▁의아	-13550
▁이온	-13551
▁잃게	-13552
▁잃어	-13553
▁자금	-13554
▁자부	-13555
▁장벽	-13556
▁재현	-13557
▁재확	-13558
▁저장	-13559
▁전당	-13560
▁접수	-13561
▁주력	-13562
▁주류	-13563
▁주재	-13564
▁중증	-13565
▁지을	-13566
▁진상	-13567
▁짧게	-13568
▁찍고	-13569
▁찍을	-13570
▁착수	-13571
▁참모	-13572
▁취할	-13573
▁측이	-13574
▁터질	-13575
▁틀을	-13576
▁편향	-13577
▁평상	-13578
▁한순	-13579
▁한자	-13580
▁해제	-13581
▁허술	-13582
▁확립	-13583
▁흘려	-13584
되지는	-13585
문으로	-13586
시네요	-13587
아침에	-13588
왔다는	-13589
왔지만	-13590
웠는데	-13591
이어서	-13592
▁감사원	-13593
▁강의만	-13594
▁같아야	-13595
▁개혁이	-13596
▁걸려서	-13597
▁것들도	-13598
▁것부터	-13599
▁고치는	-13600
▁공기가	-13601
▁과제다	-13602
▁그랬다	-13603
▁그토록	-13604
▁극심한	-13605
▁금리가	-13606
▁기록을	-13607
▁기회는	-13608
▁기회로	-13609
▁내부의	-13610
▁넓이가	-13611
▁넘어서	-13612
▁노력에	-13613
▁놈한테	-13614
▁높이기	-13615
▁늘려야	-13616
▁능력에	-13617
▁됐다고	-13618
▁마련한	-13619
▁마인드	-13620
▁말문이	-13621
▁매뉴얼	-13622
▁문장에	-13623
▁물어본	-13624
▁반영된	-13625
▁벌이는	-13626
▁베스트	-13627
▁보냈네	-13628
▁보았다	-13629
▁불어넣	-13630
▁빠졌다	-13631
▁사례도	-13632
▁사로잡	-13633
▁사안은	-13634
▁사용한	-13635
▁사정을	-13636
▁살균제	-13637
▁살아온	-13638
▁생산에	-13639
▁선지의	-13640
▁성질을	-13641
▁소재로	-13642
▁소지가	-13643
▁수식어	-13644
▁수위를	-13645
▁스크린	-13646
▁시선이	-13647
▁시장경	-13648
▁싶다고	-13649
▁아래에	-13650
▁안전에	-13651
▁압력을	-13652
▁약속은	-13653
▁양측의	-13654
▁어려우	-13655
▁언어는	-13656
▁없잖아	-13657
▁여론에	-13658
▁옆에서	-13659
▁오답을	-13660
▁외부의	-13661
▁요구한	-13662
▁요소를	-13663
▁원칙이	-13664
▁유난히	-13665
▁의사소	-13666
▁의심할	-13667
▁이때는	-13668
▁이번이	-13669
▁일상이	-13670
▁입장에	-13671
▁자식을	-13672
▁저임금	-13673
▁전망이	-13674
▁정당의	-13675
▁존재가	-13676
▁존재는	-13677
▁주인이	-13678
▁지경에	-13679
▁지위를	-13680
▁지혜를	-13681
▁질문한	-13682
▁찍어서	-13683
▁책이다	-13684
▁처음엔	-13685
▁체제의	-13686
▁초래할	-13687
▁총리가	-13688
▁총선을	-13689
▁취지를	-13690
▁칼럼도	-13691
▁칼럼에	-13692
▁퀄리티	-13693
▁특단의	-13694
▁풀리지	-13695
▁풀이로	-13696
▁필요해	-13697
▁하루를	-13698
▁하잖아	-13699
▁해보는	-13700
▁행태가	-13701
▁헌법과	-13702
▁현장을	-13703
▁협상이	-13704
▁혜택이	-13705
▁화장실	-13706
▁활동이	-13707
버렸어요	-13708
어준다면	-13709
하기보다	-13710
▁강요하는	-13711
▁강조했다	-13712
▁강화하는	-13713
▁개개인의	-13714
▁객관적인	-13715
▁걱정하지	-13716
▁과감하게	-13717
▁관찰자가	-13718
▁기득권을	-13719
▁나와있다	-13720
▁돌아가야	-13721
▁드러나는	-13722
▁드러나지	-13723
▁들어가고	-13724
▁들어서요	-13725
▁때문인지	-13726
▁만들어낸	-13727
▁무시하는	-13728
▁문제라는	-13729
▁민주당은	-13730
▁민주당의	-13731
▁발생하지	-13732
▁방식이다	-13733
▁부끄러워	-13734
▁상품이나	-13735
▁선생님께	-13736
▁성립하지	-13737
▁시민에게	-13738
▁악영향을	-13739
▁앞으로의	-13740
▁애초부터	-13741
▁어김없이	-13742
▁언젠가는	-13743
▁여러분은	-13744
▁올림픽을	-13745
▁용수철이	-13746
▁원인으로	-13747
▁원하시는	-13748
▁응용하는	-13749
▁인터넷에	-13750
▁있겠는가	-13751
▁있는지도	-13752
▁있었으면	-13753
▁작품이다	-13754
▁전달하는	-13755
▁절대적인	-13756
▁주의해야	-13757
▁준비해야	-13758
▁중요하게	-13759
▁지역사회	-13760
▁집중력이	-13761
▁책임져야	-13762
▁추가적인	-13763
▁통합사회	-13764
▁평가한다	-13765
▁필수적인	-13766
▁후보자는	-13767
스럽습니다	-13768
▁가능하다는	-13769
▁가능한가요	-13770
▁들어주시면	-13771
▁때문이었다	-13772
▁마스터님들	-13773
▁존재한다고	-13774
▁지방자치단	-13775
▁체계적으로	-13776
▁피해자들의	-13777
▁하루아침에	-13778
▁떠밀어준다면	-13779
▁말씀드릴게요	-13780
▁재수생입니다	-13781
▁지푸라기라도	-13782
▁넌	-13783
▁춘	-13784
▁툭	-13785
니스	-13786
님은	-13787
마를	-13788
마킹	-13789
매는	-13790
부지	-13791
살이	-13792
설이	-13793
식과	-13794
여행	-13795
열이	-13796
였어	-13797
율을	-13798
전쟁	-13799
점의	-13800
정희	-13801
지원	-13802
췄다	-13803
트로	-13804
합이	-13805
행에	-13806
▁가사	-13807
▁간혹	-13808
▁개연	-13809
▁걷는	-13810
▁겸손	-13811
▁경각	-13812
▁계란	-13813
▁계좌	-13814
▁고질	-13815
▁공인	-13816
▁귀국	-13817
▁기저	-13818
▁기피	-13819
▁났다	-13820
▁녹아	-13821
▁눈과	-13822
▁다투	-13823
▁단독	-13824
▁당이	-13825
▁대타	-13826
▁데가	-13827
▁동남	-13828
▁뒤따	-13829
▁듣던	-13830
▁땅이	-13831
▁많았	-13832
▁매개	-13833
▁모래	-13834
▁문자	-13835
▁물가	-13836
▁미련	-13837
▁미룰	-13838
▁밀어	-13839
▁발음	-13840
▁발의	-13841
▁배정	-13842
▁벌인	-13843
▁벼락	-13844
▁변한	-13845
▁병존	-13846
▁보관	-13847
▁보람	-13848
▁비는	-13849
▁빈틈	-13850
▁뻔한	-13851
▁살리	-13852
▁상속	-13853
▁성인	-13854
▁셋째	-13855
▁속속	-13856
▁솜방	-13857
▁수긍	-13858
▁수반	-13859
▁수열	-13860
▁순수	-13861
▁시선	-13862
▁신입	-13863
▁싫을	-13864
▁심상	-13865
▁심장	-13866
▁싱가	-13867
▁아나	-13868
▁아실	-13869
▁안은	-13870
▁않겠	-13871
▁억제	-13872
▁얼핏	-13873
▁여쭙	-13874
▁연극	-13875
▁올렸	-13876
▁외출	-13877
▁유효	-13878
▁음모	-13879
▁음의	-13880
▁의욕	-13881
▁이메	-13882
▁이차	-13883
▁일할	-13884
▁자국	-13885
▁잡히	-13886
▁절충	-13887
▁정성	-13888
▁종료	-13889
▁징후	-13890
▁참사	-13891
▁첨예	-13892
▁첫날	-13893
▁치솟	-13894
▁탈당	-13895
▁탈락	-13896
▁판별	-13897
▁팔을	-13898
▁해답	-13899
▁현강	-13900
▁후원	-13901
▁흔한	-13902
더군요	-13903
더라면	-13904
버리면	-13905
에게만	-13906
으셔야	-13907
으시는	-13908
▁가슴을	-13909
▁검증이	-13910
▁것이지	-13911
▁계층과	-13912
▁고민할	-13913
▁고통이	-13914
▁공격을	-13915
▁공사를	-13916
▁과목도	-13917
▁과정도	-13918
▁관계의	-13919
▁관리자	-13920
▁관형사	-13921
▁교육이	-13922
▁구별할	-13923
▁국회와	-13924
▁그랬던	-13925
▁극복할	-13926
▁급격한	-13927
▁기능이	-13928
▁기자가	-13929
▁나오기	-13930
▁나와도	-13931
▁나왔던	-13932
▁남기고	-13933
▁남는다	-13934
▁남북은	-13935
▁남북이	-13936
▁납니다	-13937
▁노동의	-13938
▁노무현	-13939
▁노조가	-13940
▁높다고	-13941
▁높다는	-13942
▁놓치고	-13943
▁능력과	-13944
▁단백질	-13945
▁답변은	-13946
▁당장은	-13947
▁대선에	-13948
▁대신에	-13949
▁대표와	-13950
▁대학원	-13951
▁대해선	-13952
▁댓글은	-13953
▁댓글이	-13954
▁도덕성	-13955
▁독해를	-13956
▁듣는데	-13957
▁라이브	-13958
▁마치고	-13959
▁막연한	-13960
▁만났다	-13961
▁말고는	-13962
▁말하기	-13963
▁맞았다	-13964
▁맞지만	-13965
▁모양새	-13966
▁목적에	-13967
▁몰랐다	-13968
▁미국도	-13969
▁박정희	-13970
▁발상이	-13971
▁방송을	-13972
▁범위에	-13973
▁범죄가	-13974
▁법원이	-13975
▁별도의	-13976
▁보상을	-13977
▁보아도	-13978
▁복지를	-13979
▁본질을	-13980
▁부적절	-13981
▁부호를	-13982
▁불안정	-13983
▁붙이는	-13984
▁비타민	-13985
▁뽑아서	-13986
▁사라질	-13987
▁사실에	-13988
▁사진은	-13989
▁살리는	-13990
▁살면서	-13991
▁상상할	-13992
▁상황도	-13993
▁생명의	-13994
▁서술어	-13995
▁선거구	-13996
▁선거법	-13997
▁설명은	-13998
▁성장의	-13999
▁성질이	-14000
▁세계에	-14001
▁순간에	-14002
▁시각이	-14003
▁시작이	-14004
▁식민지	-14005
▁싸우며	-14006
▁썼어요	-14007
▁아르바	-14008
▁아빠를	-14009
▁아프고	-14010
▁안되면	-14011
▁약속한	-14012
▁여기도	-14013
▁역사와	-14014
▁영상에	-14015
▁영상은	-14016
▁영역이	-14017
▁오가는	-14018
▁오늘의	-14019
▁올려야	-14020
▁완전한	-14021
▁왜곡된	-14022
▁운동량	-14023
▁원래는	-14024
▁월요일	-14025
▁위상이	-14026
▁위치에	-14027
▁유형의	-14028
▁의견도	-14029
▁이견이	-14030
▁이다지	-14031
▁이동이	-14032
▁이르는	-14033
▁인문학	-14034
▁인정받	-14035
▁일으킨	-14036
▁읽어보	-14037
▁입으로	-14038
▁있었기	-14039
▁있으나	-14040
▁자기의	-14041
▁자사고	-14042
▁자사의	-14043
▁자신과	-14044
▁자연의	-14045
▁자치단	-14046
▁재미가	-14047
▁재미를	-14048
▁재산을	-14049
▁전쟁은	-14050
▁절실한	-14051
▁접촉을	-14052
▁정국을	-14053
▁정권에	-14054
▁정의가	-14055
▁제각각	-14056
▁주장한	-14057
▁주제로	-14058
▁죽음의	-14059
▁줄이기	-14060
▁중력이	-14061
▁지지층	-14062
▁지켜보	-14063
▁진행될	-14064
▁차가운	-14065
▁차리고	-14066
▁청동기	-14067
▁체계를	-14068
▁초점이	-14069
▁촛불을	-14070
▁총장은	-14071
▁총장이	-14072
▁통일을	-14073
▁틀렸던	-14074
▁틀리고	-14075
▁풀어나	-14076
▁하도록	-14077
▁학생부	-14078
▁학습에	-14079
▁한국도	-14080
▁해주면	-14081
▁행사가	-14082
▁화장품	-14083
하셨으면	-14084
▁것이기도	-14085
▁계속되는	-14086
▁고전소설	-14087
▁관리하는	-14088
▁교재에는	-14089
▁국민연금	-14090
▁규명해야	-14091
▁기대하고	-14092
▁기억하고	-14093
▁기후변화	-14094
▁나온다는	-14095
▁남아있다	-14096
▁내년에는	-14097
▁다행이다	-14098
▁달라졌다	-14099
▁떨어진다	-14100
▁리더십을	-14101
▁못했다고	-14102
▁문제라고	-14103
▁벤치마킹	-14104
▁보더라도	-14105
▁보여줘야	-14106
▁보이는데	-14107
▁분위기는	-14108
▁상관없는	-14109
▁선생님을	-14110
▁시작해서	-14111
▁안됩니다	-14112
▁않더라도	-14113
▁없었다고	-14114
▁없으니까	-14115
▁우려된다	-14116
▁의구심이	-14117
▁의원들의	-14118
▁장소에서	-14119
▁주민들의	-14120
▁지점에서	-14121
▁직원들이	-14122
▁집중하는	-14123
▁콘텐츠를	-14124
▁패러다임	-14125
▁평가하는	-14126
▁포기하는	-14127
▁플래너를	-14128
▁피해자를	-14129
▁필요해요	-14130
▁하루라도	-14131
▁학생들을	-14132
▁해결책이	-14133
▁힘듭니다	-14134
▁경영방식을	-14135
▁궁금해서요	-14136
▁되겠습니까	-14137
▁바이러스에	-14138
▁보았습니다	-14139
▁부족하다고	-14140
▁상황에서는	-14141
▁실질적으로	-14142
▁아이들에게	-14143
▁장기적으로	-14144
▁전문가들의	-14145
▁최종적으로	-14146
▁풀어보세요	-14147
▁필수적이다	-14148
▁효과적으로	-14149
▁어처구니없는	-14150
▁알아보겠습니다	-14151
▁갓	-14152
▁긋	-14153
▁쑥	-14154
▁촘	-14155
▁층	-14156
▁튼	-14157
▁핀	-14158
갑을	-14159
급한	-14160
기야	-14161
나다	-14162
느니	-14163
단에	-14164
되며	-14165
등급	-14166
론도	-14167
먹고	-14168
목이	-14169
서로	-14170
시대	-14171
식도	-14172
실은	-14173
위와	-14174
치로	-14175
포르	-14176
행위	-14177
▁간극	-14178
▁감축	-14179
▁갑은	-14180
▁갑작	-14181
▁개씩	-14182
▁거란	-14183
▁거슬	-14184
▁거요	-14185
▁걸음	-14186
▁격려	-14187
▁경청	-14188
▁고칠	-14189
▁공적	-14190
▁공허	-14191
▁권고	-14192
▁규탄	-14193
▁급한	-14194
▁나랑	-14195
▁난무	-14196
▁낳고	-14197
▁내적	-14198
▁내정	-14199
▁놀랄	-14200
▁누락	-14201
▁단죄	-14202
▁당첨	-14203
▁대거	-14204
▁대전	-14205
▁따질	-14206
▁딸이	-14207
▁뜻도	-14208
▁뜻밖	-14209
▁마약	-14210
▁막강	-14211
▁막혀	-14212
▁만다	-14213
▁맞물	-14214
▁매입	-14215
▁무거	-14216
▁무소	-14217
▁무효	-14218
▁묵과	-14219
▁문맥	-14220
▁바는	-14221
▁바닷	-14222
▁바퀴	-14223
▁발로	-14224
▁발행	-14225
▁배분	-14226
▁법도	-14227
▁보름	-14228
▁보신	-14229
▁본과	-14230
▁분양	-14231
▁분의	-14232
▁불만	-14233
▁붉은	-14234
▁비추	-14235
▁빠지	-14236
▁사명	-14237
▁사야	-14238
▁상하	-14239
▁색채	-14240
▁생리	-14241
▁섞인	-14242
▁선이	-14243
▁세균	-14244
▁스튜	-14245
▁시내	-14246
▁신념	-14247
▁신촌	-14248
▁쌓인	-14249
▁알파	-14250
▁야만	-14251
▁에서	-14252
▁여권	-14253
▁여느	-14254
▁연합	-14255
▁영유	-14256
▁외의	-14257
▁위배	-14258
▁이집	-14259
▁인삼	-14260
▁임진	-14261
▁잊어	-14262
▁자괴	-14263
▁자립	-14264
▁자성	-14265
▁절박	-14266
▁정립	-14267
▁정식	-14268
▁즉시	-14269
▁지침	-14270
▁징계	-14271
▁촘촘	-14272
▁친한	-14273
▁커버	-14274
▁키운	-14275
▁터뜨	-14276
▁파동	-14277
▁패스	-14278
▁편리	-14279
▁편한	-14280
▁하강	-14281
▁하냐	-14282
▁현지	-14283
▁협박	-14284
거리가	-14285
골드의	-14286
반드시	-14287
분들이	-14288
셨다면	-14289
소리를	-14290
시켰다	-14291
였나요	-14292
은커녕	-14293
이란다	-14294
이었고	-14295
인다고	-14296
품으로	-14297
하기엔	-14298
하시기	-14299
해지지	-14300
했어야	-14301
▁각오로	-14302
▁같은지	-14303
▁개념도	-14304
▁거리는	-14305
▁경우엔	-14306
▁고소득	-14307
▁공개한	-14308
▁공식을	-14309
▁관심과	-14310
▁관점이	-14311
▁교육부	-14312
▁구해야	-14313
▁국어가	-14314
▁국정조	-14315
▁규제가	-14316
▁규칙을	-14317
▁기다릴	-14318
▁꽃말은	-14319
▁나가서	-14320
▁나서서	-14321
▁남북한	-14322
▁넘기는	-14323
▁넘어야	-14324
▁노력해	-14325
▁노트를	-14326
▁다르면	-14327
▁당사국	-14328
▁대응도	-14329
▁댓글에	-14330
▁동영상	-14331
▁두려움	-14332
▁두말할	-14333
▁뒷부분	-14334
▁드리는	-14335
▁등급을	-14336
▁따라갈	-14337
▁따라야	-14338
▁리스트	-14339
▁마련이	-14340
▁마음만	-14341
▁만나고	-14342
▁만나서	-14343
▁말인가	-14344
▁말하지	-14345
▁말해서	-14346
▁맞대고	-14347
▁맞아서	-14348
▁매질이	-14349
▁먹어도	-14350
▁먹었다	-14351
▁모바일	-14352
▁목적은	-14353
▁못해요	-14354
▁무기력	-14355
▁무차별	-14356
▁물체를	-14357
▁바라고	-14358
▁보기가	-14359
▁보기를	-14360
▁보여서	-14361
▁보통은	-14362
▁보호를	-14363
▁본다고	-14364
▁분야의	-14365
▁불신을	-14366
▁비용은	-14367
▁사라지	-14368
▁사업의	-14369
▁상황과	-14370
▁선택에	-14371
▁세월이	-14372
▁소용이	-14373
▁수업에	-14374
▁수학과	-14375
▁시각을	-14376
▁시간표	-14377
▁시나리	-14378
▁심하게	-14379
▁아래로	-14380
▁아시는	-14381
▁알겠어	-14382
▁야당도	-14383
▁얘기한	-14384
▁어떤지	-14385
▁여의도	-14386
▁예쁘게	-14387
▁오고야	-14388
▁옵니다	-14389
▁요구는	-14390
▁의혹도	-14391
▁이러다	-14392
▁인류가	-14393
▁일방적	-14394
▁있다며	-14395
▁작금의	-14396
▁장면은	-14397
▁저보다	-14398
▁적용을	-14399
▁전자는	-14400
▁접근이	-14401
▁정답은	-14402
▁주었다	-14403
▁중요하	-14404
▁증거인	-14405
▁증세를	-14406
▁지도를	-14407
▁지문만	-14408
▁지적을	-14409
▁직전에	-14410
▁차제에	-14411
▁참여를	-14412
▁추진할	-14413
▁커지면	-14414
▁쿠데타	-14415
▁크기를	-14416
▁턱없이	-14417
▁통증을	-14418
▁튀어나	-14419
▁판결은	-14420
▁포함해	-14421
▁푸세요	-14422
▁하기로	-14423
▁하는가	-14424
▁하루가	-14425
▁하지는	-14426
▁해설은	-14427
▁행동의	-14428
▁헌법에	-14429
▁형용사	-14430
▁화려한	-14431
▁흔적이	-14432
▁흘러나	-14433
기보다는	-14434
적이지만	-14435
플레이션	-14436
하시네요	-14437
▁가족들이	-14438
▁감사하고	-14439
▁거부하는	-14440
▁결국에는	-14441
▁공부한다	-14442
▁과정이다	-14443
▁국방부는	-14444
▁그럴수록	-14445
▁극단적인	-14446
▁기대하는	-14447
▁내신으로	-14448
▁노력해서	-14449
▁당당하게	-14450
▁당사자가	-14451
▁동일하게	-14452
▁되었다고	-14453
▁드러냈다	-14454
▁들어가지	-14455
▁들어간다	-14456
▁말하자면	-14457
▁면죄부를	-14458
▁무분별한	-14459
▁무엇이든	-14460
▁문제점이	-14461
▁반성하고	-14462
▁발생하고	-14463
▁발생했다	-14464
▁보장하는	-14465
▁부분들은	-14466
▁불안감을	-14467
▁비교하는	-14468
▁사건으로	-14469
▁사회문화	-14470
▁상응하는	-14471
▁세계사를	-14472
▁소극적인	-14473
▁속에서도	-14474
▁시작해도	-14475
▁심각성을	-14476
▁싱가포르	-14477
▁아쉬움이	-14478
▁않으려면	-14479
▁얘기하고	-14480
▁어렵지만	-14481
▁없었는데	-14482
▁외면하고	-14483
▁우선이다	-14484
▁위원장은	-14485
▁이거예요	-14486
▁이동하는	-14487
▁이뤄졌다	-14488
▁이상적인	-14489
▁이탈리아	-14490
▁자신감을	-14491
▁자신들이	-14492
▁정당성을	-14493
▁정부에서	-14494
▁정치적인	-14495
▁조심해야	-14496
▁좋아하고	-14497
▁주민들이	-14498
▁지도자의	-14499
▁집중해야	-14500
▁차이점은	-14501
▁찾아봐도	-14502
▁편입니다	-14503
▁푸셨나요	-14504
▁할머니는	-14505
▁해결책을	-14506
▁해설강의	-14507
▁했었는데	-14508
▁현재까지	-14509
▁걱정스러운	-14510
▁공부하시면	-14511
▁궁극적으로	-14512
▁다행이네요	-14513
▁들어주세요	-14514
▁머릿속에서	-14515
▁머릿속으로	-14516
▁메리골드의	-14517
▁부탁드려도	-14518
▁생각한다면	-14519
▁실망스럽다	-14520
▁안정적으로	-14521
▁안타깝게도	-14522
▁어떻습니까	-14523
▁오겠습니다	-14524
▁올려주셔서	-14525
▁의식적으로	-14526
▁주기적으로	-14527
▁중요하다는	-14528
▁집중적으로	-14529
▁공부했습니다	-14530
▁불가능하다는	-14531
▁시작했습니다	-14532
11	-14533
12	-14534
?"	-14535
▁링	-14536
▁잎	-14537
가스	-14538
독교	-14539
됐기	-14540
두가	-14541
든다	-14542
들인	-14543
듯한	-14544
로그	-14545
무지	-14546
문항	-14547
물과	-14548
보게	-14549
봤자	-14550
비와	-14551
세한	-14552
수나	-14553
신의	-14554
약한	-14555
여곡	-14556
용의	-14557
유를	-14558
율은	-14559
자금	-14560
잠을	-14561
종이	-14562
지나	-14563
치도	-14564
치며	-14565
하에	-14566
해라	-14567
형에	-14568
활동	-14569
113	-14570
▁가상	-14571
▁갑이	-14572
▁강도	-14573
▁거냐	-14574
▁걷어	-14575
▁계승	-14576
▁고착	-14577
▁관람	-14578
▁구호	-14579
▁군주	-14580
▁금속	-14581
▁끄는	-14582
▁끝냈	-14583
▁남과	-14584
▁남기	-14585
▁낮다	-14586
▁내놨	-14587
▁냈다	-14588
▁넘기	-14589
▁넘지	-14590
▁노벨	-14591
▁놓쳐	-14592
▁눌러	-14593
▁뉴욕	-14594
▁다는	-14595
▁다룰	-14596
▁답글	-14597
▁당을	-14598
▁대대	-14599
▁대칭	-14600
▁더해	-14601
▁덮고	-14602
▁도둑	-14603
▁돋보	-14604
▁동떨	-14605
▁등교	-14606
▁딸을	-14607
▁라면	-14608
▁로마	-14609
▁마리	-14610
▁막힌	-14611
▁막힐	-14612
▁많기	-14613
▁망한	-14614
▁맞았	-14615
▁맡은	-14616
▁메이	-14617
▁멘토	-14618
▁무난	-14619
▁무단	-14620
▁묵묵	-14621
▁뭐든	-14622
▁미얀	-14623
▁믿지	-14624
▁발상	-14625
▁별개	-14626
▁부상	-14627
▁부서	-14628
▁부응	-14629
▁분단	-14630
▁붙은	-14631
▁비닐	-14632
▁세습	-14633
▁세울	-14634
▁소녀	-14635
▁수원	-14636
▁숨겨	-14637
▁스웨	-14638
▁승무	-14639
▁승복	-14640
▁씨앗	-14641
▁알람	-14642
▁앞의	-14643
▁약을	-14644
▁양산	-14645
▁연금	-14646
▁열릴	-14647
▁예사	-14648
▁외로	-14649
▁용서	-14650
▁유예	-14651
▁의인	-14652
▁이대	-14653
▁이라	-14654
▁이랬	-14655
▁이질	-14656
▁일터	-14657
▁자서	-14658
▁장을	-14659
▁재해	-14660
▁적고	-14661
▁전류	-14662
▁점유	-14663
▁제약	-14664
▁줄고	-14665
▁중동	-14666
▁즐기	-14667
▁즐길	-14668
▁지친	-14669
▁진작	-14670
▁집어	-14671
▁차마	-14672
▁청춘	-14673
▁총을	-14674
▁치닫	-14675
▁침몰	-14676
▁콘서	-14677
▁쾌락	-14678
▁타격	-14679
▁태극	-14680
▁평양	-14681
▁표면	-14682
▁푸시	-14683
▁프리	-14684
▁학점	-14685
▁항소	-14686
▁화합	-14687
▁후속	-14688
▁후쿠	-14689
▁휩쓸	-14690
놓으면	-14691
들에서	-14692
라든지	-14693
보려고	-14694
사하는	-14695
식에서	-14696
심으로	-14697
었으면	-14698
자라고	-14699
줍니다	-14700
편으로	-14701
해봐야	-14702
했고요	-14703
▁112	-14704
▁가끔씩	-14705
▁가벼이	-14706
▁가져가	-14707
▁감동을	-14708
▁개헌을	-14709
▁거리로	-14710
▁건물을	-14711
▁검찰총	-14712
▁것까지	-14713
▁겨울에	-14714
▁견해를	-14715
▁경제와	-14716
▁고르는	-14717
▁고민은	-14718
▁고전시	-14719
▁고통은	-14720
▁고혈압	-14721
▁공론화	-14722
▁과거로	-14723
▁과정과	-14724
▁국내외	-14725
▁국면을	-14726
▁권력은	-14727
▁권리는	-14728
▁규모를	-14729
▁그것에	-14730
▁기독교	-14731
▁기미가	-14732
▁기업도	-14733
▁기출도	-14734
▁깎아내	-14735
▁나아질	-14736
▁나왔어	-14737
▁노력도	-14738
▁노력한	-14739
▁논의에	-14740
▁눈길을	-14741
▁다가오	-14742
▁다루고	-14743
▁단정할	-14744
▁답답한	-14745
▁당하고	-14746
▁대단히	-14747
▁대상은	-14748
▁대타협	-14749
▁대표를	-14750
▁도발에	-14751
▁동남아	-14752
▁들리는	-14753
▁들어올	-14754
▁디테일	-14755
▁따지고	-14756
▁마련해	-14757
▁말로만	-14758
▁맞는데	-14759
▁메시지	-14760
▁명예를	-14761
▁모호한	-14762
▁못했을	-14763
▁문제나	-14764
▁발전에	-14765
▁배웠던	-14766
▁버려야	-14767
▁번째가	-14768
▁법칙을	-14769
▁보라색	-14770
▁보려고	-14771
▁복지의	-14772
▁봤더니	-14773
▁비하면	-14774
▁비현실	-14775
▁빠지는	-14776
▁사각지	-14777
▁사고에	-14778
▁사실도	-14779
▁사퇴를	-14780
▁살아갈	-14781
▁새내기	-14782
▁생존을	-14783
▁선거는	-14784
▁선에서	-14785
▁성실히	-14786
▁세력의	-14787
▁숫자를	-14788
▁슬럼프	-14789
▁시간적	-14790
▁시민과	-14791
▁신고를	-14792
▁신뢰와	-14793
▁신속한	-14794
▁싫어요	-14795
▁심상치	-14796
▁싸움을	-14797
▁아내를	-14798
▁아들의	-14799
▁알차게	-14800
▁앞뒤가	-14801
▁언어가	-14802
▁없음을	-14803
▁연결된	-14804
▁연락을	-14805
▁연습할	-14806
▁영어에	-14807
▁예산안	-14808
▁오류를	-14809
▁올라간	-14810
▁우여곡	-14811
▁우주선	-14812
▁원나라	-14813
▁원자력	-14814
▁은근히	-14815
▁이래서	-14816
▁이러고	-14817
▁이론의	-14818
▁이루고	-14819
▁이전의	-14820
▁이제야	-14821
▁인간에	-14822
▁인해서	-14823
▁일련의	-14824
▁일부가	-14825
▁일인지	-14826
▁입맛에	-14827
▁자료는	-14828
▁자발적	-14829
▁자신은	-14830
▁자체도	-14831
▁잘해야	-14832
▁장으로	-14833
▁저자가	-14834
▁적나라	-14835
▁적합한	-14836
▁전류의	-14837
▁접종이	-14838
▁정하는	-14839
▁정황이	-14840
▁제재가	-14841
▁조건은	-14842
▁조사에	-14843
▁조속히	-14844
▁조직과	-14845
▁종교의	-14846
▁종류의	-14847
▁좋겠어	-14848
▁주시고	-14849
▁죽음은	-14850
▁지구의	-14851
▁지금이	-14852
▁지시를	-14853
▁지원이	-14854
▁진도가	-14855
▁진실은	-14856
▁집어넣	-14857
▁채우는	-14858
▁처리할	-14859
▁천문학	-14860
▁첨부된	-14861
▁총리는	-14862
▁총장의	-14863
▁취약한	-14864
▁친구와	-14865
▁칼럼은	-14866
▁태도에	-14867
▁통제가	-14868
▁특수한	-14869
▁판단에	-14870
▁	-14871
이	-14872
.	-14873
다	-14874
는	-14875
가	-14876
을	-14877
하	-14878
에	-14879
지	-14880
고	-14881
어	-14882
아	-14883
한	-14884
의	-14885
은	-14886
서	-14887
도	-14888
요	-14889
로	-14890
기	-14891
그	-14892
해	-14893
니	-14894
나	-14895
게	-14896
있	-14897
를	-14898
사	-14899
시	-14900
리	-14901
자	-14902
수	-14903
인	-14904
들	-14905
대	-14906
면	-14907
것	-14908
만	-14909
야	-14910
정	-14911
으	-14912
라	-14913
?	-14914
제	-14915
거	-14916
보	-14917
일	-14918
부	-14919
데	-14920
상	-14921
생	-14922
문	-14923
과	-14924
주	-14925
적	-14926
,	-14927
무	-14928
없	-14929
할	-14930
여	-14931
내	-14932
까	-14933
장	-14934
오	-14935
안	-14936
않	-14937
려	-14938
구	-14939
말	-14940
전	-14941
러	-14942
모	-14943
되	-14944
했	-14945
국	-14946
우	-14947
마	-14948
신	-14949
때	-14950
히	-14951
간	-14952
위	-14953
같	-14954
스	-14955
세	-14956
소	-14957
성	-14958
치	-14959
공	-14960
었	-14961
선	-14962
분	-14963
르	-14964
런	-14965
습	-14966
행	-14967
음	-14968
식	-14969
동	-14970
비	-14971
건	-14972
실	-14973
각	-14974
중	-14975
학	-14976
더	-14977
바	-14978
조	-14979
원	-14980
겠	-14981
당	-14982
진	-14983
관	-14984
못	-14985
드	-14986
단	-14987
금	-14988
방	-14989
유	-14990
경	-14991
계	-14992
두	-14993
너	-14994
개	-14995
와	-14996
통	-14997
래	-14998
화	-14999
!	-15000
된	-15001
미	-15002
결	-15003
연	-15004
발	-15005
감	-15006
번	-15007
회	-15008
반	-15009
심	-15010
저	-15011
입	-15012
든	-15013
물	-15014
속	-15015
체	-15016
집	-15017
직	-15018
람	-15019
재	-15020
른	-15021
명	-15022
운	-15023
예	-15024
교	-15025
알	-15026
합	-15027
잘	-15028
용	-15029
님	-15030
좋	-15031
강	-15032
렇	-15033
법	-15034
절	-15035
작	-15036
트	-15037
살	-15038
남	-15039
역	-15040
았	-15041
산	-15042
태	-15043
민	-15044
많	-15045
날	-15046
불	-15047
질	-15048
워	-15049
현	-15050
차	-15051
영	-15052
느	-15053
던	-15054
버	-15055
터	-15056
올	-15057
력	-15058
난	-15059
설	-15060
확	-15061
배	-15062
걸	-15063
네	-15064
책	-15065
출	-15066
처	-15067
길	-15068
점	-15069
표	-15070
추	-15071
달	-15072
언	-15073
본	-15074
될	-15075
등	-15076
타	-15077
후	-15078
돌	-15079
판	-15080
받	-15081
줄	-15082
맞	-15083
임	-15084
복	-15085
며	-15086
먹	-15087
능	-15088
피	-15089
양	-15090
노	-15091
파	-15092
따	-15093
매	-15094
좀	-15095
싶	-15096
럼	-15097
업	-15098
져	-15099
근	-15100
갈	-15101
놓	-15102
새	-15103
막	-15104
령	-15105
준	-15106
돼	-15107
'	-15108
였	-15109
독	-15110
필	-15111
떻	-15112
형	-15113
누	-15114
봐	-15115
약	-15116
랑	-15117
친	-15118
손	-15119
종	-15120
풀	-15121
최	-15122
름	-15123
변	-15124
앞	-15125
목	-15126
호	-15127
울	-15128
론	-15129
평	-15130
박	-15131
권	-15132
머	-15133
편	-15134
뭐	-15135
란	-15136
죠	-15137
험	-15138
늘	-15139
열	-15140
떤	-15141
폭	-15142
레	-15143
석	-15144
접	-15145
크	-15146
논	-15147
힘	-15148
디	-15149
움	-15150
얼	-15151
외	-15152
담	-15153
년	-15154
청	-15155
갔	-15156
프	-15157
망	-15158
증	-15159
루	-15160
답	-15161
온	-15162
검	-15163
황	-15164
함	-15165
왜	-15166
악	-15167
즘	-15168
격	-15169
3	-15170
술	-15171
왔	-15172
허	-15173
품	-15174
범	-15175
향	-15176
군	-15177
뒤	-15178
눈	-15179
죽	-15180
혼	-15181
잡	-15182
뿐	-15183
냐	-15184
큰	-15185
린	-15186
엄	-15187
특	-15188
록	-15189
또	-15190
찾	-15191
잖	-15192
긴	-15193
포	-15194
족	-15195
끝	-15196
북	-15197
급	-15198
락	-15199
푸	-15200
꾸	-15201
채	-15202
찌	-15203
셔	-15204
잠	-15205
애	-15206
익	-15207
넘	-15208
련	-15209
숙	-15210
괜	-15211
셨	-15212
겨	-15213
돈	-15214
료	-15215
착	-15216
억	-15217
쓰	-15218
환	-15219
짜	-15220
칠	-15221
존	-15222
혹	-15223
몰	-15224
됐	-15225
림	-15226
0	-15227
렸	-15228
떠	-15229
찰	-15230
택	-15231
토	-15232
듯	-15233
패	-15234
큼	-15235
코	-15236
졌	-15237
키	-15238
글	-15239
별	-15240
슨	-15241
벌	-15242
째	-15243
견	-15244
잔	-15245
궁	-15246
탄	-15247
굴	-15248
골	-15249
혀	-15250
떨	-15251
김	-15252
삶	-15253
희	-15254
닌	-15255
극	-15256
믿	-15257
릴	-15258
육	-15259
참	-15260
얘	-15261
꼼	-15262
찍	-15263
녀	-15264
높	-15265
웃	-15266
냥	-15267
깨	-15268
빠	-15269
곳	-15270
볼	-15271
류	-15272
쉽	-15273
득	-15274
엔	-15275
쪽	-15276
찮	-15277
귀	-15278
순	-15279
켜	-15280
틀	-15281
둘	-15282
초	-15283
죄	-15284
5	-15285
써	-15286
항	-15287
립	-15288
협	-15289
철	-15290
메	-15291
먼	-15292
봤	-15293
럴	-15294
쉬	-15295
뛰	-15296
팅	-15297
읽	-15298
쟁	-15299
염	-15300
색	-15301
싸	-15302
밖	-15303
께	-15304
껍	-15305
월	-15306
량	-15307
케	-15308
십	-15309
듣	-15310
납	-15311
응	-15312
쳐	-15313
웠	-15314
1	-15315
섭	-15316
잃	-15317
겁	-15318
투	-15319
낸	-15320
활	-15321
취	-15322
됩	-15323
렵	-15324
념	-15325
커	-15326
병	-15327
씨	-15328
몇	-15329
긋	-15330
꿈	-15331
겼	-15332
맥	-15333
충	-15334
맛	-15335
천	-15336
측	-15337
몸	-15338
율	-15339
퇴	-15340
옷	-15341
럽	-15342
완	-15343
밥	-15344
브	-15345
송	-15346
뜻	-15347
침	-15348
꼭	-15349
핵	-15350
규	-15351
갖	-15352
첫	-15353
칼	-15354
플	-15355
짓	-15356
션	-15357
카	-15358
놀	-15359
넓	-15360
씀	-15361
끔	-15362
숨	-15363
붙	-15364
슴	-15365
뻔	-15366
암	-15367
흐	-15368
팀	-15369
창	-15370
테	-15371
액	-15372
밀	-15373
승	-15374
축	-15375
끊	-15376
엇	-15377
삼	-15378
빨	-15379
밤	-15380
효	-15381
넣	-15382
늦	-15383
농	-15384
백	-15385
척	-15386
솔	-15387
퉁	-15388
"	-15389
났	-15390
뭔	-15391
베	-15392
탁	-15393
압	-15394
례	-15395
줘	-15396
낙	-15397
쌀	-15398
찬	-15399
끼	-15400
끌	-15401
슬	-15402
갑	-15403
싫	-15404
꺼	-15405
빛	-15406
릉	-15407
멋	-15408
웬	-15409
총	-15410
4	-15411
꽃	-15412
걱	-15413
똑	-15414
티	-15415
냈	-15416
욕	-15417
퍼	-15418
곤	-15419
랜	-15420
섬	-15421
램	-15422
풍	-15423
낼	-15424
광	-15425
팍	-15426
홍	-15427
끗	-15428
휘	-15429
셋	-15430
폐	-15431
쯤	-15432
흘	-15433
:	-15434
쓸	-15435
칙	-15436
덕	-15437
끄	-15438
춰	-15439
빼	-15440
쁜	-15441
페	-15442
픔	-15443
씩	-15444
삭	-15445
삿	-15446
객	-15447
쩍	-15448
렴	-15449
멀	-15450
엎	-15451
큐	-15452
흔	-15453
떡	-15454
땅	-15455
탐	-15456
므	-15457
벽	-15458
톱	-15459
넉	-15460
갓	-15461
싼	-15462
짤	-15463
딱	-15464
값	-15465
멈	-15466
랐	-15467
봄	-15468
깊	-15469
뢰	-15470
낮	-15471
깎	-15472
쏘	-15473
롭	-15474
팩	-15475
졸	-15476
곰	-15477
휴	-15478
흥	-15479
놔	-15480
춘	-15481
혐	-15482
욱	-15483
짭	-15484
혁	-15485
겸	-15486
곧	-15487
균	-15488
텐	-15489
뜨	-15490
찐	-15491
탈	-15492
딸	-15493
팔	-15494
챙	-15495
릇	-15496
혜	-15497
쳤	-15498
깐	-15499
좌	-15500
훈	-15501
솥	-15502
밝	-15503
획	-15504
짝	-15505
둑	-15506
귤	-15507
략	-15508
걷	-15509
털	-15510
잤	-15511
씬	-15512
땐	-15513
뒷	-15514
곡	-15515
얻	-15516
왕	-15517
즈	-15518
줬	-15519
팬	-15520
쇄	-15521
률	-15522
밭	-15523
힐	-15524
혔	-15525
쩡	-15526
픈	-15527
징	-15528
굳	-15529
롯	-15530
맨	-15531
층	-15532
쭉	-15533
낌	-15534
랍	-15535
랄	-15536
룹	-15537
묵	-15538
꾼	-15539
벗	-15540
빈	-15541
꽤	-15542
헌	-15543
낀	-15544
몫	-15545
잊	-15546
낭	-15547
옥	-15548
젠	-15549
닙	-15550
틈	-15551
핑	-15552
뭉	-15553
왠	-15554
닥	-15555
붉	-15556
츠	-15557
혈	-15558
댓	-15559
묻	-15560
깁	-15561
떼	-15562
굽	-15563
빙	-15564
랫	-15565
곁	-15566
쇼	-15567
슷	-15568
렌	-15569
볍	-15570
쥐	-15571
칸	-15572
융	-15573
뭘	-15574
헷	-15575
궤	-15576
쑤	-15577
씻	-15578
꿔	-15579
낄	-15580
꼈	-15581
덤	-15582
릅	-15583
씁	-15584
눠	-15585
닐	-15586
멩	-15587
씌	-15588
낫	-15589
맙	-15590
곱	-15591
볶	-15592
굉	-15593
낚	-15594
잣	-15595
촬	-15596
넙	-15597
즉	-15598
즐	-15599
9	-15600
“	-15601
”	-15602
끓	-15603
밋	-15604
켤	-15605
욋	-15606
템	-15607
7	-15608
뀌	-15609
캔	-15610
돋	-15611
됨	-15612
펼	-15613
룻	-15614
럭	-15615
왼	-15616
뻗	-15617
렁	-15618
빡	-15619
띌	-15620
랖	-15621
앉	-15622
눅	-15623
팡	-15624
끈	-15625
탕	-15626
냘	-15627
넋	-15628
댁	-15629
맡	-15630
썩	-15631
앨	-15632
찢	-15633
헤	-15634
뤄	-15635
캠	-15636
궂	-15637
뼈	-15638
랭	-15639
촉	-15640
쌉	-15641
옛	-15642
갹	-15643
녹	-15644
뷔	-15645
폴	-15646
횟	-15647
좇	-15648
썼	-15649
깝	-15650
릿	-15651
흡	-15652
꼬	-15653
딩	-15654
윤	-15655
괴	-15656
힌	-15657
턴	-15658
맹	-15659
탉	-15660
낯	-15661
빵	-15662
짐	-15663
%	-15664
8	-15665
렛	-15666
블	-15667
셈	-15668
헛	-15669
엌	-15670
껴	-15671
콜	-15672
넌	-15673
껏	-15674
딴	-15675
슈	-15676
랬	-15677
봉	-15678
봅	-15679
숭	-15680
셰	-15681
낳	-15682
섞	-15683
옹	-15684
쌓	-15685
팎	-15686
훨	-15687
닦	-15688
첨	-15689
얽	-15690
깔	-15691
춤	-15692
밑	-15693
겪	-15694
찜	-15695
헐	-15696
샘	-15697
앙	-15698
얹	-15699
듬	-15700
벼	-15701
쁘	-15702
둔	-15703
콧	-15704
칫	-15705
섯	-15706
뿌	-15707
콘	-15708
둠	-15709
쓴	-15710
캐	-15711
굣	-15712
킬	-15713
탓	-15714
늙	-15715
젖	-15716
긍	-15717
넷	-15718
칭	-15719
굼	-15720
렀	-15721
벵	-15722
숲	-15723
띄	-15724
뇌	-15725
놈	-15726
젊	-15727
핏	-15728
휩	-15729
덩	-15730
뽑	-15731
옳	-15732
폰	-15733
2	-15734
딨	-15735
펴	-15736
뚝	-15737
냅	-15738
뉴	-15739
딜	-15740
널	-15741
및	-15742
걔	-15743
뀐	-15744
뉘	-15745
킨	-15746
귓	-15747
듭	-15748
밌	-15749
클	-15750
뒹	-15751
쨌	-15752
뿍	-15753
덜	-15754
멸	-15755
묘	-15756
앓	-15757
괭	-15758
맺	-15759
픽	-15760
녕	-15761
멍	-15762
찔	-15763
숫	-15764
엿	-15765
닫	-15766
빌	-15767
냉	-15768
젝	-15769
빚	-15770
쩨	-15771
푼	-15772
놨	-15773
짧	-15774
잇	-15775
센	-15776
쏟	-15777
깍	-15778
겹	-15779
옆	-15780
섰	-15781
큘	-15782
겉	-15783
굵	-15784
튼	-15785
첩	-15786
옮	-15787
횡	-15788
꿀	-15789
홀	-15790
펄	-15791
끎	-15792
멘	-15793
컴	-15794
촌	-15795
컨	-15796
쾌	-15797
닿	-15798
좁	-15799
엘	-15800
옵	-15801
쩌	-15802
꼴	-15803
훼	-15804
퓨	-15805
엉	-15806
갚	-15807
씹	-15808
벤	-15809
짚	-15810
쭤	-15811
켰	-15812
덮	-15813
묶	-15814
팁	-15815
팽	-15816
뮤	-15817
왈	-15818
컬	-15819
릭	-15820
렬	-15821
롱	-15822
뚫	-15823
둥	-15824
슐	-15825
링	-15826
펜	-15827
녁	-15828
쩔	-15829
룰	-15830
녘	-15831
삽	-15832
맘	-15833
넛	-15834
쿠	-15835
껌	-15836
쌤	-15837
몽	-15838
흉	-15839
벨	-15840
싱	-15841
꼽	-15842
눌	-15843
콩	-15844
턱	-15845
흑	-15846
땀	-15847
뚜	-15848
앗	-15849
즌	-15850
쪼	-15851
탑	-15852
띠	-15853
룬	-15854
붕	-15855
쫓	-15856
뀔	-15857
델	-15858
릎	-15859
밟	-15860
봇	-15861
쇠	-15862
엽	-15863
짖	-15864
낱	-15865
냄	-15866
촛	-15867
컷	-15868
컸	-15869
킹	-15870
뷰	-15871
겟	-15872
닭	-15873
렷	-15874
깜	-15875
웨	-15876
괄	-15877
뚱	-15878
둬	-15879
뜩	-15880
뜯	-15881
딪	-15882
켓	-15883
‘	-15884
’	-15885
겐	-15886
뇨	-15887
롤	-15888
폼	-15889
싹	-15890
꿨	-15891
덧	-15892
쏠	-15893
홈	-15894
깃	-15895
륙	-15896
펙	-15897
녔	-15898
돕	-15899
핀	-15900
샀	-15901
쌍	-15902
쑥	-15903
잦	-15904
퀴	-15905
닮	-15906
쇳	-15907
낡	-15908
뒀	-15909
웅	-15910
텔	-15911
훌	-15912
뜬	-15913
쁨	-15914
흙	-15915
컵	-15916
췄	-15917
깥	-15918
솟	-15919
쿨	-15920
헬	-15921
닷	-15922
댄	-15923
빗	-15924
뻐	-15925
꽂	-15926
떳	-15927
셀	-15928
컫	-15929
룩	-15930
맑	-15931
튀	-15932
핸	-15933
갇	-15934
꺾	-15935
붓	-15936
삐	-15937
뭇	-15938
밍	-15939
촘	-15940
꽉	-15941
륭	-15942
샤	-15943
잉	-15944
쉴	-15945
짙	-15946
툼	-15947
몬	-15948
벅	-15949
딘	-15950
얀	-15951
톨	-15952
똥	-15953
잎	-15954
땜	-15955
뵙	-15956
젤	-15957
궐	-15958
럿	-15959
썰	-15960
뱃	-15961
앱	-15962
엮	-15963
펑	-15964
햇	-15965
덴	-15966
랙	-15967
섣	-15968
솜	-15969
뱉	-15970
찝	-15971
갱	-15972
뭄	-15973
짱	-15974
쭙	-15975
퀄	-15976
흰	-15977
댈	-15978
뭡	-15979
탱	-15980
톤	-15981
꾀	-15982
늠	-15983
뎌	-15984
륜	-15985
줍	-15986
툭	-15987
튜	-15988
콤	-15989
틴	-15990
흠	-15991
덟	-15992
쟤	-15993
힙	-15994
닝	-15995
