<pad>	0
<unk>	0
<s>	0
</s>	0
▁그	-0
▁하	-1
▁이	-2
▁있	-3
▁수	-4
니다	-5
▁다	-6
▁아	-7
▁안	-8
▁거	-9
▁어	-10
▁나	-11
는데	-12
▁가	-13
▁같	-14
▁사	-15
▁저	-16
▁보	-17
으로	-18
..	-19
▁해	-20
▁시	-21
▁공	-22
▁것	-23
어요	-24
▁정	-25
▁생	-26
▁지	-27
▁한	-28
▁문	-29
▁내	-30
▁기	-31
하는	-32
▁공부	-33
▁자	-34
▁많	-35
▁좋	-36
▁없	-37
에서	-38
▁잘	-39
▁학	-40
▁대	-41
▁생각	-42
네요	-43
▁말	-44
▁너	-45
▁모	-46
습니다	-47
▁제	-48
▁게	-49
▁마	-50
▁되	-51
▁오	-52
아요	-53
▁들	-54
▁전	-55
▁문제	-56
▁진	-57
▁풀	-58
▁일	-59
▁때	-60
나요	-61
▁주	-62
▁중	-63
▁알	-64
라고	-65
다고	-66
▁더	-67
하고	-68
▁못	-69
해서	-70
▁고	-71
▁않	-72
▁너무	-73
▁부	-74
▁인	-75
▁시간	-76
▁건	-77
니까	-78
으면	-79
▁선	-80
...	-81
▁사람	-82
▁올	-83
▁아니	-84
▁할	-85
▁그냥	-86
▁하는	-87
▁진짜	-88
▁여	-89
어서	-90
▁많이	-91
▁개	-92
세요	-93
▁조	-94
▁교	-95
하면	-96
다는	-97
▁과	-98
들이	-99
지만	-100
▁근	-101
▁싶	-102
▁만	-103
▁바	-104
▁맞	-105
▁했	-106
까요	-107
가요	-108
▁분	-109
▁연	-110
▁같아요	-111
▁재	-112
▁방	-113
▁걸	-114
▁비	-115
▁지금	-116
▁무	-117
합니다	-118
▁상	-119
▁실	-120
▁적	-121
하게	-122
이라	-123
▁계	-124
▁그래	-125
▁모르	-126
▁수능	-127
▁있는	-128
에요	-129
▁영	-130
▁의	-131
렇게	-132
▁우	-133
시는	-134
▁들어	-135
▁강	-136
▁도	-137
까지	-138
▁열	-139
▁성	-140
▁그런	-141
시면	-142
▁추	-143
아서	-144
해요	-145
▁경	-146
▁받	-147
▁노	-148
▁학교	-149
▁마스	-150
▁미	-151
▁같은	-152
▁근데	-153
▁좀	-154
▁남	-155
▁하고	-156
▁다른	-157
▁물	-158
▁집	-159
▁확	-160
▁느	-161
▁뭐	-162
부터	-163
▁제가	-164
▁유	-165
▁쓰	-166
▁이런	-167
▁감	-168
▁정도	-169
▁내가	-170
면서	-171
더라	-172
▁해야	-173
▁필	-174
▁국	-175
▁글	-176
다가	-177
▁저는	-178
▁저도	-179
▁수학	-180
▁따	-181
▁원	-182
적으로	-183
는지	-184
▁다시	-185
▁점	-186
▁어떻	-187
더라고	-188
▁서	-189
▁소	-190
구요	-191
▁오늘	-192
▁배	-193
▁애	-194
생님	-195
▁힘	-196
▁질	-197
▁신	-198
▁반	-199
해야	-200
는거	-201
▁마스터	-202
리고	-203
▁하나	-204
▁스	-205
인데	-206
▁친	-207
더라고요	-208
▁결	-209
▁대학	-210
▁엄	-211
입니다	-212
▁동	-213
▁답	-214
▁우리	-215
▁위	-216
▁될	-217
▁푸	-218
▁최	-219
대로	-220
▁화	-221
▁열심	-222
한테	-223
▁관	-224
▁구	-225
▁개념	-226
▁예	-227
▁읽	-228
는게	-229
▁본	-230
▁기출	-231
▁정말	-232
▁시험	-233
▁열심히	-234
▁언	-235
보다	-236
▁작	-237
▁현	-238
▁외	-239
▁요	-240
▁끝	-241
▁봐	-242
▁어떻게	-243
▁듣	-244
▁두	-245
▁선생님	-246
다면	-247
하지	-248
는데요	-249
에는	-250
예요	-251
이랑	-252
▁어떤	-253
▁난	-254
▁수업	-255
▁번	-256
고요	-257
▁강의	-258
▁궁	-259
▁달	-260
▁몇	-261
▁불	-262
▁있을	-263
▁모르겠	-264
들은	-265
▁아직	-266
▁질문	-267
▁궁금	-268
▁차	-269
데요	-270
▁세	-271
▁왜	-272
▁좋을	-273
거든	-274
▁단	-275
▁줄	-276
▁그러	-277
▁목	-278
▁심	-279
이나	-280
지는	-281
▁처	-282
▁국어	-283
▁이해	-284
▁괜	-285
▁찾	-286
▁편	-287
▁추천	-288
려고	-289
▁보고	-290
적인	-291
▁입	-292
▁얼	-293
게요	-294
▁과목	-295
▁어느	-296
기가	-297
▁필요	-298
▁약	-299
▁하면	-300
▁마스터님	-301
▁누	-302
▁중요	-303
▁독	-304
▁어려	-305
▁영어	-306
▁아닌	-307
▁친구	-308
▁준	-309
▁책	-310
잖아	-311
▁틀	-312
이에요	-313
▁있어요	-314
시간	-315
▁내신	-316
▁그래도	-317
▁혹	-318
▁아무	-319
▁파	-320
리는	-321
셔서	-322
▁학생	-323
▁먹	-324
▁설	-325
▁보면	-326
▁엄청	-327
려주	-328
▁뭔	-329
▁복	-330
▁써	-331
▁부분	-332
어보	-333
한다	-334
▁나오	-335
하시	-336
▁살	-337
▁꼭	-338
▁여기	-339
하기	-340
▁이렇게	-341
해주	-342
겠습니다	-343
▁괜찮	-344
▁새	-345
▁드	-346
▁막	-347
▁발	-348
▁도움	-349
▁혹시	-350
▁당	-351
문에	-352
▁얘	-353
라는	-354
라서	-355
▁참	-356
▁일단	-357
었어요	-358
학교	-359
▁거예요	-360
이다	-361
셨나요	-362
▁날	-363
▁돌	-364
▁된	-365
▁후	-366
▁처음	-367
▁학원	-368
▁쉬	-369
▁갈	-370
▁몰	-371
▁간	-372
처럼	-373
▁피	-374
▁사실	-375
▁지문	-376
▁고민	-377
▁방법	-378
▁좋은	-379
고사	-380
▁성적	-381
▁해서	-382
댓글	-383
▁것도	-384
▁돼	-385
▁또	-386
▁매	-387
▁이번	-388
▁한번	-389
▁댓글	-390
▁잠	-391
▁등	-392
▁가능	-393
▁재수	-394
▁준비	-395
▁장	-396
▁잡	-397
▁체	-398
▁이제	-399
하다	-400
▁계속	-401
▁버	-402
었는데	-403
기도	-404
▁그렇게	-405
더라구요	-406
이야	-407
▁힘들	-408
▁그거	-409
▁넘	-410
▁논	-411
▁회	-412
▁좋아	-413
▁그래서	-414
▁코	-415
▁통	-416
▁감사	-417
▁다음	-418
▁만들	-419
▁내용	-420
▁조금	-421
중에	-422
▁집중	-423
▁느낌	-424
▁잇	-425
▁얼마	-426
▁봤	-427
▁완	-428
▁시간이	-429
▁이거	-430
▁그리고	-431
▁싫	-432
▁혼	-433
▁자기	-434
▁노력	-435
가는	-436
어야	-437
하구	-438
▁없는	-439
▁평	-440
▁머	-441
▁하루	-442
정도	-443
▁특	-444
▁같이	-445
▁되는	-446
▁서울	-447
▁안되	-448
▁풀이	-449
마다	-450
▁요즘	-451
어도	-452
▁놀	-453
▁얘기	-454
▁건가요	-455
▁별	-456
▁치	-457
▁교수	-458
▁알려주	-459
▁칼	-460
▁경우	-461
▁나는	-462
▁있으	-463
▁갔	-464
▁시작	-465
▁정리	-466
▁여러	-467
▁표	-468
▁마음	-469
▁볼	-470
▁말씀	-471
▁정시	-472
▁칼럼	-473
의고사	-474
▁포	-475
▁알고	-476
하면서	-477
▁싶은	-478
▁알아	-479
▁인강	-480
▁기억	-481
하시는	-482
▁좋겠	-483
▁들어가	-484
▁졸	-485
와서	-486
▁점수	-487
식으로	-488
▁많은	-489
▁있다	-490
▁순	-491
▁쫌	-492
▁운	-493
▁내일	-494
▁상황	-495
▁않을	-496
▁떄	-497
▁합	-498
들도	-499
▁올해	-500
▁푸는	-501
거나	-502
▁그럼	-503
▁늘	-504
▁님	-505
것도	-506
문제	-507
지도	-508
하신	-509
▁선택	-510
▁눈	-511
▁딱	-512
▁떨	-513
▁충	-514
▁한국	-515
▁빨	-516
▁커	-517
내요	-518
▁무슨	-519
▁자신	-520
▁직	-521
기는	-522
리가	-523
▁수도	-524
됩니다	-525
들을	-526
해보	-527
▁보는	-528
▁원래	-529
▁아니라	-530
▁높	-531
▁모의고사	-532
▁검	-533
▁있었	-534
▁해요	-535
▁빠	-536
▁초	-537
▁다들	-538
▁목표	-539
려서	-540
에게	-541
지고	-542
▁해도	-543
▁현역	-544
▁공부를	-545
▁양	-546
▁길	-547
▁본인	-548
▁이유	-549
▁해주	-550
▁때문에	-551
▁앞	-552
자가	-553
▁문학	-554
▁넣	-555
▁먼	-556
▁돈	-557
▁종	-558
▁취	-559
▁어렵	-560
▁연습	-561
▁사람이	-562
이고	-563
▁이상	-564
▁데	-565
▁변	-566
▁복습	-567
▁어디	-568
▁병	-569
▁가장	-570
▁의대	-571
사람	-572
있는	-573
▁계획	-574
▁맞는	-575
▁붙	-576
▁손	-577
▁역	-578
▁죽	-579
▁거의	-580
▁설명	-581
▁타	-582
에도	-583
▁찍	-584
▁독서	-585
▁말고	-586
▁혼자	-587
▁귀	-588
▁항	-589
야겠	-590
▁가서	-591
▁같아	-592
▁나도	-593
▁인터	-594
▁저희	-595
▁욕	-596
력이	-597
보고	-598
▁관련	-599
▁올라	-600
▁찾아	-601
▁한다	-602
▁듯	-603
었다	-604
▁분석	-605
▁교수님	-606
기에	-607
▁떨어	-608
▁뭔가	-609
한거	-610
▁빨리	-611
거든요	-612
▁문제집	-613
▁크	-614
해도	-615
▁하지	-616
▁나중에	-617
▁있나요	-618
▁갑	-619
워서	-620
▁잘못	-621
▁화학	-622
이라고	-623
▁낮	-624
▁큰	-625
시고	-626
▁그렇	-627
▁이게	-628
▁있어서	-629
타요	-630
▁영상	-631
씁니다	-632
하는게	-633
▁공부하	-634
▁행	-635
어나	-636
▁코로	-637
▁됩니다	-638
▁활	-639
▁바로	-640
▁언제	-641
▁재밌	-642
▁확실	-643
겁니다	-644
니까요	-645
▁있는데	-646
▁둘	-647
▁거야	-648
▁다니	-649
▁답변	-650
▁따로	-651
▁사진	-652
했어요	-653
▁뒤	-654
▁절	-655
밖에	-656
▁이미	-657
▁있습니다	-658
걱정	-659
만큼	-660
인지	-661
▁백	-662
▁왔	-663
▁채	-664
이는	-665
▁올리	-666
▁작년	-667
▁명	-668
▁프	-669
니가	-670
라도	-671
▁걱정	-672
▁중간	-673
건가요	-674
니디	-675
시다	-676
▁전에	-677
▁얼마나	-678
▁좋아요	-679
겠죠	-680
나다	-681
거에요	-682
등학교	-683
▁어려운	-684
▁인터넷	-685
▁합니다	-686
분이	-687
▁개인	-688
▁교육	-689
습나다	-690
▁있으면	-691
과학	-692
▁가는	-693
▁따라	-694
립니다	-695
▁코로나	-696
대요	-697
대한	-698
라구	-699
▁듣고	-700
▁도움이	-701
▁늦	-702
▁솔	-703
▁플	-704
▁결과	-705
??	-706
▁함	-707
▁아예	-708
▁금	-709
▁하는데	-710
▁꾸	-711
기를	-712
보면	-713
▁것이	-714
▁수시	-715
을까요	-716
했는데	-717
군요	-718
서요	-719
요일	-720
으니	-721
전에	-722
▁같다	-723
▁단어	-724
▁돌아	-725
▁않았	-726
으면서	-727
대는	-728
▁있어	-729
▁정신	-730
▁사람들이	-731
▁얻	-732
▁출	-733
▁햇	-734
지가	-735
▁가고	-736
▁조은	-737
▁항상	-738
셨는지	-739
▁똑	-740
▁모든	-741
▁풀고	-742
습니디	-743
던데	-744
▁비슷	-745
▁알았	-746
▁제일	-747
▁생각이	-748
▁속	-749
하다고	-750
▁아니면	-751
▁근대	-752
▁내년	-753
▁말이	-754
▁어떡	-755
!!	-756
▁네	-757
▁망	-758
▁같습니다	-759
▁곳	-760
▁떠	-761
야지	-762
▁노트	-763
▁했는데	-764
▁접	-765
가지	-766
려면	-767
▁대한	-768
▁모두	-769
▁솔직	-770
잖아요	-771
하는거	-772
▁배우	-773
▁시간을	-774
겠지	-775
었던	-776
적이	-777
▁교재	-778
▁뭘	-779
▁밥	-780
▁벌	-781
▁쓸	-782
▁기숙	-783
▁노래	-784
▁물리	-785
▁물어	-786
▁성공	-787
▁같네요	-788
▁쉽	-789
공부	-790
는다	-791
도록	-792
이가	-793
지막	-794
▁사회	-795
▁틀린	-796
▁마지막	-797
▁깨	-798
▁부족	-799
▁없다	-800
▁충분	-801
▁토	-802
가서	-803
되는	-804
래너	-805
려요	-806
하나	-807
▁걸로	-808
▁먼저	-809
▁보니	-810
▁문제가	-811
▁삼	-812
놓고	-813
었습니다	-814
▁극	-815
▁담	-816
▁법	-817
거같	-818
다니	-819
사가	-820
▁그게	-821
▁아침	-822
이라도	-823
▁같은데	-824
▁사람들	-825
▁굳	-826
▁마스크	-827
▁면	-828
구나	-829
도가	-830
이팅	-831
▁보내	-832
▁엄마	-833
▁추가	-834
▁풀어	-835
▁솔직히	-836
드립니다	-837
▁암	-838
이면	-839
▁수험	-840
▁최대한	-841
▁플래너	-842
나서	-843
리면	-844
학과	-845
▁거기	-846
▁이름	-847
▁합격	-848
▁이건	-849
▁이걸	-850
▁지구	-851
▁확진	-852
▁중요한	-853
▁고등학교	-854
▁투	-855
과목	-856
▁애들	-857
▁오답	-858
▁자체	-859
▁생각해	-860
었어	-861
▁약간	-862
▁어제	-863
▁없어서	-864
▁익	-865
▁형	-866
했던	-867
▁없이	-868
스로	-869
차피	-870
▁끝내	-871
▁별로	-872
▁생명	-873
▁해설	-874
▁어차피	-875
같은	-876
▁나왔	-877
▁돼요	-878
▁없어요	-879
▁슬	-880
하셨	-881
▁때는	-882
▁새로	-883
하네요	-884
하는데	-885
▁공부할	-886
▁문제를	-887
▁증	-888
▁판	-889
다구	-890
지를	-891
▁끝나	-892
▁어케	-893
▁모르는	-894
▁저렇게	-895
▁멋	-896
▁응	-897
▁죄	-898
▁첫	-899
져서	-900
해지	-901
▁쓰는	-902
▁없어	-903
▁의미	-904
▁수험생	-905
▁제대로	-906
▁모르겠어요	-907
▁기분	-908
▁받아	-909
주세요	-910
▁허	-911
워요	-912
▁것을	-913
▁나온	-914
▁스트	-915
▁주변	-916
▁확인	-917
지만요	-918
▁각	-919
▁온	-920
▁그걸	-921
▁다르	-922
▁사용	-923
▁오히	-924
▁올려	-925
▁이과	-926
▁후회	-927
이라는	-928
▁같아서	-929
▁학교에서	-930
▁휴	-931
자기	-932
▁가튼	-933
▁굳이	-934
▁그건	-935
▁그때	-936
▁누가	-937
▁느껴	-938
▁되게	-939
▁외우	-940
▁졸업	-941
▁식으로	-942
▁확실히	-943
▁믿	-944
▁쪽	-945
▁푼	-946
▁미적	-947
▁실수	-948
으으로	-949
▁오히려	-950
▁업	-951
▁존	-952
▁환	-953
부분	-954
이지	-955
하겠	-956
▁보통	-957
▁선배	-958
▁연구	-959
▁위해	-960
▁있고	-961
▁하기	-962
▁되나요	-963
▁문제는	-964
▁이해가	-965
▁주세요	-966
▁좋을까요	-967
▁챙	-968
▁효	-969
한데	-970
▁나올	-971
▁다행	-972
▁머리	-973
▁오래	-974
▁이야	-975
▁일반	-976
▁참고	-977
▁겁니다	-978
▁생각을	-979
보는	-980
이스	-981
▁보니까	-982
▁음	-983
▁꾸준	-984
▁부탁	-985
▁이러	-986
▁사람은	-987
▁애들이	-988
▁이번에	-989
▁하지만	-990
▁생각해요	-991
▁됐	-992
▁훨	-993
사를	-994
▁나가	-995
▁발표	-996
▁불안	-997
▁프로	-998
보다는	-999
으니까	-1000
▁만들어	-1001
▁스트레	-1002
▁지금은	-1003
▁공부하는	-1004
▁감사합니다	-1005
▁생각합니다	-1006
▁긴	-1007
▁산	-1008
드릴	-1009
생각	-1010
치는	-1011
▁결국	-1012
▁그랬	-1013
▁방학	-1014
▁않는	-1015
▁어떠	-1016
▁중에	-1017
▁지나	-1018
에서는	-1019
▁물어보	-1020
▁낫	-1021
▁맛	-1022
▁메	-1023
▁빼	-1024
▁울	-1025
더니	-1026
하긴	-1027
▁너므	-1028
▁일본	-1029
▁점점	-1030
하시면	-1031
▁서울대	-1032
▁지구과학	-1033
▁싸	-1034
사는	-1035
성이	-1036
인가	-1037
▁반복	-1038
▁보이	-1039
▁자세	-1040
▁중국	-1041
▁훨씬	-1042
한다고	-1043
▁풀어보	-1044
▁꿈	-1045
▁놓	-1046
▁즐	-1047
▁키	-1048
겠다	-1049
셔도	-1050
조건	-1051
▁결정	-1052
▁기대	-1053
▁난이	-1054
▁넘어	-1055
▁논문	-1056
▁듣는	-1057
▁등급	-1058
▁보여	-1059
▁신경	-1060
▁느낌이	-1061
▁스스로	-1062
▁걔	-1063
▁쓴	-1064
▁짜	-1065
들어	-1066
리지	-1067
셔야	-1068
장이	-1069
했다	-1070
▁상관	-1071
▁정보	-1072
▁싶어요	-1073
▁했어요	-1074
▁어느정도	-1075
감이	-1076
라면	-1077
식을	-1078
▁게시	-1079
▁상담	-1080
▁했다	-1081
답니다	-1082
...?	-1083
▁그러면	-1084
▁생각보다	-1085
▁멘	-1086
정이	-1087
▁당연	-1088
▁많아	-1089
▁하시	-1090
던데요	-1091
았어요	-1092
▁기억이	-1093
▁될까요	-1094
▁이유가	-1095
하시나요	-1096
▁웃	-1097
가능	-1098
라요	-1099
문학	-1100
보단	-1101
수있	-1102
점이	-1103
하실	-1104
▁경험	-1105
▁그리	-1106
▁문법	-1107
▁사이	-1108
▁적용	-1109
▁평가	-1110
▁무조건	-1111
▁쪼	-1112
거야	-1113
아니	-1114
으신	-1115
..?	-1116
▁과학	-1117
▁그럴	-1118
▁비교	-1119
▁직접	-1120
▁학습	-1121
▁식	-1122
▁뭐가	-1123
▁읽고	-1124
▁정확	-1125
▁해보	-1126
하세요	-1127
▁오늘은	-1128
대가	-1129
스럽	-1130
▁기본	-1131
▁되고	-1132
▁생기	-1133
▁실력	-1134
▁아는	-1135
▁인생	-1136
▁하셨	-1137
▁해석	-1138
인가요	-1139
▁꾸준히	-1140
▁나오는	-1141
▁걍	-1142
보니	-1143
텐데	-1144
학생	-1145
▁것은	-1146
▁없을	-1147
▁인간	-1148
▁시간에	-1149
▁하는게	-1150
▁궁금해요	-1151
▁스트레스	-1152
▁궁금합니다	-1153
▁몸	-1154
▁밀	-1155
▁악	-1156
▁억	-1157
▁에	-1158
도를	-1159
했어	-1160
▁다녀	-1161
▁면접	-1162
▁문과	-1163
▁문장	-1164
▁않은	-1165
▁저런	-1166
▁크게	-1167
▁하신	-1168
한다는	-1169
▁많아서	-1170
▁선생님이	-1171
▁겨	-1172
▁뽑	-1173
▁카	-1174
드는	-1175
자는	-1176
▁기간	-1177
▁대해	-1178
▁주는	-1179
▁여기서	-1180
▁하시는	-1181
▁갖	-1182
▁멀	-1183
▁앉	-1184
▁터	-1185
▁호	-1186
없이	-1187
▁가지	-1188
▁거죠	-1189
▁거지	-1190
▁고전	-1191
▁들으	-1192
▁물론	-1193
▁분위	-1194
▁생활	-1195
▁수준	-1196
▁실전	-1197
▁자료	-1198
▁저거	-1199
▁전체	-1200
▁죄송	-1201
▁하다	-1202
▁쳐	-1203
▁축	-1204
▁글씨	-1205
▁자꾸	-1206
▁할지	-1207
▁활동	-1208
겠네요	-1209
▁강의를	-1210
▁성적이	-1211
▁싶어서	-1212
▁싶은데	-1213
▁아니고	-1214
▁천	-1215
제로	-1216
하여	-1217
▁가면	-1218
▁소리	-1219
▁아닐	-1220
▁안나	-1221
▁완전	-1222
▁적은	-1223
▁해결	-1224
▁않을까	-1225
▁박	-1226
▁탈	-1227
겠어	-1228
냐고	-1229
봐요	-1230
수가	-1231
없는	-1232
주일	-1233
▁관리	-1234
▁다양	-1235
▁빠르	-1236
▁아마	-1237
▁없고	-1238
▁필기	-1239
▁문제풀	-1240
▁하나요	-1241
▁하면서	-1242
했습니다	-1243
지않	-1244
▁가끔	-1245
▁대충	-1246
▁동아	-1247
▁똑같	-1248
▁봐요	-1249
▁부모	-1250
▁운동	-1251
▁이후	-1252
▁절대	-1253
드려요	-1254
랍니다	-1255
▁자기가	-1256
▁깔	-1257
▁맨	-1258
▁태	-1259
수도	-1260
▁과탐	-1261
▁관심	-1262
▁기준	-1263
▁나머	-1264
▁수가	-1265
▁신청	-1266
▁언니	-1267
▁자주	-1268
▁포기	-1269
▁비문학	-1270
▁일주일	-1271
▁하세요	-1272
▁썼	-1273
▁컴	-1274
대에	-1275
로는	-1276
시길	-1277
▁나와	-1278
▁대단	-1279
▁문재	-1280
▁쉬는	-1281
▁있다고	-1282
동안	-1283
▁미리	-1284
▁바꾸	-1285
▁새벽	-1286
▁아까	-1287
▁아이	-1288
▁않고	-1289
▁어쩌	-1290
에서도	-1291
할까요	-1292
▁가타요	-1293
▁아닌가	-1294
▁정도로	-1295
▁골	-1296
▁까	-1297
▁꽤	-1298
버렸	-1299
별로	-1300
스트	-1301
하려	-1302
학원	-1303
▁받고	-1304
▁부담	-1305
▁싶어	-1306
▁아님	-1307
▁일이	-1308
▁잠깐	-1309
▁전부	-1310
▁최고	-1311
선생님	-1312
▁거라고	-1313
▁당연히	-1314
▁싶네요	-1315
▁기출문제	-1316
▁밑	-1317
▁컨	-1318
기간	-1319
노트	-1320
어주	-1321
이었	-1322
텐츠	-1323
▁도전	-1324
▁매일	-1325
▁받았	-1326
▁싶다	-1327
▁표현	-1328
겠어요	-1329
봤는데	-1330
▁몰라서	-1331
▁일어나	-1332
▁하나도	-1333
▁아닌가요	-1334
▁급	-1335
▁뜻	-1336
▁와	-1337
▁월	-1338
▁은	-1339
▁콘	-1340
▁테	-1341
니깐	-1342
래도	-1343
▁경제	-1344
▁교과	-1345
▁기다	-1346
▁되면	-1347
▁된다	-1348
▁몰랐	-1349
▁바뀌	-1350
▁배운	-1351
▁상태	-1352
▁싫어	-1353
▁완벽	-1354
▁투자	-1355
▁파악	-1356
▁판단	-1357
▁갑자기	-1358
▁방법이	-1359
▁아침에	-1360
▁앞으로	-1361
▁충분히	-1362
▁흐	-1363
걸로	-1364
님이	-1365
당히	-1366
봐도	-1367
식이	-1368
은데	-1369
▁너머	-1370
▁뭔지	-1371
▁병원	-1372
▁병행	-1373
▁보기	-1374
▁사라	-1375
▁안돼	-1376
▁이용	-1377
▁저번	-1378
▁체크	-1379
▁학기	-1380
볼게요	-1381
▁가능한	-1382
▁공부가	-1383
▁대부분	-1384
▁때마다	-1385
▁이야기	-1386
▁한다고	-1387
▁알려주세요	-1388
▁디	-1389
▁헷	-1390
만한	-1391
▁게임	-1392
▁딱히	-1393
▁먹고	-1394
▁봐야	-1395
▁여쭤	-1396
▁우선	-1397
▁작성	-1398
▁전공	-1399
▁주제	-1400
▁한데	-1401
하니까	-1402
▁내년에	-1403
▁어떠케	-1404
▁있다는	-1405
▁공부시간	-1406
▁쭉	-1407
거가	-1408
스러	-1409
▁가타	-1410
▁고려	-1411
▁귀찮	-1412
▁대신	-1413
▁되지	-1414
▁아주	-1415
▁입학	-1416
▁작품	-1417
▁지원	-1418
더라도	-1419
▁거에요	-1420
▁그대로	-1421
▁파이팅	-1422
▁있을까요	-1423
▁폐	-1424
는건	-1425
되면	-1426
아야	-1427
어를	-1428
증에	-1429
지면	-1430
하자	-1431
▁건지	-1432
▁과제	-1433
▁나쁘	-1434
▁논술	-1435
▁만약	-1436
▁세상	-1437
▁수강	-1438
▁여자	-1439
▁특히	-1440
▁풀면	-1441
▁회사	-1442
▁정도는	-1443
▁딴	-1444
▁로	-1445
▁범	-1446
계가	-1447
과정	-1448
되어	-1449
▁남자	-1450
▁들을	-1451
▁사고	-1452
▁안될	-1453
▁약속	-1454
▁응원	-1455
▁이것	-1456
▁지방	-1457
인데요	-1458
▁가지고	-1459
▁들어오	-1460
▁우리가	-1461
▁꺼	-1462
▁습	-1463
▁야	-1464
교육	-1465
리를	-1466
성을	-1467
여서	-1468
인이	-1469
▁겨울	-1470
▁과정	-1471
▁기하	-1472
▁긴장	-1473
▁맞추	-1474
▁상대	-1475
▁쉽게	-1476
▁저녁	-1477
▁조언	-1478
▁지역	-1479
하려고	-1480
▁다양한	-1481
▁보면서	-1482
▁빠르게	-1483
▁새로운	-1484
▁실력이	-1485
▁우리나	-1486
▁할까요	-1487
▁확진자	-1488
▁알려주실	-1489
▁군	-1490
▁권	-1491
▁끊	-1492
▁빡	-1493
▁삭	-1494
너무	-1495
대를	-1496
신이	-1497
을까	-1498
주는	-1499
▁건데	-1500
▁검사	-1501
▁고소	-1502
▁대체	-1503
▁동안	-1504
▁만든	-1505
▁받은	-1506
▁분이	-1507
▁알려	-1508
▁연락	-1509
▁입시	-1510
▁컴퓨	-1511
▁풀었	-1512
▁헷갈	-1513
▁활용	-1514
▁작년에	-1515
▁하는지	-1516
▁학생들	-1517
하겠습니다	-1518
▁쌓	-1519
생이	-1520
으셨	-1521
▁가져	-1522
▁그나	-1523
▁그만	-1524
▁누구	-1525
▁느끼	-1526
▁말을	-1527
▁봐도	-1528
▁분명	-1529
▁삭제	-1530
▁수정	-1531
▁쉬운	-1532
▁유전	-1533
▁회독	-1534
았는데	-1535
있어요	-1536
▁점수가	-1537
▁교수님이	-1538
▁낼	-1539
▁밤	-1540
▁뿌	-1541
겨서	-1542
▁거라	-1543
▁맨날	-1544
▁밖에	-1545
▁서로	-1546
▁순간	-1547
▁와서	-1548
▁유형	-1549
▁일어	-1550
▁자연	-1551
▁하구	-1552
▁했던	-1553
▁행동	-1554
하나요	-1555
▁어디서	-1556
▁컴퓨터	-1557
▁필요한	-1558
▁학원에서	-1559
▁모르겠네요	-1560
▁꿀	-1561
▁능	-1562
▁숙	-1563
가가	-1564
길래	-1565
끼리	-1566
내는	-1567
드라	-1568
든지	-1569
지로	-1570
지에	-1571
화가	-1572
▁고대	-1573
▁대비	-1574
▁들고	-1575
▁멘탈	-1576
▁않아	-1577
▁인정	-1578
▁적이	-1579
▁전문	-1580
▁정해	-1581
▁커피	-1582
듯해요	-1583
이라서	-1584
▁본인이	-1585
▁부분이	-1586
▁수학은	-1587
▁아니다	-1588
▁아직도	-1589
▁친구들	-1590
드릴게요	-1591
▁생각하고	-1592
▁없습니다	-1593
▁꼼	-1594
▁뉴	-1595
▁베	-1596
▁옆	-1597
▁용	-1598
▁클	-1599
수록	-1600
주로	-1601
초에	-1602
▁가야	-1603
▁그것	-1604
▁글을	-1605
▁꼼꼼	-1606
▁벌써	-1607
▁실험	-1608
▁아빠	-1609
▁영향	-1610
▁자습	-1611
▁진로	-1612
실에서	-1613
▁갑니다	-1614
▁개념이	-1615
▁난이도	-1616
▁동아리	-1617
▁정시로	-1618
▁중학교	-1619
▁하네요	-1620
하셨나요	-1621
▁문제풀이	-1622
▁니	-1623
▁리	-1624
▁옮	-1625
▁젤	-1626
건지	-1627
드리	-1628
보구	-1629
점을	-1630
▁갔다	-1631
▁걸리	-1632
▁경영	-1633
▁남들	-1634
▁남은	-1635
▁다만	-1636
▁매우	-1637
▁얻어	-1638
▁연계	-1639
▁재미	-1640
▁점심	-1641
▁차이	-1642
▁최저	-1643
▁평소	-1644
하는대	-1645
▁공부는	-1646
▁비슷한	-1647
▁지문을	-1648
▁하시면	-1649
았습니다	-1650
해주세요	-1651
▁같은데요	-1652
▁않을까요	-1653
▁하셨나요	-1654
▁맘	-1655
것같	-1656
는대	-1657
된다	-1658
린다	-1659
소리	-1660
진다	-1661
치고	-1662
▁가르	-1663
▁거면	-1664
▁늦게	-1665
▁맞춰	-1666
▁신기	-1667
▁쓰고	-1668
▁인증	-1669
▁적어	-1670
▁개념을	-1671
▁나증에	-1672
▁들어야	-1673
▁모르겟	-1674
▁잘하는	-1675
▁개인적으로	-1676
▁청	-1677
▁폰	-1678
▁흥	-1679
낭비	-1680
시키	-1681
으실	-1682
이터	-1683
..!	-1684
▁계산	-1685
▁독해	-1686
▁살아	-1687
▁암기	-1688
▁입장	-1689
▁있지	-1690
▁취업	-1691
▁한의	-1692
하셔서	-1693
하지만	-1694
햇어요	-1695
▁올려주	-1696
▁자체가	-1697
▁추천해	-1698
▁아니에요	-1699
▁넓	-1700
가고	-1701
기로	-1702
마자	-1703
봐서	-1704
생활	-1705
원이	-1706
한게	-1707
▁나이	-1708
▁만나	-1709
▁역시	-1710
▁오르	-1711
▁유명	-1712
▁집에	-1713
▁학과	-1714
▁힘든	-1715
시나요	-1716
▁교과서	-1717
▁국어는	-1718
▁그래프	-1719
▁때까지	-1720
▁애초에	-1721
▁아무래도	-1722
▁덜	-1723
▁짧	-1724
▁첨	-1725
▁팔	-1726
같이	-1727
눈데	-1728
봐야	-1729
수를	-1730
오는	-1731
일이	-1732
▁기초	-1733
▁나서	-1734
▁나을	-1735
▁답이	-1736
▁때도	-1737
▁때문	-1738
▁무서	-1739
▁분들	-1740
▁일부	-1741
▁있긴	-1742
▁최선	-1743
▁피해	-1744
▁현재	-1745
▁힘드	-1746
할게요	-1747
▁기출을	-1748
▁된다고	-1749
▁미적분	-1750
▁봤는데	-1751
▁불가능	-1752
▁선배님	-1753
▁필요는	-1754
▁한국어	-1755
▁봄	-1756
▁침	-1757
가면	-1758
라리	-1759
수잇	-1760
시가	-1761
에선	-1762
우고	-1763
▁간단	-1764
▁네가	-1765
▁사설	-1766
▁올린	-1767
▁올릴	-1768
▁일찍	-1769
▁있음	-1770
▁전화	-1771
▁행복	-1772
하시고	-1773
해서요	-1774
▁그런데	-1775
▁끝나고	-1776
▁영어는	-1777
▁위해서	-1778
▁재대로	-1779
▁좋겠네요	-1780
▁팁	-1781
느라	-1782
래요	-1783
모르	-1784
분석	-1785
상이	-1786
을떄	-1787
캠퍼	-1788
▁강사	-1789
▁높은	-1790
▁되어	-1791
▁말도	-1792
▁아파	-1793
▁열공	-1794
▁전혀	-1795
▁존재	-1796
▁주식	-1797
▁진행	-1798
▁푸러	-1799
▁하게	-1800
▁하실	-1801
▁효율	-1802
캠퍼스	-1803
▁거기서	-1804
▁그나마	-1805
▁못하는	-1806
▁방법을	-1807
▁안되는	-1808
▁집에서	-1809
▁차라리	-1810
▁하는거	-1811
▁들으면서	-1812
▁생각하는	-1813
▁중이에요	-1814
▁뜨	-1815
▁믄	-1816
▁탐	-1817
가튼	-1818
간다	-1819
강의	-1820
려도	-1821
려야	-1822
새요	-1823
을때	-1824
져요	-1825
할떄	-1826
▁거다	-1827
▁다닐	-1828
▁달라	-1829
▁듣기	-1830
▁미국	-1831
▁방향	-1832
▁분야	-1833
▁순서	-1834
▁써서	-1835
▁알게	-1836
▁얼굴	-1837
▁의사	-1838
▁저랑	-1839
▁경우는	-1840
▁괜찮은	-1841
▁괜찮을	-1842
▁그런거	-1843
▁나와서	-1844
▁말하는	-1845
▁상황이	-1846
▁여러분	-1847
▁이런거	-1848
▁있으니	-1849
▁오답노트	-1850
▁하더라고요	-1851
▁땐	-1852
▁뿐	-1853
▁술	-1854
▁임	-1855
▁잊	-1856
▁줘	-1857
▁페	-1858
격이	-1859
격증	-1860
께서	-1861
방학	-1862
시험	-1863
자를	-1864
할까	-1865
▁거임	-1866
▁공유	-1867
▁그날	-1868
▁놀러	-1869
▁만점	-1870
▁만큼	-1871
▁무엇	-1872
▁바꿔	-1873
▁빼고	-1874
▁생겼	-1875
▁아프	-1876
▁여성	-1877
▁오빠	-1878
▁위한	-1879
▁통해	-1880
▁현실	-1881
봐야겠	-1882
시간에	-1883
신가요	-1884
으시면	-1885
▁기숙사	-1886
▁원하는	-1887
▁위주로	-1888
▁차이가	-1889
▁한다는	-1890
▁처음부터	-1891
▁덕	-1892
▁든	-1893
땜에	-1894
양이	-1895
였어	-1896
할지	-1897
함을	-1898
▁것만	-1899
▁극복	-1900
▁기술	-1901
▁나눠	-1902
▁누군	-1903
▁뉴스	-1904
▁사랑	-1905
▁생긴	-1906
▁시키	-1907
▁주실	-1908
▁책을	-1909
▁텐데	-1910
셨으면	-1911
▁내용이	-1912
▁마음이	-1913
▁있어야	-1914
▁중간에	-1915
▁수험생활	-1916
▁있었는데	-1917
▁좋아하는	-1918
▁했습니다	-1919
▁빈	-1920
▁잔	-1921
▁철	-1922
▁흔	-1923
디어	-1924
수업	-1925
을거	-1926
지안	-1927
친구	-1928
하죠	-1929
▁건강	-1930
▁검색	-1931
▁금방	-1932
▁난리	-1933
▁들었	-1934
▁등록	-1935
▁많았	-1936
▁방금	-1937
▁사과	-1938
▁어떨	-1939
▁의견	-1940
▁읽는	-1941
▁진심	-1942
▁쪼금	-1943
▁하려	-1944
닙니다	-1945
자마자	-1946
▁게시물	-1947
▁내용을	-1948
▁마세요	-1949
▁머리가	-1950
▁실제로	-1951
▁읽어보	-1952
▁있다면	-1953
▁자세히	-1954
▁풀이를	-1955
▁화이팅	-1956
▁공부해야	-1957
▁너무너무	-1958
▁겹	-1959
▁끌	-1960
▁색	-1961
▁케	-1962
▁퍼	-1963
고싶	-1964
나가	-1965
어버	-1966
우는	-1967
우면	-1968
이러	-1969
▁깔끔	-1970
▁낮은	-1971
▁밑에	-1972
▁받는	-1973
▁신고	-1974
▁영화	-1975
▁주말	-1976
▁진도	-1977
▁참여	-1978
달라고	-1979
이네요	-1980
▁같타요	-1981
▁나한테	-1982
▁되는데	-1983
▁많아요	-1984
▁상관없	-1985
▁수능은	-1986
▁알아서	-1987
▁없다고	-1988
▁좋겠다	-1989
▁학교가	-1990
▁공부하고	-1991
▁좋습니다	-1992
▁생각하시나요	-1993
▁겁	-1994
▁봅	-1995
▁창	-1996
▁총	-1997
▁폭	-1998
겟다	-1999
과가	-2000
까진	-2001
날에	-2002
되지	-2003
라인	-2004
력을	-2005
받고	-2006
시에	-2007
이니	-2008
인드	-2009
하며	-2010
▁개학	-2011
▁거에	-2012
▁그림	-2013
▁독학	-2014
▁살짝	-2015
▁삼수	-2016
▁선지	-2017
▁언급	-2018
▁이루	-2019
▁익숙	-2020
▁잡고	-2021
▁정답	-2022
▁제발	-2023
▁탈퇴	-2024
▁통합	-2025
▁환경	-2026
요일에	-2027
주시면	-2028
▁기분이	-2029
▁대학교	-2030
▁만드는	-2031
▁아무튼	-2032
▁어떡해	-2033
▁엄마가	-2034
▁올해는	-2035
▁이상한	-2036
▁있는지	-2037
▁있지만	-2038
▁저한테	-2039
▁주시면	-2040
▁집중이	-2041
▁한국사	-2042
▁모르겠다	-2043
▁아니라고	-2044
▁우리나라	-2045
▁광	-2046
▁끼	-2047
▁숫	-2048
▁앱	-2049
▁웬	-2050
늕데	-2051
들만	-2052
방법	-2053
어지	-2054
으려	-2055
하니	-2056
할거	-2057
해질	-2058
▁거랑	-2059
▁내려	-2060
▁대로	-2061
▁먹는	-2062
▁못한	-2063
▁무시	-2064
▁바라	-2065
▁복잡	-2066
▁생물	-2067
▁언어	-2068
▁에너	-2069
▁오는	-2070
▁존경	-2071
이라구	-2072
▁뭐라고	-2073
▁분들이	-2074
▁수업을	-2075
▁않나요	-2076
▁여기에	-2077
▁찾아서	-2078
▁하루에	-2079
▁하나하나	-2080
▁하셨는지	-2081
▁며	-2082
▁민	-2083
▁삶	-2084
▁털	-2085
▁퇴	-2086
▁패	-2087
과는	-2088
기고	-2089
도는	-2090
드시	-2091
명이	-2092
아지	-2093
았다	-2094
에만	-2095
였다	-2096
이트	-2097
있다	-2098
장히	-2099
쳐서	-2100
학금	-2101
▁건가	-2102
▁구조	-2103
▁그떄	-2104
▁대답	-2105
▁못했	-2106
▁미래	-2107
▁불편	-2108
▁안좋	-2109
▁없음	-2110
▁연예	-2111
▁운영	-2112
▁위험	-2113
▁자극	-2114
▁잡아	-2115
▁조건	-2116
▁조심	-2117
▁카페	-2118
▁하죠	-2119
▁회의	-2120
▁흥미	-2121
들이랑	-2122
시간이	-2123
하다가	-2124
하라고	-2125
▁경우가	-2126
▁끝까지	-2127
▁나머지	-2128
▁느껴지	-2129
▁늘어나	-2130
▁다음에	-2131
▁대학을	-2132
▁때부터	-2133
▁문학은	-2134
▁받아서	-2135
▁부족한	-2136
▁생각했	-2137
▁아닐까	-2138
▁어려워	-2139
▁자격증	-2140
▁정리해	-2141
▁평가원	-2142
▁풀면서	-2143
▁경우에는	-2144
▁아닙니다	-2145
▁중요하다고	-2146
▁뚫	-2147
▁뛰	-2148
▁압	-2149
▁옛	-2150
거리	-2151
나는	-2152
때는	-2153
리기	-2154
셔요	-2155
시켜	-2156
신청	-2157
▁기회	-2158
▁나라	-2159
▁낭비	-2160
▁돼서	-2161
▁뒤에	-2162
▁며칠	-2163
▁사는	-2164
▁소개	-2165
▁습관	-2166
▁여행	-2167
▁음악	-2168
▁짜증	-2169
▁체화	-2170
▁한달	-2171
해야지	-2172
▁과목을	-2173
▁그리구	-2174
▁다니는	-2175
▁반드시	-2176
▁보이는	-2177
▁분들은	-2178
▁어떻케	-2179
▁있을까	-2180
▁저번에	-2181
▁적당히	-2182
▁친구가	-2183
▁캠퍼스	-2184
▁하려고	-2185
▁들어가서	-2186
▁바랍니다	-2187
▁농	-2188
▁숨	-2189
▁착	-2190
건데	-2191
그램	-2192
기만	-2193
끄러	-2194
내용	-2195
리큘	-2196
시아	-2197
햇다	-2198
▁가게	-2199
▁경쟁	-2200
▁고생	-2201
▁기능	-2202
▁님이	-2203
▁당장	-2204
▁되었	-2205
▁백신	-2206
▁사탐	-2207
▁시비	-2208
▁실습	-2209
▁심화	-2210
▁어쩔	-2211
▁외국	-2212
▁외워	-2213
▁있나	-2214
▁최소	-2215
▁하자	-2216
▁학부	-2217
▁함께	-2218
겠지만	-2219
리큘럼	-2220
스럽게	-2221
습니까	-2222
이니까	-2223
이어서	-2224
▁고양이	-2225
▁공부법	-2226
▁과목이	-2227
▁나오면	-2228
▁들어서	-2229
▁떨어지	-2230
▁마시고	-2231
▁배우는	-2232
▁보시면	-2233
▁아무도	-2234
▁아무리	-2235
▁정확히	-2236
▁콘텐츠	-2237
▁하나만	-2238
거같아요	-2239
▁겨울방학	-2240
▁사람들은	-2241
▁어려워서	-2242
▁좋겠어요	-2243
▁지금까지	-2244
▁추천드립니다	-2245
▁깊	-2246
▁꼬	-2247
▁끗	-2248
감을	-2249
느냐	-2250
던거	-2251
말고	-2252
말이	-2253
본다	-2254
으시	-2255
정을	-2256
▁가족	-2257
▁갖고	-2258
▁건물	-2259
▁근처	-2260
▁글자	-2261
▁까먹	-2262
▁나름	-2263
▁너는	-2264
▁느꼈	-2265
▁부럽	-2266
▁수는	-2267
▁쓰면	-2268
▁예전	-2269
▁저두	-2270
▁적응	-2271
▁흐름	-2272
까지는	-2273
했는지	-2274
▁것처럼	-2275
▁독서실	-2276
▁마인드	-2277
▁부분을	-2278
▁분위기	-2279
▁수학을	-2280
▁않아서	-2281
▁예전에	-2282
▁조금씩	-2283
▁주셔서	-2284
▁필요가	-2285
▁학교에	-2286
▁같아서요	-2287
▁공부하면	-2288
▁중간고사	-2289
▁커리큘럼	-2290
▁기출문제집	-2291
▁굉	-2292
▁뇌	-2293
건가	-2294
드를	-2295
드백	-2296
듯해	-2297
률이	-2298
만에	-2299
문을	-2300
지금	-2301
해가	-2302
▁가기	-2303
▁가보	-2304
▁감이	-2305
▁같긴	-2306
▁나를	-2307
▁니가	-2308
▁대면	-2309
▁동네	-2310
▁들은	-2311
▁모습	-2312
▁모자	-2313
▁받으	-2314
▁받을	-2315
▁싸움	-2316
▁써야	-2317
▁위에	-2318
▁은근	-2319
▁자고	-2320
▁접근	-2321
▁증명	-2322
▁피곤	-2323
▁했어	-2324
▁현대	-2325
였어요	-2326
이내요	-2327
장에서	-2328
텐데요	-2329
하기도	-2330
▁결과가	-2331
▁굉장히	-2332
▁문재를	-2333
▁부모님	-2334
▁않아요	-2335
▁애들은	-2336
▁없으면	-2337
▁자신의	-2338
▁지나가	-2339
▁최선을	-2340
▁풀어도	-2341
▁고전시가	-2342
▁알았어요	-2343
▁있었어요	-2344
▁하는데요	-2345
▁넌	-2346
▁향	-2347
▁희	-2348
가타	-2349
그러	-2350
도로	-2351
두고	-2352
려보	-2353
르는	-2354
리구	-2355
문이	-2356
서는	-2357
서를	-2358
아주	-2359
어는	-2360
없다	-2361
이든	-2362
이란	-2363
줘야	-2364
지요	-2365
▁구성	-2366
▁국가	-2367
▁나타	-2368
▁멋진	-2369
▁목적	-2370
▁사건	-2371
▁아쉽	-2372
▁약대	-2373
▁어쨌	-2374
▁연결	-2375
▁자리	-2376
▁자유	-2377
▁저만	-2378
▁종이	-2379
▁지키	-2380
▁채워	-2381
▁출제	-2382
▁탐구	-2383
▁파일	-2384
▁필수	-2385
리는데	-2386
만하면	-2387
야겠다	-2388
었네요	-2389
용으로	-2390
으로는	-2391
일까요	-2392
▁것으로	-2393
▁계획을	-2394
▁궁금한	-2395
▁대해서	-2396
▁되네요	-2397
▁떄문에	-2398
▁문제도	-2399
▁봤어요	-2400
▁아니야	-2401
▁처음에	-2402
▁피드백	-2403
▁하니까	-2404
▁감사해요	-2405
▁생각하면	-2406
▁아무것도	-2407
▁학생들이	-2408
▁밖	-2409
▁봉	-2410
▁왕	-2411
▁워	-2412
▁탄	-2413
▁택	-2414
▁트	-2415
▁홍	-2416
거죠	-2417
난다	-2418
롭게	-2419
무리	-2420
분에	-2421
상에	-2422
스가	-2423
아도	-2424
인은	-2425
주의	-2426
학이	-2427
▁경희	-2428
▁과외	-2429
▁구분	-2430
▁끝났	-2431
▁배워	-2432
▁번씩	-2433
▁보구	-2434
▁부산	-2435
▁부정	-2436
▁뿌듯	-2437
▁오른	-2438
▁올렸	-2439
▁유리	-2440
▁조사	-2441
▁좋고	-2442
▁죽을	-2443
▁지우	-2444
▁체계	-2445
▁토론	-2446
▁한두	-2447
▁해당	-2448
때문에	-2449
십니다	-2450
▁게시판	-2451
▁그런가	-2452
▁노트에	-2453
▁데이터	-2454
▁들어보	-2455
▁똑같은	-2456
▁말이야	-2457
▁맞나요	-2458
▁목표를	-2459
▁생기부	-2460
▁아닌데	-2461
▁완전히	-2462
▁잘하고	-2463
▁편하게	-2464
▁프로필	-2465
▁선택과목	-2466
▁부탁드립니다	-2467
▁갗	-2468
▁곧	-2469
▁규	-2470
▁왠	-2471
▁젊	-2472
거면	-2473
당한	-2474
돼서	-2475
듯이	-2476
량이	-2477
로드	-2478
류가	-2479
르고	-2480
었나	-2481
이래	-2482
자도	-2483
졌어	-2484
중간	-2485
히는	-2486
▁공감	-2487
▁괜히	-2488
▁교양	-2489
▁귀여	-2490
▁기말	-2491
▁남겨	-2492
▁다를	-2493
▁단순	-2494
▁답지	-2495
▁많다	-2496
▁뭐라	-2497
▁번도	-2498
▁수고	-2499
▁숙제	-2500
▁안풀	-2501
▁어휘	-2502
▁여유	-2503
▁예상	-2504
▁운전	-2505
▁유지	-2506
▁읽을	-2507
▁잠이	-2508
▁저의	-2509
▁제한	-2510
▁주신	-2511
▁책임	-2512
▁축하	-2513
▁틀렸	-2514
▁학점	-2515
▁해외	-2516
겠다고	-2517
해주실	-2518
▁가고싶	-2519
▁궁금해	-2520
▁들어갈	-2521
▁많은데	-2522
▁바라요	-2523
▁보여주	-2524
▁사람을	-2525
▁시간표	-2526
▁얘기를	-2527
▁있었던	-2528
▁정도면	-2529
▁좋다고	-2530
▁찾아보	-2531
▁학생이	-2532
▁한다면	-2533
▁해주세요	-2534
▁되더라고요	-2535
▁모의고사를	-2536
▁꽃	-2537
▁뜯	-2538
▁묻	-2539
▁짓	-2540
대일	-2541
래서	-2542
셨던	-2543
었을	-2544
이긴	-2545
잡고	-2546
줘서	-2547
체가	-2548
함수	-2549
했고	-2550
혀있	-2551
▁같음	-2552
▁걸릴	-2553
▁구경	-2554
▁길게	-2555
▁놀고	-2556
▁눈치	-2557
▁다녔	-2558
▁답을	-2559
▁도와	-2560
▁동기	-2561
▁둘다	-2562
▁만족	-2563
▁말해	-2564
▁명확	-2565
▁미루	-2566
▁배경	-2567
▁보다	-2568
▁봐서	-2569
▁비싸	-2570
▁심심	-2571
▁쓰지	-2572
▁안정	-2573
▁알겠	-2574
▁양이	-2575
▁어린	-2576
▁완강	-2577
▁위로	-2578
▁이쁘	-2579
▁이젠	-2580
▁있게	-2581
▁있던	-2582
▁저기	-2583
▁조절	-2584
▁지망	-2585
▁챙기	-2586
▁최근	-2587
▁토익	-2588
▁특강	-2589
▁특정	-2590
▁파트	-2591
▁풀기	-2592
▁하긴	-2593
갇아요	-2594
는지는	-2595
려고요	-2596
봤어요	-2597
시는게	-2598
였는데	-2599
이라면	-2600
하시길	-2601
▁공부에	-2602
▁공부해	-2603
▁그것도	-2604
▁그런지	-2605
▁그만큼	-2606
▁끝내고	-2607
▁나네요	-2608
▁나쁘지	-2609
▁댓글로	-2610
▁들으면	-2611
▁못해서	-2612
▁봅니다	-2613
▁부분은	-2614
▁성적을	-2615
▁싫어서	-2616
▁어려울	-2617
▁없네요	-2618
▁인강을	-2619
▁재수생	-2620
▁조금만	-2621
▁중요하	-2622
▁그렇다고	-2623
▁들어가는	-2624
▁선생님들	-2625
▁시험기간	-2626
▁완벽하게	-2627
▁년	-2628
▁놈	-2629
▁됨	-2630
▁빌	-2631
▁샀	-2632
▁쟤	-2633
기업	-2634
느낌	-2635
됀다	-2636
르면	-2637
분들	-2638
여요	-2639
인다	-2640
있어	-2641
책을	-2642
천히	-2643
▁거는	-2644
▁구매	-2645
▁글이	-2646
▁만드	-2647
▁말한	-2648
▁반영	-2649
▁범위	-2650
▁부러	-2651
▁사서	-2652
▁스타	-2653
▁시도	-2654
▁앉아	-2655
▁왔다	-2656
▁자랑	-2657
▁종일	-2658
▁찾는	-2659
▁책에	-2660
▁초반	-2661
▁화장	-2662
▁희망	-2663
들한테	-2664
봅시다	-2665
으로도	-2666
햇는데	-2667
했다고	-2668
▁같기도	-2669
▁덕분에	-2670
▁된다는	-2671
▁들어요	-2672
▁문제만	-2673
▁사람도	-2674
▁안하고	-2675
▁없는데	-2676
▁연예인	-2677
▁영어를	-2678
▁외우는	-2679
▁있는거	-2680
▁천천히	-2681
▁평소에	-2682
▁풀이법	-2683
▁할게요	-2684
▁힘들어	-2685
▁들었어요	-2686
▁선생님의	-2687
▁않습니다	-2688
▁정리해서	-2689
▁지금부터	-2690
▁확진자가	-2691
▁갠	-2692
▁견	-2693
▁맥	-2694
▁븐	-2695
▁핸	-2696
것이	-2697
계획	-2698
께요	-2699
는걸	-2700
되고	-2701
머니	-2702
스쿨	-2703
써요	-2704
이신	-2705
주신	-2706
준다	-2707
지원	-2708
평가	-2709
해두	-2710
▁가요	-2711
▁각각	-2712
▁간호	-2713
▁걔네	-2714
▁거리	-2715
▁결혼	-2716
▁고통	-2717
▁공통	-2718
▁교대	-2719
▁나랑	-2720
▁나면	-2721
▁눈물	-2722
▁당황	-2723
▁도서	-2724
▁동물	-2725
▁말은	-2726
▁미친	-2727
▁방식	-2728
▁버티	-2729
▁선물	-2730
▁소설	-2731
▁심리	-2732
▁아쉬	-2733
▁않으	-2734
▁어찌	-2735
▁언젠	-2736
▁연대	-2737
▁예쁘	-2738
▁요약	-2739
▁원서	-2740
▁인사	-2741
▁작은	-2742
▁쪼끔	-2743
▁채점	-2744
▁체력	-2745
▁친목	-2746
▁표시	-2747
▁허락	-2748
들끼리	-2749
하는건	-2750
▁것들이	-2751
▁꼼꼼히	-2752
▁다니고	-2753
▁달라서	-2754
▁마무리	-2755
▁말라고	-2756
▁목표로	-2757
▁알아야	-2758
▁요즘은	-2759
▁의미가	-2760
▁이유를	-2761
▁일단은	-2762
▁일어났	-2763
▁있네요	-2764
▁중국어	-2765
▁틀리는	-2766
▁학생분	-2767
▁해서요	-2768
해주셔서	-2769
▁기출분석	-2770
▁나을까요	-2771
▁사람들도	-2772
▁생각으로	-2773
▁선생님은	-2774
▁수강신청	-2775
▁어떨까요	-2776
▁여쭤봐도	-2777
하더라고요	-2778
▁죄송합니다	-2779
▁값	-2780
▁블	-2781
▁칠	-2782
▁핵	-2783
▁헤	-2784
가락	-2785
개념	-2786
나게	-2787
대학	-2788
리게	-2789
먹고	-2790
버린	-2791
싶은	-2792
아닌	-2793
의를	-2794
이상	-2795
이죠	-2796
점은	-2797
지어	-2798
필요	-2799
해진	-2800
형은	-2801
▁곳이	-2802
▁관계	-2803
▁나두	-2804
▁나아	-2805
▁날짜	-2806
▁놓고	-2807
▁느낀	-2808
▁될지	-2809
▁두려	-2810
▁때가	-2811
▁많을	-2812
▁말아	-2813
▁맞지	-2814
▁몸이	-2815
▁바람	-2816
▁비해	-2817
▁서술	-2818
▁안된	-2819
▁안맞	-2820
▁안보	-2821
▁안타	-2822
▁역사	-2823
▁욕심	-2824
▁우린	-2825
▁이론	-2826
▁이틀	-2827
▁정부	-2828
▁좋죠	-2829
▁좋지	-2830
▁주간	-2831
▁진찌	-2832
▁책이	-2833
▁초등	-2834
▁클럽	-2835
▁후배	-2836
▁힘이	-2837
거가타	-2838
겠다는	-2839
하는지	-2840
▁같다고	-2841
▁거기에	-2842
▁공부한	-2843
▁관리자	-2844
▁나가는	-2845
▁되니까	-2846
▁듯해요	-2847
▁말씀드	-2848
▁맞아요	-2849
▁맞춰서	-2850
▁못하겠	-2851
▁문제들	-2852
▁사이트	-2853
▁생겨서	-2854
▁시간은	-2855
▁어떡케	-2856
▁어쨌든	-2857
▁없지만	-2858
▁우리는	-2859
▁있고요	-2860
▁자신이	-2861
▁장학금	-2862
▁학원을	-2863
▁관련해서	-2864
▁들었는데	-2865
▁생각해보	-2866
▁생각해서	-2867
▁아니지만	-2868
▁풀었어요	-2869
▁프로그램	-2870
▁마스터님은	-2871
▁마스터님이	-2872
▁하겠습니다	-2873
▁감사하겠습니다	-2874
▁겸	-2875
▁긍	-2876
▁납	-2877
▁녹	-2878
▁멍	-2879
▁밝	-2880
▁잤	-2881
▁협	-2882
각형	-2883
겟어	-2884
디션	-2885
려구	-2886
로만	-2887
바요	-2888
방에	-2889
번호	-2890
애들	-2891
어졌	-2892
어질	-2893
오면	-2894
위권	-2895
음이	-2896
인거	-2897
인트	-2898
자고	-2899
전공	-2900
졍리	-2901
지게	-2902
타고	-2903
특강	-2904
한대	-2905
할것	-2906
▁가신	-2907
▁감정	-2908
▁거고	-2909
▁것들	-2910
▁계신	-2911
▁네일	-2912
▁돈을	-2913
▁돈이	-2914
▁드러	-2915
▁드릴	-2916
▁땜에	-2917
▁발전	-2918
▁번에	-2919
▁비율	-2920
▁수행	-2921
▁시켜	-2922
▁안쓰	-2923
▁안에	-2924
▁알림	-2925
▁애가	-2926
▁애매	-2927
▁어렸	-2928
▁어지	-2929
▁예쁜	-2930
▁우울	-2931
▁유일	-2932
▁작업	-2933
▁저걸	-2934
▁전기	-2935
▁정치	-2936
▁종종	-2937
▁좋게	-2938
▁중이	-2939
▁즐거	-2940
▁지워	-2941
▁집단	-2942
▁출근	-2943
▁충격	-2944
▁커버	-2945
되네요	-2946
떄마다	-2947
있어서	-2948
하거나	-2949
하기가	-2950
▁거고요	-2951
▁것보다	-2952
▁괜찮아	-2953
▁그래두	-2954
▁다음날	-2955
▁댓글을	-2956
▁들어왔	-2957
▁로스쿨	-2958
▁문제룰	-2959
▁보는데	-2960
▁보다가	-2961
▁부분만	-2962
▁분명히	-2963
▁상당히	-2964
▁심지어	-2965
▁싶으면	-2966
▁아니었	-2967
▁어떻개	-2968
▁일대일	-2969
▁질문을	-2970
▁컨텐츠	-2971
▁케이스	-2972
▁푸는게	-2973
▁풀이가	-2974
▁하다가	-2975
▁학교를	-2976
야겠어요	-2977
▁있는데요	-2978
▁친구들은	-2979
하더라구요	-2980
▁부탁드려요	-2981
▁딸	-2982
▁땅	-2983
▁벗	-2984
▁쉴	-2985
▁승	-2986
▁찬	-2987
▁춫	-2988
▁티	-2989
▁훈	-2990
▁흘	-2991
관리	-2992
관이	-2993
놓은	-2994
로운	-2995
버리	-2996
보내	-2997
속에	-2998
시구	-2999
았어	-3000
어들	-3001
음을	-3002
이어	-3003
재가	-3004
줘요	-3005
짜기	-3006
치가	-3007
하던	-3008
▁거래	-3009
▁계시	-3010
▁고마	-3011
▁그저	-3012
▁근거	-3013
▁나의	-3014
▁따뜻	-3015
▁마니	-3016
▁무섭	-3017
▁문화	-3018
▁바꿨	-3019
▁방해	-3020
▁번째	-3021
▁빡세	-3022
▁스토	-3023
▁신입	-3024
▁신촌	-3025
▁써도	-3026
▁알람	-3027
▁어릴	-3028
▁얼른	-3029
▁여름	-3030
▁영역	-3031
▁완료	-3032
▁의심	-3033
▁이겨	-3034
▁이동	-3035
▁일정	-3036
▁자퇴	-3037
▁장난	-3038
▁전자	-3039
▁제출	-3040
▁주장	-3041
▁중심	-3042
▁편이	-3043
▁한거	-3044
▁해봤	-3045
▁화면	-3046
▁힘내	-3047
가면서	-3048
나네요	-3049
웠는데	-3050
있으면	-3051
해지면	-3052
▁갑짜기	-3053
▁다르게	-3054
▁떨어졌	-3055
▁상황에	-3056
▁생각도	-3057
▁생각은	-3058
▁설명해	-3059
▁어려움	-3060
▁억지로	-3061
▁에너지	-3062
▁영향을	-3063
▁오늘도	-3064
▁이것도	-3065
▁이정도	-3066
▁일부러	-3067
▁있도록	-3068
▁정보를	-3069
▁지문이	-3070
▁포인트	-3071
▁하나씩	-3072
▁하는대	-3073
▁하셔서	-3074
었는데요	-3075
▁괜찮아요	-3076
▁기숙학원	-3077
▁꼼꼼하게	-3078
▁모르겠어	-3079
▁알았는데	-3080
▁중입니다	-3081
▁마스터님도	-3082
▁모르겠지만	-3083
▁보겠습니다	-3084
▁격	-3085
▁낯	-3086
▁셤	-3087
▁줬	-3088
▁홈	-3089
갔다	-3090
달라	-3091
되서	-3092
떄는	-3093
린트	-3094
볼까	-3095
스템	-3096
시작	-3097
싶어	-3098
원은	-3099
이기	-3100
일은	-3101
저히	-3102
주고	-3103
주에	-3104
중이	-3105
찌만	-3106
치면	-3107
팩트	-3108
하러	-3109
할때	-3110
햇어	-3111
▁가격	-3112
▁가까	-3113
▁겁나	-3114
▁것에	-3115
▁결론	-3116
▁고등	-3117
▁과거	-3118
▁교사	-3119
▁그려	-3120
▁긍정	-3121
▁논리	-3122
▁달려	-3123
▁담임	-3124
▁대구	-3125
▁대화	-3126
▁막상	-3127
▁맥락	-3128
▁머릿	-3129
▁먹을	-3130
▁먼가	-3131
▁모른	-3132
▁못할	-3133
▁무료	-3134
▁배울	-3135
▁변환	-3136
▁보냈	-3137
▁분탕	-3138
▁세계	-3139
▁쉽지	-3140
▁아픈	-3141
▁안가	-3142
▁앞에	-3143
▁없애	-3144
▁없지	-3145
▁연애	-3146
▁옛날	-3147
▁완성	-3148
▁왠지	-3149
▁요새	-3150
▁이재	-3151
▁이전	-3152
▁일을	-3153
▁있죠	-3154
▁자는	-3155
▁자존	-3156
▁잠잠	-3157
▁정상	-3158
▁주고	-3159
▁주관	-3160
▁지난	-3161
▁찍어	-3162
▁취소	-3163
▁한자	-3164
▁할거	-3165
▁할까	-3166
▁핵심	-3167
▁확률	-3168
갑니다	-3169
는거야	-3170
다는거	-3171
다보면	-3172
부분이	-3173
부터는	-3174
사람들	-3175
셨어요	-3176
지하게	-3177
하거든	-3178
▁강의는	-3179
▁경험을	-3180
▁과목은	-3181
▁관련된	-3182
▁내용은	-3183
▁넘어가	-3184
▁노력을	-3185
▁도움을	-3186
▁등급이	-3187
▁머리에	-3188
▁몰라요	-3189
▁문제르	-3190
▁배우고	-3191
▁사회적	-3192
▁수능날	-3193
▁안되고	-3194
▁이유는	-3195
▁잘못된	-3196
▁재밌는	-3197
▁점수를	-3198
▁칼럼을	-3199
▁편이라	-3200
▁프린트	-3201
▁하고요	-3202
▁한데요	-3203
▁확신이	-3204
▁간단하게	-3205
▁교육과정	-3206
▁문제집을	-3207
▁생각하지	-3208
▁수능특강	-3209
▁읽으면서	-3210
▁초등학교	-3211
▁추천해요	-3212
▁있으신가요	-3213
▁좋겠습니다	-3214
▁추천드려요	-3215
▁추천합니다	-3216
▁꼴	-3217
▁널	-3218
▁러	-3219
▁삽	-3220
▁잃	-3221
▁혐	-3222
걸요	-3223
겟지	-3224
겠네	-3225
내기	-3226
드폰	-3227
려나	-3228
무실	-3229
서울	-3230
성에	-3231
시죠	-3232
우기	-3233
잇어	-3234
자인	-3235
정리	-3236
정보	-3237
조차	-3238
치기	-3239
하네	-3240
하라	-3241
하루	-3242
하진	-3243
한가	-3244
했대	-3245
▁가도	-3246
▁공무	-3247
▁교원	-3248
▁그분	-3249
▁근디	-3250
▁깨달	-3251
▁남아	-3252
▁너가	-3253
▁다운	-3254
▁때려	-3255
▁멋있	-3256
▁몇개	-3257
▁무리	-3258
▁미안	-3259
▁방송	-3260
▁보러	-3261
▁사야	-3262
▁설정	-3263
▁슬프	-3264
▁실패	-3265
▁않게	-3266
▁오랜	-3267
▁오를	-3268
▁의식	-3269
▁이럴	-3270
▁자동	-3271
▁점이	-3272
▁조교	-3273
▁주로	-3274
▁치는	-3275
▁코딩	-3276
떄문에	-3277
시간을	-3278
십니까	-3279
인지는	-3280
하라는	-3281
한데요	-3282
해주는	-3283
▁가타서	-3284
▁감으로	-3285
▁건데요	-3286
▁결과를	-3287
▁공부만	-3288
▁관심이	-3289
▁댓글이	-3290
▁된다면	-3291
▁들어갔	-3292
▁따라가	-3293
▁마음에	-3294
▁말씀해	-3295
▁문제에	-3296
▁문학을	-3297
▁받아야	-3298
▁보세요	-3299
▁사람의	-3300
▁성적은	-3301
▁수시로	-3302
▁시간도	-3303
▁아는데	-3304
▁이미지	-3305
▁이제는	-3306
▁있겠죠	-3307
▁있잖아	-3308
▁재밌게	-3309
▁저희는	-3310
▁좋을지	-3311
▁중인데	-3312
▁질문이	-3313
▁컨디션	-3314
▁학교는	-3315
▁핸드폰	-3316
▁햇어요	-3317
겠씁니다	-3318
으니까요	-3319
하셨는지	-3320
▁가능성이	-3321
▁공부하기	-3322
▁그러니까	-3323
▁나머지는	-3324
▁난이도가	-3325
▁만들어서	-3326
▁생명과학	-3327
▁웬만하면	-3328
▁풀어보는	-3329
▁현역으로	-3330
▁있더라고요	-3331
▁꽉	-3332
▁낙	-3333
▁밟	-3334
▁북	-3335
▁석	-3336
▁섞	-3337
▁싹	-3338
▁왼	-3339
▁척	-3340
▁측	-3341
▁캡	-3342
▁홀	-3343
기사	-3344
능이	-3345
대비	-3346
되었	-3347
들의	-3348
만히	-3349
모가	-3350
문과	-3351
미다	-3352
씸히	-3353
어진	-3354
여야	-3355
오늘	-3356
온다	-3357
인공	-3358
있고	-3359
잔아	-3360
장에	-3361
지기	-3362
채점	-3363
학을	-3364
한건	-3365
▁가진	-3366
▁각자	-3367
▁개강	-3368
▁거긴	-3369
▁골라	-3370
▁공대	-3371
▁구체	-3372
▁그쪽	-3373
▁기계	-3374
▁끝난	-3375
▁날아	-3376
▁늘어	-3377
▁님도	-3378
▁되요	-3379
▁두고	-3380
▁만났	-3381
▁먹었	-3382
▁모를	-3383
▁몰라	-3384
▁문항	-3385
▁미치	-3386
▁박사	-3387
▁반도	-3388
▁비중	-3389
▁수면	-3390
▁스케	-3391
▁않나	-3392
▁예습	-3393
▁예정	-3394
▁외부	-3395
▁유용	-3396
▁읽어	-3397
▁자제	-3398
▁잘할	-3399
▁전달	-3400
▁젊은	-3401
▁제작	-3402
▁졸리	-3403
▁지내	-3404
▁지켜	-3405
▁체육	-3406
▁취미	-3407
▁친한	-3408
▁통화	-3409
▁투표	-3410
▁풀릴	-3411
▁학벌	-3412
는거지	-3413
다는데	-3414
드라구	-3415
렸어요	-3416
시고요	-3417
시면서	-3418
쓸까요	-3419
어서요	-3420
웠어요	-3421
이지만	-3422
있는데	-3423
주셔서	-3424
하지않	-3425
▁가채점	-3426
▁거니까	-3427
▁경희대	-3428
▁과정이	-3429
▁기출은	-3430
▁기출이	-3431
▁내신은	-3432
▁너머ᅥ	-3433
▁도서관	-3434
▁떨어진	-3435
▁말하고	-3436
▁맞는지	-3437
▁뭔가요	-3438
▁상황을	-3439
▁새벽에	-3440
▁수능에	-3441
▁수능을	-3442
▁수능이	-3443
▁시험을	-3444
▁실수를	-3445
▁아니지	-3446
▁아시는	-3447
▁안돼요	-3448
▁안된다	-3449
▁연습을	-3450
▁열씸히	-3451
▁온라인	-3452
▁올리고	-3453
▁올리는	-3454
▁유명한	-3455
▁일반고	-3456
▁일요일	-3457
▁있어도	-3458
▁있었어	-3459
▁정시를	-3460
▁지금도	-3461
▁쪽으로	-3462
▁페이스	-3463
▁풀어야	-3464
▁했으면	-3465
▁혼자서	-3466
▁공부하러	-3467
▁궁금하신	-3468
▁깔끔하게	-3469
▁마지막에	-3470
▁보이네요	-3471
▁아니라서	-3472
▁앞으로도	-3473
▁일주일에	-3474
▁중간중간	-3475
▁친구들이	-3476
▁플래너를	-3477
▁했는데요	-3478
▁상대적으로	-3479
▁생각하시는	-3480
▁전체적으로	-3481
▁풀었습니다	-3482
▁굴	-3483
▁던	-3484
▁뒷	-3485
▁떼	-3486
▁및	-3487
▁뻔	-3488
▁셋	-3489
▁좌	-3490
▁황	-3491
거라	-3492
것두	-3493
관계	-3494
그래	-3495
나면	-3496
냐구	-3497
단어	-3498
대면	-3499
려는	-3500
리에	-3501
많이	-3502
선이	-3503
수는	-3504
수로	-3505
슴다	-3506
아보	-3507
약을	-3508
에대	-3509
위를	-3510
이런	-3511
잇는	-3512
있을	-3513
자들	-3514
저것	-3515
주도	-3516
지문	-3517
차가	-3518
차별	-3519
한것	-3520
▁감각	-3521
▁개발	-3522
▁공간	-3523
▁그럿	-3524
▁금지	-3525
▁기업	-3526
▁날이	-3527
▁남는	-3528
▁대박	-3529
▁돌리	-3530
▁드라	-3531
▁드립	-3532
▁든다	-3533
▁따른	-3534
▁만날	-3535
▁만화	-3536
▁말투	-3537
▁맞을	-3538
▁몇번	-3539
▁몰래	-3540
▁문단	-3541
▁백지	-3542
▁변화	-3543
▁보게	-3544
▁보지	-3545
▁복수	-3546
▁빠른	-3547
▁사망	-3548
▁상상	-3549
▁성격	-3550
▁세워	-3551
▁스터	-3552
▁안들	-3553
▁않다	-3554
▁오면	-3555
▁오해	-3556
▁욕먹	-3557
▁입력	-3558
▁잡혀	-3559
▁장소	-3560
▁제시	-3561
▁주의	-3562
▁주재	-3563
▁직업	-3564
▁찍은	-3565
▁챙겨	-3566
▁타고	-3567
▁푼다	-3568
▁풀리	-3569
▁현장	-3570
까지만	-3571
떄까지	-3572
받아서	-3573
사람이	-3574
셨는데	-3575
에대한	-3576
으세요	-3577
해져서	-3578
했다는	-3579
...!	-3580
▁가튼데	-3581
▁고민해	-3582
▁국어를	-3583
▁그동안	-3584
▁그러고	-3585
▁그렇지	-3586
▁나가서	-3587
▁단어를	-3588
▁달라요	-3589
▁대학생	-3590
▁마음을	-3591
▁모르고	-3592
▁목소리	-3593
▁못하고	-3594
▁분석을	-3595
▁생기는	-3596
▁성적표	-3597
▁수밖에	-3598
▁수업에	-3599
▁아파트	-3600
▁알아요	-3601
▁앞에서	-3602
▁어떡게	-3603
▁어렵게	-3604
▁언니가	-3605
▁왔는데	-3606
▁의견을	-3607
▁인서울	-3608
▁입니다	-3609
▁재수를	-3610
▁정도가	-3611
▁정도만	-3612
▁정도의	-3613
▁좋나요	-3614
▁주간지	-3615
▁주변에	-3616
▁줄어들	-3617
▁최근에	-3618
▁텐데요	-3619
▁푸는데	-3620
▁한번도	-3621
▁해야지	-3622
모의고사	-3623
버렸어요	-3624
야겠네요	-3625
이라서요	-3626
이었어요	-3627
▁것입니다	-3628
▁경영학과	-3629
▁마스크를	-3630
▁방식으로	-3631
▁비슷하게	-3632
▁사람한테	-3633
▁싶어서요	-3634
▁아니라면	-3635
▁없었어요	-3636
▁오늘부터	-3637
▁이것저것	-3638
▁진지하게	-3639
▁마스터님의	-3640
▁있었습니다	-3641
▁있으니까요	-3642
▁조금이라도	-3643
▁마스터님처럼	-3644
▁곡	-3645
▁괴	-3646
▁냄	-3647
▁벼	-3648
▁씻	-3649
▁염	-3650
▁칸	-3651
▁퀄	-3652
▁품	-3653
▁힐	-3654
가야	-3655
관련	-3656
근차	-3657
나고	-3658
내서	-3659
논술	-3660
데로	-3661
라스	-3662
럼프	-3663
리티	-3664
메라	-3665
받아	-3666
법이	-3667
사에	-3668
사회	-3669
서나	-3670
시기	-3671
식도	-3672
어가	-3673
없어	-3674
였던	-3675
였음	-3676
용이	-3677
웠던	-3678
으론	-3679
일까	-3680
일을	-3681
자면	-3682
장님	-3683
저씨	-3684
점도	-3685
점에	-3686
종일	-3687
준비	-3688
테니	-3689
피티	-3690
학기	-3691
했을	-3692
▁가치	-3693
▁같고	-3694
▁거짓	-3695
▁경찰	-3696
▁교차	-3697
▁국민	-3698
▁글로	-3699
▁나간	-3700
▁나갈	-3701
▁논란	-3702
▁단계	-3703
▁답답	-3704
▁대응	-3705
▁되나	-3706
▁두번	-3707
▁따지	-3708
▁마치	-3709
▁많고	-3710
▁말구	-3711
▁맞게	-3712
▁맞은	-3713
▁모아	-3714
▁문의	-3715
▁뭐든	-3716
▁바꿀	-3717
▁반가	-3718
▁반응	-3719
▁발견	-3720
▁밤에	-3721
▁범죄	-3722
▁봤다	-3723
▁붙여	-3724
▁비밀	-3725
▁비판	-3726
▁상처	-3727
▁생길	-3728
▁소화	-3729
▁수의	-3730
▁쉬고	-3731
▁실기	-3732
▁안됐	-3733
▁알구	-3734
▁약한	-3735
▁억울	-3736
▁예시	-3737
▁오후	-3738
▁워낙	-3739
▁일상	-3740
▁저장	-3741
▁조급	-3742
▁조용	-3743
▁졸릴	-3744
▁좋았	-3745
▁주기	-3746
▁줄은	-3747
▁중앙	-3748
▁추쳔	-3749
▁취향	-3750
▁치고	-3751
▁치료	-3752
▁타이	-3753
▁틀리	-3754
▁평균	-3755
▁하니	-3756
▁현강	-3757
▁형광	-3758
▁흔들	-3759
▁힐링	-3760
가타요	-3761
근차근	-3762
다는게	-3763
대에서	-3764
되나요	-3765
렸는데	-3766
사람은	-3767
시네요	-3768
아니라	-3769
으면좋	-3770
이러스	-3771
있는거	-3772
자들이	-3773
하고요	-3774
하눈데	-3775
한테도	-3776
했네요	-3777
▁갇아요	-3778
▁거잖아	-3779
▁끝나면	-3780
▁나눠서	-3781
▁나오고	-3782
▁노트북	-3783
▁대단한	-3784
▁독서는	-3785
▁됐어요	-3786
▁드네요	-3787
▁들었다	-3788
▁모두가	-3789
▁무서워	-3790
▁문과로	-3791
▁물어본	-3792
▁물어봐	-3793
▁방식이	-3794
▁베이스	-3795
▁보네요	-3796
▁새내기	-3797
▁스터디	-3798
▁슬럼프	-3799
▁시스템	-3800
▁싶기도	-3801
▁업로드	-3802
▁올리면	-3803
▁이해를	-3804
▁인터뷰	-3805
▁있으실	-3806
▁적어도	-3807
▁적어서	-3808
▁정확한	-3809
▁주인공	-3810
▁준비할	-3811
▁지문은	-3812
▁집중을	-3813
▁찍어서	-3814
▁테스트	-3815
▁풀었던	-3816
▁피피티	-3817
▁하셔도	-3818
▁해설지	-3819
▁해야할	-3820
▁햇는데	-3821
신건가요	-3822
▁그러는데	-3823
▁마스터가	-3824
▁많습니다	-3825
▁부모님이	-3826
▁분위기가	-3827
▁생각한다	-3828
▁싶었는데	-3829
▁이용해서	-3830
▁자신감이	-3831
▁차근차근	-3832
▁하루종일	-3833
,,	-3834
▁띄	-3835
▁쇼	-3836
▁옴	-3837
▁칭	-3838
거다	-3839
게도	-3840
경우	-3841
과를	-3842
려있	-3843
만이	-3844
문재	-3845
버지	-3846
사고	-3847
사나	-3848
사도	-3849
상담	-3850
생들	-3851
시지	-3852
아이	-3853
애가	-3854
여행	-3855
운데	-3856
인을	-3857
인줄	-3858
입장	-3859
지말	-3860
책이	-3861
편이	-3862
히고	-3863
▁감염	-3864
▁강이	-3865
▁걸어	-3866
▁겨우	-3867
▁고맙	-3868
▁기존	-3869
▁나누	-3870
▁나쁜	-3871
▁넣어	-3872
▁늘리	-3873
▁다뤄	-3874
▁대처	-3875
▁도망	-3876
▁돌려	-3877
▁둘이	-3878
▁드는	-3879
▁반대	-3880
▁밥먹	-3881
▁법을	-3882
▁본다	-3883
▁봉사	-3884
▁성장	-3885
▁소비	-3886
▁손이	-3887
▁숫자	-3888
▁심한	-3889
▁아래	-3890
▁악필	-3891
▁안내	-3892
▁알바	-3893
▁없었	-3894
▁의도	-3895
▁이쪽	-3896
▁인식	-3897
▁저게	-3898
▁제외	-3899
▁졍리	-3900
▁좋다	-3901
▁주무	-3902
▁채우	-3903
▁팩트	-3904
▁하던	-3905
▁한강	-3906
▁혐오	-3907
▁후에	-3908
는대요	-3909
되는지	-3910
때마다	-3911
보니까	-3912
스러운	-3913
시다니	-3914
점에서	-3915
정도로	-3916
하다는	-3917
하려면	-3918
하지는	-3919
한다구	-3920
해지고	-3921
했으면	-3922
▁가는게	-3923
▁개념은	-3924
▁걸까요	-3925
▁공부했	-3926
▁그래요	-3927
▁나온다	-3928
▁내년엔	-3929
▁누르면	-3930
▁답변을	-3931
▁되는거	-3932
▁드라마	-3933
▁들어간	-3934
▁떨어질	-3935
▁러시아	-3936
▁물어볼	-3937
▁미디어	-3938
▁바래요	-3939
▁방법도	-3940
▁변화가	-3941
▁복습을	-3942
▁부분에	-3943
▁서울에	-3944
▁손가락	-3945
▁시기가	-3946
▁시험지	-3947
▁신입생	-3948
▁아저씨	-3949
▁안나오	-3950
▁안돼서	-3951
▁않았다	-3952
▁어렵지	-3953
▁어쩌다	-3954
▁여러번	-3955
▁외우고	-3956
▁의지가	-3957
▁이름이	-3958
▁인간이	-3959
▁정해진	-3960
▁학원에	-3961
▁했지만	-3962
하셨으면	-3963
▁가타서요	-3964
▁공부하다	-3965
▁느낌으로	-3966
▁떨어지는	-3967
▁모르는데	-3968
▁방법으로	-3969
▁이상하게	-3970
▁중요하지	-3971
▁진심으로	-3972
▁칼럼으로	-3973
▁코로나가	-3974
▁하루하루	-3975
▁생각했는데	-3976
▁올려볼게요	-3977
▁하더라구요	-3978
▁겪	-3979
▁깜	-3980
▁딲	-3981
▁라	-3982
▁레	-3983
▁몃	-3984
▁뵙	-3985
▁샤	-3986
▁쏟	-3987
▁엉	-3988
▁웹	-3989
▁쫓	-3990
▁탭	-3991
가도	-3992
가를	-3993
감은	-3994
겁게	-3995
교재	-3996
기출	-3997
나봐	-3998
던가	-3999
도안	-4000
두면	-4001
듯요	-4002
디컬	-4003
라니	-4004
랑은	-4005
리라	-4006
만의	-4007
받을	-4008
벤트	-4009
분위	-4010
성도	-4011
셨다	-4012
수학	-4013
스레	-4014
쓰면	-4015
안이	-4016
업을	-4017
왔다	-4018
움직	-4019
위로	-4020
위해	-4021
의미	-4022
이네	-4023
이없	-4024
일로	-4025
있게	-4026
자의	-4027
작권	-4028
전을	-4029
제가	-4030
젝트	-4031
주면	-4032
통령	-4033
학부	-4034
해볼	-4035
헸어	-4036
형을	-4037
▁갔을	-4038
▁검증	-4039
▁검토	-4040
▁고쳐	-4041
▁공시	-4042
▁공식	-4043
▁귀한	-4044
▁그에	-4045
▁근본	-4046
▁기사	-4047
▁기흉	-4048
▁깊게	-4049
▁끼고	-4050
▁나요	-4051
▁나은	-4052
▁납득	-4053
▁내는	-4054
▁너도	-4055
▁너희	-4056
▁높아	-4057
▁능력	-4058
▁다루	-4059
▁달리	-4060
▁달아	-4061
▁더욱	-4062
▁동갑	-4063
▁되죠	-4064
▁두개	-4065
▁뒤집	-4066
▁떄는	-4067
▁맞나	-4068
▁맞아	-4069
▁매번	-4070
▁못풀	-4071
▁못해	-4072
▁미련	-4073
▁바닥	-4074
▁바랄	-4075
▁바빠	-4076
▁버렸	-4077
▁봤을	-4078
▁빠져	-4079
▁빠지	-4080
▁사담	-4081
▁살고	-4082
▁살펴	-4083
▁생겨	-4084
▁세우	-4085
▁속상	-4086
▁수증	-4087
▁스킬	-4088
▁실제	-4089
▁실천	-4090
▁싫은	-4091
▁심사	-4092
▁쓰기	-4093
▁쓴다	-4094
▁쓸데	-4095
▁아름	-4096
▁암튼	-4097
▁얻은	-4098
▁연산	-4099
▁옆에	-4100
▁유사	-4101
▁응시	-4102
▁의료	-4103
▁이때	-4104
▁이를	-4105
▁인공	-4106
▁인종	-4107
▁일도	-4108
▁입을	-4109
▁잇는	-4110
▁작가	-4111
▁잠시	-4112
▁재고	-4113
▁저러	-4114
▁저를	-4115
▁적극	-4116
▁조선	-4117
▁좋긴	-4118
▁지적	-4119
▁집착	-4120
▁짧은	-4121
▁참석	-4122
▁찾고	-4123
▁축구	-4124
▁치면	-4125
▁치환	-4126
▁칭찬	-4127
▁파는	-4128
▁폐쇄	-4129
▁포함	-4130
▁하늘	-4131
▁해본	-4132
▁했고	-4133
▁화가	-4134
▁회계	-4135
공부를	-4136
교육과	-4137
분들이	-4138
시키는	-4139
옵니다	-4140
으로나	-4141
으셔서	-4142
집니다	-4143
하셔야	-4144
해보는	-4145
▁가능할	-4146
▁것이다	-4147
▁골라서	-4148
▁공부도	-4149
▁그거는	-4150
▁금요일	-4151
▁넣어서	-4152
▁능력이	-4153
▁답변해	-4154
▁대학원	-4155
▁댓글에	-4156
▁따라서	-4157
▁똑같이	-4158
▁만들고	-4159
▁만약에	-4160
▁메디컬	-4161
▁모르게	-4162
▁목적이	-4163
▁못했던	-4164
▁보고서	-4165
▁복잡한	-4166
▁본인의	-4167
▁부분도	-4168
▁뽑아서	-4169
▁세상에	-4170
▁수학만	-4171
▁아빠가	-4172
▁아파서	-4173
▁안해도	-4174
▁않는다	-4175
▁않지만	-4176
▁알림이	-4177
▁알아보	-4178
▁알았어	-4179
▁어렸을	-4180
▁없나요	-4181
▁연습할	-4182
▁영상을	-4183
▁완벽히	-4184
▁이름을	-4185
▁이번주	-4186
▁이벤트	-4187
▁자신을	-4188
▁적당한	-4189
▁전까지	-4190
▁정리를	-4191
▁좋아서	-4192
▁주말에	-4193
▁주시는	-4194
▁집중력	-4195
▁최소한	-4196
▁퀄리티	-4197
▁토요일	-4198
▁풀어서	-4199
▁하라고	-4200
▁한문제	-4201
▁했다는	-4202
▁현역떄	-4203
▁확실한	-4204
이었는데	-4205
▁고등학생	-4206
▁고마워요	-4207
▁귀찮아서	-4208
▁그렇지만	-4209
▁기준으로	-4210
▁마스터로	-4211
▁마인드로	-4212
▁맞을까요	-4213
▁보셨나요	-4214
▁부족해서	-4215
▁사용하는	-4216
▁어려워요	-4217
▁있으니까	-4218
▁집중해서	-4219
▁구체적으로	-4220
▁되더라구요	-4221
▁선생님께서	-4222
▁있을거에요	-4223
▁자연스럽게	-4224
▁중요합니다	-4225
▁껴	-4226
▁닫	-4227
▁맡	-4228
▁몆	-4229
▁짐	-4230
▁짝	-4231
▁쳤	-4232
▁팀	-4233
가격	-4234
거요	-4235
거임	-4236
거지	-4237
겠음	-4238
고있	-4239
교대	-4240
구를	-4241
놓는	-4242
는디	-4243
다녀	-4244
다닐	-4245
던지	-4246
듣고	-4247
들에	-4248
등급	-4249
따라	-4250
러서	-4251
럽게	-4252
레이	-4253
마니	-4254
머리	-4255
버릴	-4256
법은	-4257
법을	-4258
상은	-4259
상태	-4260
성은	-4261
신거	-4262
신을	-4263
십다	-4264
었죠	-4265
연습	-4266
인것	-4267
자나	-4268
장도	-4269
투리	-4270
포트	-4271
풀이	-4272
했나	-4273
▁가실	-4274
▁게속	-4275
▁결합	-4276
▁계약	-4277
▁관한	-4278
▁글은	-4279
▁기반	-4280
▁꿀팁	-4281
▁날은	-4282
▁남기	-4283
▁남이	-4284
▁내야	-4285
▁놀라	-4286
▁달성	-4287
▁대표	-4288
▁때만	-4289
▁떠올	-4290
▁뜯어	-4291
▁많지	-4292
▁맞죠	-4293
▁믿고	-4294
▁번역	-4295
▁북한	-4296
▁쉬워	-4297
▁슬슬	-4298
▁습득	-4299
▁시엄	-4300
▁실시	-4301
▁써먹	-4302
▁안올	-4303
▁안하	-4304
▁않겠	-4305
▁어긋	-4306
▁없긴	-4307
▁오픈	-4308
▁외울	-4309
▁위치	-4310
▁유치	-4311
▁이대	-4312
▁이따	-4313
▁인문	-4314
▁인원	-4315
▁잇ᄉ	-4316
▁자취	-4317
▁잠을	-4318
▁재일	-4319
▁저격	-4320
▁전형	-4321
▁점검	-4322
▁제품	-4323
▁종합	-4324
▁좋음	-4325
▁주면	-4326
▁준다	-4327
▁중고	-4328
▁즐기	-4329
▁지리	-4330
▁처리	-4331
▁타임	-4332
▁테니	-4333
▁특성	-4334
▁편입	-4335
▁풀다	-4336
▁필통	-4337
▁하든	-4338
▁학년	-4339
▁했을	-4340
▁행정	-4341
▁형님	-4342
▁휴학	-4343
가지고	-4344
거라고	-4345
거예요	-4346
깁니다	-4347
들에게	-4348
버려서	-4349
사에서	-4350
셨네요	-4351
없어서	-4352
엇는데	-4353
으로만	-4354
정도는	-4355
페이지	-4356
하기는	-4357
하기로	-4358
하는것	-4359
한다면	-4360
한대요	-4361
합시다	-4362
해서는	-4363
▁가려고	-4364
▁가만히	-4365
▁가세요	-4366
▁간단한	-4367
▁같은거	-4368
▁거리가	-4369
▁경우도	-4370
▁교육학	-4371
▁교재는	-4372
▁교재를	-4373
▁그러다	-4374
▁기간이	-4375
▁내신을	-4376
▁너머가	-4377
▁노력해	-4378
▁노트를	-4379
▁다니면	-4380
▁대통령	-4381
▁대학은	-4382
▁대학이	-4383
▁동시에	-4384
▁디자인	-4385
▁먹으면	-4386
▁몇시간	-4387
▁목표가	-4388
▁방법은	-4389
▁보여요	-4390
▁볼게요	-4391
▁분들도	-4392
▁비교해	-4393
▁사이에	-4394
▁생각만	-4395
▁소리가	-4396
▁시끄러	-4397
▁안타깝	-4398
▁어렵다	-4399
▁언제나	-4400
▁없으니	-4401
▁여기는	-4402
▁옆에서	-4403
▁올라오	-4404
▁의사가	-4405
▁잇나요	-4406
▁있거든	-4407
▁자세한	-4408
▁재수강	-4409
▁저보다	-4410
▁저에게	-4411
▁전공이	-4412
▁전부터	-4413
▁좋을거	-4414
▁준비해	-4415
▁친구도	-4416
▁하기로	-4417
▁한번씩	-4418
▁해보고	-4419
▁형광펜	-4420
▁화장실	-4421
▁효과가	-4422
것같아요	-4423
겠습나다	-4424
겠습니디	-4425
기보다는	-4426
드라구요	-4427
였습니다	-4428
웠습니다	-4429
으셨나요	-4430
하시는게	-4431
▁궁금해서	-4432
▁기본적인	-4433
▁넘어가는	-4434
▁느낌이라	-4435
▁대부분이	-4436
▁말씀하신	-4437
▁모르겠음	-4438
▁문제들은	-4439
▁문제들을	-4440
▁싶습니다	-4441
▁언제까지	-4442
▁언제부터	-4443
▁엄청나게	-4444
▁푸셨나요	-4445
▁하셨어요	-4446
▁가능한가요	-4447
▁같더라고요	-4448
▁다행이에요	-4449
▁독서실에서	-4450
▁되었습니다	-4451
▁마스터님들	-4452
▁우리나라는	-4453
▁잇ᄉ을까요	-4454
?!	-4455
▁걷	-4456
▁닮	-4457
▁멈	-4458
▁묵	-4459
▁벽	-4460
▁브	-4461
▁옳	-4462
▁육	-4463
▁좁	-4464
▁찢	-4465
▁틈	-4466
▁펴	-4467
▁푹	-4468
▁풍	-4469
▁헐	-4470
▁흑	-4471
거래	-4472
과의	-4473
구먼	-4474
국어	-4475
기술	-4476
까봐	-4477
내고	-4478
니닷	-4479
다시	-4480
다음	-4481
되게	-4482
마트	-4483
목고	-4484
물을	-4485
받는	-4486
사라	-4487
사항	-4488
서트	-4489
성적	-4490
세대	-4491
소설	-4492
시니	-4493
십쇼	-4494
쓰는	-4495
없고	-4496
엇다	-4497
엇어	-4498
연히	-4499
웨어	-4500
유가	-4501
의가	-4502
잇다	-4503
자극	-4504
자로	-4505
자료	-4506
장은	-4507
졌다	-4508
주가	-4509
주실	-4510
지개	-4511
책도	-4512
치지	-4513
코드	-4514
판에	-4515
학습	-4516
할수	-4517
해석	-4518
▁가정	-4519
▁간접	-4520
▁감동	-4521
▁거로	-4522
▁거부	-4523
▁거요	-4524
▁걸린	-4525
▁경기	-4526
▁계열	-4527
▁계정	-4528
▁고급	-4529
▁공동	-4530
▁공인	-4531
▁과연	-4532
▁괜찬	-4533
▁교환	-4534
▁국내	-4535
▁극한	-4536
▁기원	-4537
▁길을	-4538
▁끝낸	-4539
▁날씨	-4540
▁남의	-4541
▁낫지	-4542
▁낮잠	-4543
▁낯선	-4544
▁내면	-4545
▁냄새	-4546
▁넘무	-4547
▁눈에	-4548
▁님은	-4549
▁다닌	-4550
▁달러	-4551
▁당사	-4552
▁대상	-4553
▁대전	-4554
▁동생	-4555
▁두통	-4556
▁떠들	-4557
▁떠오	-4558
▁마감	-4559
▁마나	-4560
▁마라	-4561
▁마주	-4562
▁막막	-4563
▁만에	-4564
▁말자	-4565
▁말할	-4566
▁매체	-4567
▁메모	-4568
▁멘토	-4569
▁모집	-4570
▁믄제	-4571
▁믿어	-4572
▁바뀐	-4573
▁바쁘	-4574
▁바이	-4575
▁백화	-4576
▁버스	-4577
▁버텨	-4578
▁번호	-4579
▁베트	-4580
▁보완	-4581
▁본과	-4582
▁분은	-4583
▁불쌍	-4584
▁사업	-4585
▁삶의	-4586
▁서강	-4587
▁서버	-4588
▁석사	-4589
▁선을	-4590
▁성취	-4591
▁세부	-4592
▁수술	-4593
▁순수	-4594
▁식당	-4595
▁실질	-4596
▁심각	-4597
▁싶을	-4598
▁싸우	-4599
▁아냐	-4600
▁안됨	-4601
▁어딜	-4602
▁어른	-4603
▁연관	-4604
▁연속	-4605
▁연휴	-4606
▁예비	-4607
▁예술	-4608
▁올랐	-4609
▁옮겨	-4610
▁옮기	-4611
▁욕은	-4612
▁울고	-4613
▁움직	-4614
▁유학	-4615
▁의무	-4616
▁의지	-4617
▁이어	-4618
▁이에	-4619
▁인기	-4620
▁일은	-4621
▁자도	-4622
▁자소	-4623
▁자작	-4624
▁재가	-4625
▁재능	-4626
▁적게	-4627
▁적고	-4628
▁적는	-4629
▁전제	-4630
▁절반	-4631
▁접수	-4632
▁조아	-4633
▁주위	-4634
▁줄여	-4635
▁중극	-4636
▁지도	-4637
▁지식	-4638
▁진작	-4639
▁질병	-4640
▁짧게	-4641
▁찾을	-4642
▁책상	-4643
▁철학	-4644
▁최악	-4645
▁최종	-4646
▁출신	-4647
▁춫천	-4648
▁취급	-4649
▁치대	-4650
▁크기	-4651
▁큰일	-4652
▁틀릴	-4653
▁편은	-4654
▁표준	-4655
▁표지	-4656
▁한건	-4657
▁한극	-4658
▁한심	-4659
▁한참	-4660
▁혹은	-4661
▁휴가	-4662
▁힘을	-4663
갔어요	-4664
기에는	-4665
나봐요	-4666
는거같	-4667
다니는	-4668
되는데	-4669
릅니다	-4670
리면서	-4671
문제집	-4672
봐야지	-4673
셨다면	-4674
신다면	-4675
어지는	-4676
에다가	-4677
에서만	-4678
읍니다	-4679
점으로	-4680
준다고	-4681
중하게	-4682
지네요	-4683
하잖아	-4684
....	-4685
▁가려면	-4686
▁가르쳐	-4687
▁갔는데	-4688
▁갔어요	-4689
▁같고요	-4690
▁개념만	-4691
▁거짓말	-4692
▁경험이	-4693
▁곳에서	-4694
▁관심을	-4695
▁구해서	-4696
▁그때는	-4697
▁그러게	-4698
▁그렇고	-4699
▁근처에	-4700
▁글씨가	-4701
▁기준을	-4702
▁길이가	-4703
▁남아서	-4704
▁내일도	-4705
▁누군지	-4706
▁단어가	-4707
▁도저히	-4708
▁되었다	-4709
▁들어도	-4710
▁들었어	-4711
▁마나서	-4712
▁만나서	-4713
▁말해주	-4714
▁맞다고	-4715
▁목표는	-4716
▁못해요	-4717
▁무서운	-4718
▁물리가	-4719
▁물리는	-4720
▁바빠서	-4721
▁버리고	-4722
▁복습은	-4723
▁부탁드	-4724
▁비대면	-4725
▁빡세게	-4726
▁빼고는	-4727
▁사무실	-4728
▁수업도	-4729
▁수업은	-4730
▁습관을	-4731
▁쓰면서	-4732
▁아직은	-4733
▁안들어	-4734
▁안하는	-4735
▁안하면	-4736
▁앉아서	-4737
▁어렵고	-4738
▁어린이	-4739
▁어머니	-4740
▁어쩌고	-4741
▁엄청난	-4742
▁열심이	-4743
▁영어가	-4744
▁오른쪽	-4745
▁외워야	-4746
▁유일한	-4747
▁이래서	-4748
▁이러면	-4749
▁인나요	-4750
▁인정받	-4751
▁일본어	-4752
▁읽으면	-4753
▁있는게	-4754
▁있더라	-4755
▁있었다	-4756
▁자신감	-4757
▁잡아서	-4758
▁제주도	-4759
▁주어진	-4760
▁중에서	-4761
▁중학생	-4762
▁즐거운	-4763
▁즐겁게	-4764
▁지식을	-4765
▁진도가	-4766
▁챙기는	-4767
▁카메라	-4768
▁콘서트	-4769
▁특목고	-4770
▁필요할	-4771
▁하셔야	-4772
▁하시고	-4773
▁한의대	-4774
▁화학을	-4775
▁확인해	-4776
려주세요	-4777
봤습니다	-4778
선생님이	-4779
었거든요	-4780
하는데요	-4781
▁감사하겠	-4782
▁개인적인	-4783
▁기다리고	-4784
▁기말고사	-4785
▁대부분의	-4786
▁들으시면	-4787
▁맞는다고	-4788
▁명확하게	-4789
▁문제에서	-4790
▁물어봐도	-4791
▁바이러스	-4792
▁반복해서	-4793
▁벌써부터	-4794
▁분석하는	-4795
▁상황에서	-4796
▁아직까지	-4797
▁원하시는	-4798
▁이번에는	-4799
▁있으시면	-4800
▁있잖아요	-4801
▁정리하고	-4802
▁정확하게	-4803
▁중요한거	-4804
▁통합과학	-4805
▁풀었는데	-4806
▁프로젝트	-4807
▁하시나요	-4808
▁학생분이	-4809
▁해주시면	-4810
▁했었는데	-4811
▁홈페이지	-4812
▁확실하게	-4813
▁힘드네요	-4814
▁힘들어요	-4815
▁공부하다가	-4816
▁궁금하네요	-4817
▁느낌이에요	-4818
▁들었습니다	-4819
▁많더라고요	-4820
▁모르겠는데	-4821
▁지구과학이	-4822
▁풀어보세요	-4823
▁해야할까요	-4824
▁감사드립니다	-4825
▁공부하셨는지	-4826
▁깎	-4827
▁났	-4828
▁낳	-4829
▁눌	-4830
▁뜬	-4831
▁링	-4832
▁뺏	-4833
▁히	-4834
간에	-4835
글로	-4836
금을	-4837
냐면	-4838
단말	-4839
대도	-4840
등이	-4841
려가	-4842
렸다	-4843
마디	-4844
말구	-4845
말로	-4846
바로	-4847
방송	-4848
번에	-4849
봤어	-4850
상황	-4851
셨을	-4852
스크	-4853
시켰	-4854
아내	-4855
안을	-4856
았고	-4857
영상	-4858
으러	-4859
이름	-4860
이미	-4861
이있	-4862
인의	-4863
있음	-4864
자리	-4865
장을	-4866
정두	-4867
지능	-4868
체의	-4869
하눈	-4870
한번	-4871
했지	-4872
헸다	-4873
▁강제	-4874
▁강조	-4875
▁거를	-4876
▁거절	-4877
▁걸고	-4878
▁곳에	-4879
▁공지	-4880
▁교회	-4881
▁글에	-4882
▁길이	-4883
▁꽤나	-4884
▁꿈을	-4885
▁끌고	-4886
▁남았	-4887
▁내내	-4888
▁내리	-4889
▁내서	-4890
▁너네	-4891
▁너의	-4892
▁넣는	-4893
▁눈이	-4894
▁님의	-4895
▁단축	-4896
▁동일	-4897
▁두렵	-4898
▁뒤로	-4899
▁드리	-4900
▁등을	-4901
▁또한	-4902
▁라는	-4903
▁맞음	-4904
▁맞히	-4905
▁명이	-4906
▁밥을	-4907
▁버텼	-4908
▁버튼	-4909
▁벼락	-4910
▁불가	-4911
▁상승	-4912
▁서류	-4913
▁선발	-4914
▁선정	-4915
▁소득	-4916
▁소름	-4917
▁시대	-4918
▁시청	-4919
▁써주	-4920
▁안오	-4921
▁안전	-4922
▁안해	-4923
▁알면	-4924
▁양쪽	-4925
▁어재	-4926
▁얻는	-4927
▁예약	-4928
▁오전	-4929
▁요소	-4930
▁웃기	-4931
▁익히	-4932
▁입고	-4933
▁있대	-4934
▁자러	-4935
▁적분	-4936
▁전국	-4937
▁전환	-4938
▁정지	-4939
▁제목	-4940
▁조합	-4941
▁주에	-4942
▁지능	-4943
▁쫌더	-4944
▁차가	-4945
▁처벌	-4946
▁측면	-4947
▁키트	-4948
▁하며	-4949
▁해내	-4950
겟지만	-4951
겠군요	-4952
났는데	-4953
는거죠	-4954
다고요	-4955
더군요	-4956
되었다	-4957
버렸어	-4958
시는거	-4959
싶어서	-4960
싶어요	-4961
애들이	-4962
원에서	-4963
으로서	-4964
이었어	-4965
쪽으로	-4966
하였다	-4967
해지는	-4968
했잖아	-4969
▁가는데	-4970
▁강사님	-4971
▁같으면	-4972
▁거라면	-4973
▁걸려서	-4974
▁고민을	-4975
▁과목별	-4976
▁교원대	-4977
▁국어가	-4978
▁그런게	-4979
▁그럿게	-4980
▁기대해	-4981
▁기준이	-4982
▁기회가	-4983
▁끝내면	-4984
▁나보다	-4985
▁나에게	-4986
▁나와야	-4987
▁내일은	-4988
▁너무나	-4989
▁돌아가	-4990
▁되고요	-4991
▁되는지	-4992
▁등급컷	-4993
▁많이들	-4994
▁맛있는	-4995
▁맞는데	-4996
▁무엇을	-4997
▁문제없	-4998
▁문제의	-4999
▁바람에	-5000
▁백분위	-5001
▁베트남	-5002
▁상황은	-5003
▁생각중	-5004
▁선택한	-5005
▁성적도	-5006
▁스토리	-5007
▁시작할	-5008
▁싶다는	-5009
▁아니니	-5010
▁아이디	-5011
▁알고있	-5012
▁얘기가	-5013
▁어디가	-5014
▁어떤지	-5015
▁업는데	-5016
▁오래걸	-5017
▁올라왔	-5018
▁일어날	-5019
▁잇어서	-5020
▁있구요	-5021
▁있으시	-5022
▁자료를	-5023
▁저녁에	-5024
▁저작권	-5025
▁적혀있	-5026
▁정책을	-5027
▁좋을것	-5028
▁중앙대	-5029
▁지문에	-5030
▁진짜로	-5031
▁집중도	-5032
▁차이는	-5033
▁최고의	-5034
▁친구는	-5035
▁침대에	-5036
▁칼럼에	-5037
▁칼럼이	-5038
▁특성상	-5039
▁풀리는	-5040
▁풀리면	-5041
▁하나는	-5042
▁한번에	-5043
▁해주고	-5044
▁현대시	-5045
▁힘들게	-5046
사람들이	-5047
▁같습나다	-5048
▁공부자극	-5049
▁공부해서	-5050
▁괜찮은데	-5051
▁나왔어요	-5052
▁대학생활	-5053
▁되었어요	-5054
▁들어가고	-5055
▁들어가면	-5056
▁들어와서	-5057
▁마음으로	-5058
▁말이에요	-5059
▁모르겠네	-5060
▁문제들이	-5061
▁문제집은	-5062
▁받아들이	-5063
▁부분에서	-5064
▁뿐입니다	-5065
▁아닐까요	-5066
▁아이디어	-5067
▁알겠는데	-5068
▁어떡하죠	-5069
▁어떤가요	-5070
▁어렵다고	-5071
▁여러가지	-5072
▁있지만요	-5073
▁재수학원	-5074
▁준비하는	-5075
▁중요하다	-5076
▁코으로나	-5077
▁포기하지	-5078
▁풀어보고	-5079
▁해야할지	-5080
▁걱정이에요	-5081
▁고민이에요	-5082
▁공부하는게	-5083
▁공부했어요	-5084
▁교수님한테	-5085
▁생각했어요	-5086
▁알려주시면	-5087
▁응원합니다	-5088
▁좋더라고요	-5089
▁학생들에게	-5090
▁모르겠습니다	-5091
▁추천하시나요	-5092
▁객	-5093
▁놔	-5094
▁묘	-5095
▁벅	-5096
▁붕	-5097
▁빛	-5098
▁쌍	-5099
▁옹	-5100
▁탔	-5101
▁헛	-5102
▁휘	-5103
것만	-5104
겠니	-5105
계열	-5106
구는	-5107
그랬	-5108
그런	-5109
김에	-5110
나라	-5111
대체	-5112
도못	-5113
도와	-5114
동산	-5115
돼요	-5116
되기	-5117
드러	-5118
랴고	-5119
로워	-5120
리오	-5121
만간	-5122
명을	-5123
문화	-5124
민국	-5125
바도	-5126
범위	-5127
부는	-5128
부뷴	-5129
부에	-5130
서가	-5131
서서	-5132
서에	-5133
수의	-5134
수형	-5135
얘기	-5136
었고	-5137
에겐	-5138
에다	-5139
을지	-5140
이로	-5141
이아	-5142
인들	-5143
자와	-5144
재고	-5145
전히	-5146
점수	-5147
증이	-5148
침에	-5149
피엔	-5150
하냐	-5151
하철	-5152
한지	-5153
함은	-5154
화된	-5155
효율	-5156
▁가리	-5157
▁간략	-5158
▁강한	-5159
▁개를	-5160
▁개설	-5161
▁객관	-5162
▁걔가	-5163
▁걸까	-5164
▁겹쳐	-5165
▁공매	-5166
▁교생	-5167
▁그린	-5168
▁근무	-5169
▁글구	-5170
▁기울	-5171
▁까지	-5172
▁꾸주	-5173
▁나만	-5174
▁날음	-5175
▁남지	-5176
▁내적	-5177
▁넓은	-5178
▁넣은	-5179
▁노는	-5180
▁노픈	-5181
▁논믄	-5182
▁놓친	-5183
▁느는	-5184
▁늦었	-5185
▁늦지	-5186
▁님들	-5187
▁다가	-5188
▁다신	-5189
▁당신	-5190
▁더더	-5191
▁도출	-5192
▁독일	-5193
▁동사	-5194
▁되서	-5195
▁되실	-5196
▁될까	-5197
▁듣구	-5198
▁떠요	-5199
▁뜻이	-5200
▁마찬	-5201
▁만만	-5202
▁만은	-5203
▁맞긴	-5204
▁면허	-5205
▁무작	-5206
▁미술	-5207
▁밀고	-5208
▁바꾼	-5209
▁바루	-5210
▁반갑	-5211
▁밤새	-5212
▁방역	-5213
▁배치	-5214
▁변경	-5215
▁변호	-5216
▁본격	-5217
▁볼펜	-5218
▁부디	-5219
▁분쟁	-5220
▁비록	-5221
▁빈칸	-5222
▁빡빡	-5223
▁사전	-5224
▁삼각	-5225
▁선행	-5226
▁선호	-5227
▁세게	-5228
▁손을	-5229
▁수두	-5230
▁수리	-5231
▁스티	-5232
▁스펙	-5233
▁슬픔	-5234
▁시기	-5235
▁시발	-5236
▁시즌	-5237
▁신라	-5238
▁아동	-5239
▁아실	-5240
▁어마	-5241
▁역할	-5242
▁연고	-5243
▁예측	-5244
▁오타	-5245
▁옴청	-5246
▁옹호	-5247
▁욕을	-5248
▁웹툰	-5249
▁유럽	-5250
▁유익	-5251
▁음식	-5252
▁이득	-5253
▁이리	-5254
▁이뻐	-5255
▁이사	-5256
▁익혀	-5257
▁인상	-5258
▁전날	-5259
▁전망	-5260
▁전반	-5261
▁점을	-5262
▁접촉	-5263
▁죄책	-5264
▁지정	-5265
▁책도	-5266
▁쳐도	-5267
▁초콜	-5268
▁커서	-5269
▁탄소	-5270
▁폐지	-5271
▁표본	-5272
▁해볼	-5273
▁했지	-5274
▁형태	-5275
▁호랑	-5276
▁혼란	-5277
▁홍보	-5278
▁화상	-5279
▁확산	-5280
▁휴대	-5281
건데요	-5282
겟찌만	-5283
계에서	-5284
공학과	-5285
금으로	-5286
기보단	-5287
느냐에	-5288
는지도	-5289
되어야	-5290
드리고	-5291
만큼은	-5292
머니가	-5293
문으로	-5294
속으로	-5295
스러워	-5296
시는데	-5297
싶은데	-5298
엇어요	-5299
였나요	-5300
으려면	-5301
이라니	-5302
입장벽	-5303
하라구	-5304
하셨을	-5305
해놓고	-5306
했다가	-5307
▁가격이	-5308
▁가까운	-5309
▁강의로	-5310
▁같지만	-5311
▁걱정이	-5312
▁검색해	-5313
▁계기가	-5314
▁계획은	-5315
▁공무원	-5316
▁공부량	-5317
▁공부의	-5318
▁과탐은	-5319
▁괜찮지	-5320
▁교육청	-5321
▁교재에	-5322
▁그래야	-5323
▁그러는	-5324
▁그런걸	-5325
▁그정도	-5326
▁기출도	-5327
▁나아요	-5328
▁남에게	-5329
▁누군가	-5330
▁다니다	-5331
▁다이어	-5332
▁돌아갈	-5333
▁돌아오	-5334
▁되어서	-5335
▁들어온	-5336
▁말고는	-5337
▁말이죠	-5338
▁말이지	-5339
▁맞으면	-5340
▁맞추는	-5341
▁머리를	-5342
▁멋져요	-5343
▁모습을	-5344
▁뭐든지	-5345
▁백화점	-5346
▁보시고	-5347
▁비중을	-5348
▁비효율	-5349
▁삼각형	-5350
▁성공할	-5351
▁수능떄	-5352
▁수업이	-5353
▁수준이	-5354
▁수증기	-5355
▁수학에	-5356
▁스마트	-5357
▁시간두	-5358
▁시기에	-5359
▁시도해	-5360
▁시키는	-5361
▁시험에	-5362
▁시험은	-5363
▁시험이	-5364
▁신경쓰	-5365
▁심하게	-5366
▁아니죠	-5367
▁아닌지	-5368
▁안되면	-5369
▁어지러	-5370
▁언제든	-5371
▁언젠가	-5372
▁없다는	-5373
▁여러개	-5374
▁여자는	-5375
▁영상이	-5376
▁올리지	-5377
▁왔어요	-5378
▁우리도	-5379
▁우연히	-5380
▁이걸로	-5381
▁이전에	-5382
▁있구나	-5383
▁자기는	-5384
▁자체는	-5385
▁자체를	-5386
▁잘하면	-5387
▁재수할	-5388
▁저같은	-5389
▁정신이	-5390
▁조급해	-5391
▁조만간	-5392
▁좋은데	-5393
▁주식을	-5394
▁줄이고	-5395
▁줄이는	-5396
▁중이야	-5397
▁지금의	-5398
▁지나간	-5399
▁쪼금씩	-5400
▁차리고	-5401
▁참고로	-5402
▁추가로	-5403
▁틀리고	-5404
▁틀리면	-5405
▁푸러야	-5406
▁푸시면	-5407
▁하나님	-5408
▁학생부	-5409
▁합시다	-5410
▁해석이	-5411
▁해설을	-5412
▁해주는	-5413
▁행동을	-5414
▁혹시나	-5415
▁화학은	-5416
듯합니다	-5417
스럽네요	-5418
중이에요	-5419
하시네요	-5420
해주시면	-5421
해지네요	-5422
▁가채점표	-5423
▁가튼데요	-5424
▁강의에서	-5425
▁같던데요	-5426
▁개념노트	-5427
▁거니까요	-5428
▁고민인데	-5429
▁공부하실	-5430
▁과목별로	-5431
▁남들보다	-5432
▁노력해서	-5433
▁노력해야	-5434
▁느낌이야	-5435
▁대학에서	-5436
▁대한민국	-5437
▁듯합니다	-5438
▁떨어지면	-5439
▁마찬가지	-5440
▁많았어요	-5441
▁말씀드리	-5442
▁머릿속에	-5443
▁먹으면서	-5444
▁몰랐네요	-5445
▁물어보고	-5446
▁받았어요	-5447
▁병원에서	-5448
▁봤습니다	-5449
▁스트레칭	-5450
▁신기해요	-5451
▁아빠한테	-5452
▁안되나요	-5453
▁어려움이	-5454
▁어린이집	-5455
▁없어서요	-5456
▁예전부터	-5457
▁오랜만에	-5458
▁올라와서	-5459
▁이야기를	-5460
▁있거든요	-5461
▁있습나다	-5462
▁있습니디	-5463
▁자세하게	-5464
▁자신에게	-5465
▁좋아하고	-5466
▁진입장벽	-5467
▁하시면서	-5468
▁합격하고	-5469
▁해봐야겠	-5470
▁해설강의	-5471
▁헷갈리는	-5472
보겠습니다	-5473
▁공부했는지	-5474
▁남겨주세요	-5475
▁말씀하시는	-5476
▁사람들한테	-5477
▁선생님이랑	-5478
▁이런식으로	-5479
▁인터넷에서	-5480
▁갚	-5481
▁낸	-5482
▁빵	-5483
▁셀	-5484
▁썰	-5485
▁족	-5486
▁쥐	-5487
▁찜	-5488
▁컸	-5489
▁튀	-5490
▁훑	-5491
가나	-5492
그거	-5493
금지	-5494
끼고	-5495
나온	-5496
돌아	-5497
되구	-5498
되요	-5499
듣구	-5500
들과	-5501
떄문	-5502
러가	-5503
력에	-5504
로그	-5505
많아	-5506
매일	-5507
먹은	-5508
법에	-5509
보험	-5510
봤다	-5511
봤자	-5512
부여	-5513
사진	-5514
순간	-5515
스터	-5516
시게	-5517
시오	-5518
시킨	-5519
심이	-5520
싸움	-5521
쓰기	-5522
안에	-5523
았던	-5524
약이	-5525
여도	-5526
원들	-5527
원을	-5528
의는	-5529
이요	-5530
인걸	-5531
입이	-5532
저기	-5533
적은	-5534
절로	-5535
정말	-5536
조은	-5537
줄게	-5538
중인	-5539
지리	-5540
지지	-5541
짜피	-5542
책임	-5543
치게	-5544
테이	-5545
트가	-5546
하길	-5547
합격	-5548
해버	-5549
화면	-5550
활동	-5551
▁가깝	-5552
▁가본	-5553
▁가설	-5554
▁가슴	-5555
▁가자	-5556
▁감을	-5557
▁갖다	-5558
▁갗이	-5559
▁개미	-5560
▁검은	-5561
▁것과	-5562
▁고르	-5563
▁교류	-5564
▁국영	-5565
▁국제	-5566
▁군대	-5567
▁그치	-5568
▁기도	-5569
▁끊고	-5570
▁끝냈	-5571
▁나지	-5572
▁난다	-5573
▁누워	-5574
▁당일	-5575
▁대략	-5576
▁대치	-5577
▁되니	-5578
▁될거	-5579
▁듣게	-5580
▁듯요	-5581
▁등등	-5582
▁떠서	-5583
▁라이	-5584
▁로그	-5585
▁링크	-5586
▁막히	-5587
▁만한	-5588
▁많음	-5589
▁많진	-5590
▁말로	-5591
▁맞고	-5592
▁모름	-5593
▁못써	-5594
▁무난	-5595
▁무너	-5596
▁미분	-5597
▁바탕	-5598
▁받게	-5599
▁받지	-5600
▁발생	-5601
▁방에	-5602
▁버리	-5603
▁버전	-5604
▁변형	-5605
▁보낸	-5606
▁보충	-5607
▁분도	-5608
▁붙어	-5609
▁비하	-5610
▁사기	-5611
▁설치	-5612
▁성실	-5613
▁소재	-5614
▁속도	-5615
▁손해	-5616
▁수익	-5617
▁시원	-5618
▁시행	-5619
▁싫을	-5620
▁써져	-5621
▁씻고	-5622
▁아기	-5623
▁안그	-5624
▁안할	-5625
▁않음	-5626
▁알차	-5627
▁얘들	-5628
▁어때	-5629
▁어이	-5630
▁억지	-5631
▁언래	-5632
▁없죠	-5633
▁여태	-5634
▁연기	-5635
▁예기	-5636
▁오고	-5637
▁오랫	-5638
▁오류	-5639
▁온다	-5640
▁올림	-5641
▁원본	-5642
▁이기	-5643
▁인지	-5644
▁있네	-5645
▁자녀	-5646
▁자면	-5647
▁자살	-5648
▁잘안	-5649
▁잡히	-5650
▁적혀	-5651
▁줄일	-5652
▁줘서	-5653
▁지가	-5654
▁지경	-5655
▁찾기	-5656
▁첫날	-5657
▁청소	-5658
▁추측	-5659
▁키워	-5660
▁편의	-5661
▁풀지	-5662
▁하겠	-5663
▁하네	-5664
▁학회	-5665
▁한명	-5666
▁한문	-5667
▁할만	-5668
▁할아	-5669
▁해놓	-5670
▁화나	-5671
▁효과	-5672
▁훈련	-5673
것가타	-5674
것보다	-5675
겟어요	-5676
과정이	-5677
놨는데	-5678
라서요	-5679
려구요	-5680
보네요	-5681
보도록	-5682
성으로	-5683
아지는	-5684
없어요	-5685
었거든	-5686
에대해	-5687
왔는데	-5688
으시고	-5689
장학금	-5690
적이라	-5691
졌는데	-5692
중인데	-5693
줬으면	-5694
하구요	-5695
하기엔	-5696
하는걸	-5697
하니깐	-5698
해보고	-5699
해주신	-5700
햇네요	-5701
햇다고	-5702
▁가능해	-5703
▁가보고	-5704
▁갈수록	-5705
▁강사가	-5706
▁강의가	-5707
▁강의도	-5708
▁강제로	-5709
▁개념과	-5710
▁거보다	-5711
▁거였어	-5712
▁과목에	-5713
▁과정을	-5714
▁구하는	-5715
▁국문과	-5716
▁기다리	-5717
▁기지개	-5718
▁꾸주니	-5719
▁나왔어	-5720
▁내용도	-5721
▁님들은	-5722
▁다녀야	-5723
▁대놓고	-5724
▁도대체	-5725
▁도전해	-5726
▁동생이	-5727
▁들어와	-5728
▁때려치	-5729
▁많네요	-5730
▁말고도	-5731
▁멘탈이	-5732
▁모르면	-5733
▁모아서	-5734
▁몰라도	-5735
▁문법은	-5736
▁바꾸고	-5737
▁받아주	-5738
▁받으면	-5739
▁부동산	-5740
▁분석해	-5741
▁삽니다	-5742
▁생각에	-5743
▁생각할	-5744
▁실시간	-5745
▁싶다고	-5746
▁싶지만	-5747
▁않도록	-5748
▁않아도	-5749
▁알아듣	-5750
▁애들도	-5751
▁얘기도	-5752
▁어짜피	-5753
▁언제쯤	-5754
▁없었던	-5755
▁역사를	-5756
▁연구를	-5757
▁영상에	-5758
▁오답을	-5759
▁올라가	-5760
▁올라올	-5761
▁올리신	-5762
▁유형이	-5763
▁이거는	-5764
▁이러케	-5765
▁이해할	-5766
▁인생에	-5767
▁잊어버	-5768
▁자료가	-5769
▁작가가	-5770
▁잘못한	-5771
▁재밌어	-5772
▁저절로	-5773
▁정신차	-5774
▁정하고	-5775
▁졸려서	-5776
▁좋겠어	-5777
▁좋겠죠	-5778
▁좋아보	-5779
▁지하철	-5780
▁진도를	-5781
▁진로가	-5782
▁질문은	-5783
▁찍어야	-5784
▁체력이	-5785
▁초콜릿	-5786
▁하더라	-5787
▁하려면	-5788
▁학기에	-5789
▁한마디	-5790
▁할수있	-5791
▁해보는	-5792
▁해주실	-5793
▁했거든	-5794
▁했잖아	-5795
▁화학이	-5796
▁활동을	-5797
는거에요	-5798
렸습니다	-5799
적으으로	-5800
하다보면	-5801
▁간호학과	-5802
▁과정에서	-5803
▁내년에는	-5804
▁내일부터	-5805
▁노력하는	-5806
▁다행이야	-5807
▁드릴게요	-5808
▁들어가기	-5809
▁만들어진	-5810
▁맞습니다	-5811
▁매일매일	-5812
▁몰라서요	-5813
▁몰랐어요	-5814
▁물어보는	-5815
▁바랄게요	-5816
▁본인한테	-5817
▁삼각함수	-5818
▁선생님을	-5819
▁시간낭비	-5820
▁시작하는	-5821
▁싶었어요	-5822
▁써볼게요	-5823
▁아니니까	-5824
▁아무거나	-5825
▁아쉽네요	-5826
▁아침부터	-5827
▁어렵다는	-5828
▁여기에서	-5829
▁올라가는	-5830
▁올라가서	-5831
▁이해하고	-5832
▁잇쓸까요	-5833
▁있답니다	-5834
▁있었으면	-5835
▁저희학교	-5836
▁졸업하고	-5837
▁준비해야	-5838
▁틀렸는지	-5839
▁포기하고	-5840
▁플래너에	-5841
▁하고싶은	-5842
▁힘들어서	-5843
▁괜찮을까요	-5844
▁느껴지네요	-5845
▁생각하세요	-5846
▁선생님들이	-5847
▁어떤식으로	-5848
▁공부하셨나요	-5849
▁냈	-5850
▁닥	-5851
▁덮	-5852
▁루	-5853
▁멸	-5854
▁묶	-5855
▁삐	-5856
▁엑	-5857
▁엮	-5858
▁잉	-5859
▁짚	-5860
▁큐	-5861
▁탁	-5862
▁턱	-5863
▁팬	-5864
▁혜	-5865
간이	-5866
감에	-5867
강사	-5868
것갗	-5869
것을	-5870
구석	-5871
권이	-5872
글을	-5873
기엔	-5874
꾸역	-5875
나오	-5876
년에	-5877
놔서	-5878
놨어	-5879
는가	-5880
니티	-5881
대서	-5882
도에	-5883
뒹굴	-5884
듣는	-5885
따는	-5886
랑스	-5887
래스	-5888
렸던	-5889
례가	-5890
리카	-5891
면역	-5892
못해	-5893
무소	-5894
물고	-5895
므로	-5896
받은	-5897
방식	-5898
보드	-5899
복습	-5900
부븐	-5901
부족	-5902
부턴	-5903
사로	-5904
선을	-5905
설명	-5906
설팅	-5907
세는	-5908
센터	-5909
속이	-5910
수인	-5911
시나	-5912
신데	-5913
실습	-5914
싶다	-5915
싸가	-5916
아는	-5917
알아	-5918
어난	-5919
어두	-5920
어붙	-5921
에너	-5922
연구	-5923
왤케	-5924
으나	-5925
으며	-5926
을가	-5927
을수	-5928
인도	-5929
작업	-5930
저가	-5931
저나	-5932
저런	-5933
종의	-5934
중요	-5935
지마	-5936
지역	-5937
진짜	-5938
질까	-5939
집을	-5940
촬영	-5941
치료	-5942
편은	-5943
해졌	-5944
행한	-5945
호화	-5946
▁가난	-5947
▁가산	-5948
▁간다	-5949
▁갈까	-5950
▁갈아	-5951
▁감독	-5952
▁개월	-5953
▁거북	-5954
▁건축	-5955
▁겸손	-5956
▁계실	-5957
▁고구	-5958
▁공개	-5959
▁공책	-5960
▁공학	-5961
▁과잠	-5962
▁귀엽	-5963
▁규정	-5964
▁그전	-5965
▁글도	-5966
▁글만	-5967
▁기립	-5968
▁기타	-5969
▁까다	-5970
▁깨끗	-5971
▁깨닫	-5972
▁꺼내	-5973
▁꾸역	-5974
▁꿈꾸	-5975
▁꿈에	-5976
▁꿈이	-5977
▁나중	-5978
▁날려	-5979
▁남편	-5980
▁넘기	-5981
▁넘나	-5982
▁농담	-5983
▁높게	-5984
▁눈을	-5985
▁늦은	-5986
▁답안	-5987
▁대입	-5988
▁대형	-5989
▁데가	-5990
▁데는	-5991
▁도배	-5992
▁도입	-5993
▁동의	-5994
▁들리	-5995
▁등장	-5996
▁따져	-5997
▁뜨는	-5998
▁뜬금	-5999
▁마침	-6000
▁맘에	-6001
▁맞았	-6002
▁매장	-6003
▁멍청	-6004
▁목록	-6005
▁몸에	-6006
▁못가	-6007
▁무거	-6008
▁무지	-6009
▁무척	-6010
▁무한	-6011
▁물을	-6012
▁미뤄	-6013
▁바뀔	-6014
▁바보	-6015
▁반박	-6016
▁발음	-6017
▁방어	-6018
▁배웅	-6019
▁보상	-6020
▁보일	-6021
▁복학	-6022
▁부르	-6023
▁불리	-6024
▁불법	-6025
▁비례	-6026
▁뽑아	-6027
▁사관	-6028
▁사범	-6029
▁사법	-6030
▁산업	-6031
▁새해	-6032
▁생소	-6033
▁샤프	-6034
▁선거	-6035
▁선글	-6036
▁선별	-6037
▁설날	-6038
▁소모	-6039
▁소소	-6040
▁소속	-6041
▁소용	-6042
▁소중	-6043
▁수록	-6044
▁슬픈	-6045
▁식사	-6046
▁악성	-6047
▁악플	-6048
▁안한	-6049
▁않기	-6050
▁압박	-6051
▁야자	-6052
▁양을	-6053
▁어색	-6054
▁언재	-6055
▁엄밀	-6056
▁업체	-6057
▁없구	-6058
▁없나	-6059
▁영업	-6060
▁예과	-6061
▁예민	-6062
▁오프	-6063
▁올바	-6064
▁왕창	-6065
▁왜이	-6066
▁왼쪽	-6067
▁유도	-6068
▁의문	-6069
▁의욕	-6070
▁이뤄	-6071
▁이만	-6072
▁이모	-6073
▁이쁜	-6074
▁이슬	-6075
▁이왕	-6076
▁이화	-6077
▁인형	-6078
▁일찎	-6079
▁있단	-6080
▁자율	-6081
▁잔뜩	-6082
▁잡는	-6083
▁장기	-6084
▁장담	-6085
▁재작	-6086
▁재택	-6087
▁저건	-6088
▁저렴	-6089
▁전과	-6090
▁전략	-6091
▁정석	-6092
▁정이	-6093
▁제공	-6094
▁조기	-6095
▁조타	-6096
▁종강	-6097
▁좌절	-6098
▁주민	-6099
▁줘야	-6100
▁즐겨	-6101
▁지각	-6102
▁지겨	-6103
▁지엽	-6104
▁진학	-6105
▁질믄	-6106
▁쪼개	-6107
▁쭉쭉	-6108
▁차리	-6109
▁창업	-6110
▁채로	-6111
▁체대	-6112
▁초기	-6113
▁추억	-6114
▁추진	-6115
▁충족	-6116
▁친절	-6117
▁캡처	-6118
▁커뮤	-6119
▁터득	-6120
▁통계	-6121
▁특별	-6122
▁특수	-6123
▁틈틈	-6124
▁피부	-6125
▁하도	-6126
▁하라	-6127
▁하러	-6128
▁한가	-6129
▁한꺼	-6130
▁할수	-6131
▁합리	-6132
▁해두	-6133
▁했대	-6134
▁협회	-6135
▁혜택	-6136
▁홍콩	-6137
▁화폐	-6138
▁확보	-6139
▁휴식	-6140
같은거	-6141
거같다	-6142
것처럼	-6143
겼어요	-6144
긴한데	-6145
놨어요	-6146
는거랑	-6147
다고는	-6148
다보니	-6149
되어서	-6150
될까요	-6151
두세요	-6152
드리지	-6153
들에서	-6154
듭니다	-6155
보는거	-6156
보다도	-6157
보면서	-6158
볼께요	-6159
봄미다	-6160
생각을	-6161
생각해	-6162
스트잇	-6163
시는지	-6164
어진다	-6165
었잖아	-6166
에서의	-6167
으라고	-6168
으로써	-6169
으시는	-6170
음으로	-6171
이기도	-6172
이처럼	-6173
있네요	-6174
있잖아	-6175
자고요	-6176
졌어요	-6177
지식을	-6178
치는데	-6179
하더라	-6180
하드라	-6181
하셔도	-6182
하셨던	-6183
해보구	-6184
▁가끔씩	-6185
▁검사를	-6186
▁것인가	-6187
▁계시는	-6188
▁고려대	-6189
▁관리가	-6190
▁교재가	-6191
▁그랬다	-6192
▁그런다	-6193
▁글씨체	-6194
▁기출에	-6195
▁낫겠죠	-6196
▁낫다고	-6197
▁내신이	-6198
▁높아요	-6199
▁누구나	-6200
▁눈물이	-6201
▁님한테	-6202
▁다같이	-6203
▁다음주	-6204
▁단순히	-6205
▁단어장	-6206
▁대답해	-6207
▁대해셔	-6208
▁더더욱	-6209
▁더이상	-6210
▁도와줄	-6211
▁돈으로	-6212
▁되겠지	-6213
▁두려워	-6214
▁들었던	-6215
▁따뜻한	-6216
▁따라갈	-6217
▁떠오르	-6218
▁말씀이	-6219
▁맞는거	-6220
▁맞아서	-6221
▁멋있는	-6222
▁목요일	-6223
▁무섭다	-6224
▁문과는	-6225
▁문제로	-6226
▁미끄러	-6227
▁바이오	-6228
▁밖에서	-6229
▁반도체	-6230
▁방에서	-6231
▁백신이	-6232
▁보내주	-6233
▁보는게	-6234
▁보려고	-6235
▁보여서	-6236
▁봐야지	-6237
▁부르는	-6238
▁분탕질	-6239
▁붙잡고	-6240
▁비해서	-6241
▁사실상	-6242
▁사진은	-6243
▁상위권	-6244
▁선택을	-6245
▁설명할	-6246
▁소개해	-6247
▁속으로	-6248
▁손으로	-6249
▁수두룩	-6250
▁수시도	-6251
▁수학이	-6252
▁숫자가	-6253
▁스티커	-6254
▁시대에	-6255
▁시작한	-6256
▁실기가	-6257
▁실력을	-6258
▁실수가	-6259
▁쓰는게	-6260
▁아름답	-6261
▁안해서	-6262
▁알아들	-6263
▁약간의	-6264
▁언어를	-6265
▁엄마랑	-6266
▁영어로	-6267
▁영향이	-6268
▁오르면	-6269
▁오전에	-6270
▁올라갈	-6271
▁외에는	-6272
▁우리의	-6273
▁운동을	-6274
▁의대는	-6275
▁이겨낼	-6276
▁이런건	-6277
▁이번엔	-6278
▁익히는	-6279
▁일일이	-6280
▁일하는	-6281
▁읽어야	-6282
▁자투리	-6283
▁작성해	-6284
▁잘모르	-6285
▁잡으면	-6286
▁저처럼	-6287
▁적어주	-6288
▁전체를	-6289
▁종류가	-6290
▁좋고요	-6291
▁좋아해	-6292
▁죄책감	-6293
▁주제로	-6294
▁중고로	-6295
▁지나면	-6296
▁진로를	-6297
▁진작에	-6298
▁질문도	-6299
▁질문할	-6300
▁찾아야	-6301
▁채우는	-6302
▁책상에	-6303
▁친구랑	-6304
▁친구를	-6305
▁칼럼도	-6306
▁컨설팅	-6307
▁태도를	-6308
▁통으로	-6309
▁편인데	-6310
▁표현이	-6311
▁풀다가	-6312
▁풀려고	-6313
▁풀이로	-6314
▁프랑스	-6315
▁피해자	-6316
▁필기를	-6317
▁하던데	-6318
▁하라는	-6319
▁했고요	-6320
▁화나서	-6321
▁효율이	-6322
▁흐름을	-6323
거가타요	-6324
다는거야	-6325
으시네요	-6326
으으으로	-6327
하시는거	-6328
하신다면	-6329
했는데요	-6330
했습니디	-6331
▁가르치는	-6332
▁같습니디	-6333
▁고전소설	-6334
▁공부법이	-6335
▁공부했다	-6336
▁교차지원	-6337
▁그나저나	-6338
▁깔끔하고	-6339
▁꾸역꾸역	-6340
▁나오는데	-6341
▁나왔는데	-6342
▁난이도도	-6343
▁내신으로	-6344
▁느꼈어요	-6345
▁다른과목	-6346
▁댓글에서	-6347
▁돌아다니	-6348
▁동기부여	-6349
▁될거에요	-6350
▁들어가야	-6351
▁등급컷이	-6352
▁많았는데	-6353
▁모르지만	-6354
▁미적분을	-6355
▁바뀌어서	-6356
▁복습하는	-6357
▁부러워요	-6358
▁사람마다	-6359
▁상대평가	-6360
▁서울대는	-6361
▁서울에서	-6362
▁선글라스	-6363
▁성적이랑	-6364
▁수능에서	-6365
▁수리논술	-6366
▁스스로를	-6367
▁시작해야	-6368
▁신청하면	-6369
▁아까워서	-6370
▁아니네요	-6371
▁아니잖아	-6372
▁악성코드	-6373
▁안될까요	-6374
▁않았지만	-6375
▁알려주는	-6376
▁엄마한테	-6377
▁없을까요	-6378
▁연계되는	-6379
▁연습하면	-6380
▁영상으로	-6381
▁올리려고	-6382
▁올릴게요	-6383
▁우리한테	-6384
▁이과인데	-6385
▁이상적인	-6386
▁이후에는	-6387
▁인종차별	-6388
▁입장에서	-6389
▁자동으로	-6390
▁자연스레	-6391
▁점심시간	-6392
▁정리하는	-6393
▁졸업하면	-6394
▁좋아해서	-6395
▁주변에서	-6396
▁중요해요	-6397
▁지문에서	-6398
▁질문하는	-6399
▁체크하고	-6400
▁추천하는	-6401
▁커뮤니티	-6402
▁포스트잇	-6403
▁푸셨는지	-6404
▁필요성을	-6405
▁학생분도	-6406
▁한꺼번에	-6407
▁해보시는	-6408
▁해볼게요	-6409
▁해야하는	-6410
▁해주셔서	-6411
▁확인하는	-6412
▁힘들어도	-6413
▁가겠습니다	-6414
▁가능하다고	-6415
▁고민되네요	-6416
▁고민입니다	-6417
▁다행입니다	-6418
▁모의고사는	-6419
▁봐야겠네요	-6420
▁비교하면서	-6421
▁뿌듯하네요	-6422
▁생각나네요	-6423
▁생각입니다	-6424
▁생각하면서	-6425
▁수학선생님	-6426
▁시험장에서	-6427
▁아니니까요	-6428
▁알고있어요	-6429
▁올려주세요	-6430
▁올려주시면	-6431
▁있더라구요	-6432
▁자기들끼리	-6433
▁지구과학은	-6434
▁추천해주실	-6435
▁친구들이랑	-6436
▁하셨는데요	-6437
▁효율적으로	-6438
▁기출문제집을	-6439
▁존경스럽네요	-6440
▁파이팅입니다	-6441
▁갓	-6442
▁균	-6443
▁끔	-6444
▁몉	-6445
▁싱	-6446
▁엎	-6447
▁옷	-6448
▁쫄	-6449
▁춘	-6450
▁컷	-6451
▁켜	-6452
▁험	-6453
▁혈	-6454
가게	-6455
가족	-6456
가짐	-6457
거갗	-6458
걸까	-6459
것은	-6460
겟죠	-6461
고루	-6462
고시	-6463
국의	-6464
그냥	-6465
그렇	-6466
기의	-6467
기준	-6468
나왔	-6469
난도	-6470
놓구	-6471
다운	-6472
대나	-6473
대신	-6474
대회	-6475
도요	-6476
됐어	-6477
될지	-6478
둬야	-6479
들고	-6480
량을	-6481
레요	-6482
력은	-6483
린지	-6484
마가	-6485
맞춰	-6486
목이	-6487
미가	-6488
바퀴	-6489
배를	-6490
보자	-6491
분도	-6492
선택	-6493
소통	-6494
수준	-6495
스타	-6496
시장	-6497
시킬	-6498
신히	-6499
실험	-6500
아빠	-6501
안돼	-6502
어디	-6503
었대	-6504
었지	-6505
였을	-6506
영역	-6507
와요	-6508
율이	-6509
은거	-6510
이구	-6511
이론	-6512
이를	-6513
이해	-6514
일정	-6515
있구	-6516
있따	-6517
있었	-6518
있지	-6519
작품	-6520
재수	-6521
정부	-6522
제한	-6523
조는	-6524
종이	-6525
주구	-6526
줄은	-6527
질이	-6528
쪽이	-6529
찬히	-6530
치로	-6531
클럽	-6532
파일	-6533
포기	-6534
표가	-6535
함이	-6536
해줘	-6537
향을	-6538
후에	-6539
▁가계	-6540
▁가득	-6541
▁가려	-6542
▁강좌	-6543
▁같네	-6544
▁개씩	-6545
▁걔속	-6546
▁건국	-6547
▁검정	-6548
▁경북	-6549
▁고객	-6550
▁고졸	-6551
▁공강	-6552
▁교복	-6553
▁교스	-6554
▁교정	-6555
▁끌어	-6556
▁끝날	-6557
▁나고	-6558
▁나옴	-6559
▁내고	-6560
▁내로	-6561
▁놀랐	-6562
▁높다	-6563
▁단원	-6564
▁담당	-6565
▁답글	-6566
▁당시	-6567
▁도착	-6568
▁돼게	-6569
▁뒤엔	-6570
▁말만	-6571
▁말에	-6572
▁멘날	-6573
▁몇십	-6574
▁문이	-6575
▁미극	-6576
▁반수	-6577
▁반쯤	-6578
▁배고	-6579
▁배포	-6580
▁버려	-6581
▁버릴	-6582
▁법이	-6583
▁변동	-6584
▁보건	-6585
▁보인	-6586
▁봤던	-6587
▁비추	-6588
▁사러	-6589
▁사시	-6590
▁사투	-6591
▁성과	-6592
▁성의	-6593
▁성향	-6594
▁속에	-6595
▁쇼핑	-6596
▁시트	-6597
▁식이	-6598
▁싫다	-6599
▁심장	-6600
▁싶음	-6601
▁싶지	-6602
▁썼다	-6603
▁쓰신	-6604
▁아깝	-6605
▁안다	-6606
▁알랴	-6607
▁여쭈	-6608
▁연수	-6609
▁예의	-6610
▁와닿	-6611
▁요구	-6612
▁운이	-6613
▁웃긴	-6614
▁웃는	-6615
▁원칙	-6616
▁은행	-6617
▁음료	-6618
▁이란	-6619
▁인턴	-6620
▁읽지	-6621
▁입국	-6622
▁입은	-6623
▁잇다	-6624
▁있기	-6625
▁자야	-6626
▁잘되	-6627
▁잠도	-6628
▁잡은	-6629
▁전수	-6630
▁정밀	-6631
▁제안	-6632
▁조정	-6633
▁졸린	-6634
▁주요	-6635
▁주워	-6636
▁주차	-6637
▁중점	-6638
▁증거	-6639
▁지수	-6640
▁지지	-6641
▁집행	-6642
▁짜서	-6643
▁쫓아	-6644
▁찍고	-6645
▁채울	-6646
▁체감	-6647
▁축제	-6648
▁춫현	-6649
▁친밀	-6650
▁퇴사	-6651
▁표점	-6652
▁학문	-6653
▁해줘	-6654
▁허용	-6655
▁회복	-6656
가는게	-6657
같은데	-6658
거가튼	-6659
거라구	-6660
것같아	-6661
나가는	-6662
내용이	-6663
는건데	-6664
는데도	-6665
다가도	-6666
됐다고	-6667
드라고	-6668
때부터	-6669
라는거	-6670
려나요	-6671
먹어서	-6672
문제는	-6673
봅니다	-6674
생각이	-6675
슴니다	-6676
시라고	-6677
아침에	-6678
야겠죠	-6679
없으면	-6680
있었던	-6681
적이고	-6682
줬어요	-6683
하고자	-6684
하내요	-6685
하니가	-6686
해주면	-6687
햇어서	-6688
▁가져온	-6689
▁갔다가	-6690
▁개인이	-6691
▁거라는	-6692
▁거라서	-6693
▁걱정은	-6694
▁검은색	-6695
▁겁니까	-6696
▁것들을	-6697
▁겹치는	-6698
▁계셔서	-6699
▁고민이	-6700
▁고민했	-6701
▁고치는	-6702
▁골고루	-6703
▁공부나	-6704
▁과제는	-6705
▁괜찮았	-6706
▁교대는	-6707
▁그랬나	-6708
▁그랬어	-6709
▁그러나	-6710
▁그러지	-6711
▁기억나	-6712
▁기하가	-6713
▁길어질	-6714
▁내리는	-6715
▁다하고	-6716
▁다행히	-6717
▁달리는	-6718
▁답지를	-6719
▁돌리는	-6720
▁되겠죠	-6721
▁되도록	-6722
▁될가요	-6723
▁드디어	-6724
▁듣다가	-6725
▁들어올	-6726
▁등록금	-6727
▁마나요	-6728
▁말대로	-6729
▁말투가	-6730
▁말하기	-6731
▁말하면	-6732
▁맞겠죠	-6733
▁맞추고	-6734
▁먹어도	-6735
▁방법론	-6736
▁보이긴	-6737
▁보인다	-6738
▁부럽다	-6739
▁붙으면	-6740
▁붙이는	-6741
▁비하면	-6742
▁사진에	-6743
▁사진이	-6744
▁사피엔	-6745
▁상담을	-6746
▁상태로	-6747
▁생각한	-6748
▁생각함	-6749
▁생명이	-6750
▁선지를	-6751
▁수능때	-6752
▁수학도	-6753
▁스케줄	-6754
▁시간만	-6755
▁싫어요	-6756
▁싶은지	-6757
▁아니구	-6758
▁아니냐	-6759
▁앉나요	-6760
▁않으면	-6761
▁않은데	-6762
▁알아차	-6763
▁얘기할	-6764
▁언니는	-6765
▁얼굴이	-6766
▁엄마는	-6767
▁없고요	-6768
▁없으실	-6769
▁없잖아	-6770
▁영단어	-6771
▁영상도	-6772
▁옛날에	-6773
▁오빠가	-6774
▁오세요	-6775
▁외워지	-6776
▁요즘에	-6777
▁우울증	-6778
▁원인은	-6779
▁월요일	-6780
▁유치원	-6781
▁의대가	-6782
▁이후로	-6783
▁이후에	-6784
▁입학식	-6785
▁있으신	-6786
▁자사고	-6787
▁자존감	-6788
▁전문가	-6789
▁전형은	-6790
▁점수는	-6791
▁조교님	-6792
▁조금은	-6793
▁조타고	-6794
▁좋으니	-6795
▁좋으면	-6796
▁좋지만	-6797
▁주식이	-6798
▁주재소	-6799
▁즐기는	-6800
▁증상이	-6801
▁지금이	-6802
▁지켜야	-6803
▁질문드	-6804
▁질문에	-6805
▁질문한	-6806
▁차이를	-6807
▁찬찬히	-6808
▁참고해	-6809
▁초반에	-6810
▁태어나	-6811
▁판단을	-6812
▁표점이	-6813
▁푸시는	-6814
▁푼다면	-6815
▁풀이는	-6816
▁하는건	-6817
▁하지도	-6818
▁학부모	-6819
▁했는지	-6820
▁했다고	-6821
▁헷갈리	-6822
▁현역때	-6823
▁화요일	-6824
▁확률이	-6825
듯하네요	-6826
으로부터	-6827
하는거야	-6828
한다는데	-6829
해야할지	-6830
햇습니다	-6831
▁같씁니다	-6832
▁공부했던	-6833
▁교수님도	-6834
▁귀여워요	-6835
▁그랬어요	-6836
▁그러면서	-6837
▁기대하고	-6838
▁나타내는	-6839
▁난이도를	-6840
▁남깁니다	-6841
▁대학생이	-6842
▁들어오는	-6843
▁만들어야	-6844
▁많으니까	-6845
▁모르는거	-6846
▁모르니까	-6847
▁무시하고	-6848
▁바탕으로	-6849
▁받았는데	-6850
▁부럽네요	-6851
▁부분이나	-6852
▁불안해요	-6853
▁사랑하는	-6854
▁상관없는	-6855
▁상관없이	-6856
▁쉬는시간	-6857
▁스마트폰	-6858
▁애들이랑	-6859
▁여기저기	-6860
▁올리세요	-6861
▁왔습니다	-6862
▁이런저런	-6863
▁이해하는	-6864
▁이후로는	-6865
▁인공지능	-6866
▁인터넷에	-6867
▁입장에선	-6868
▁잇을까요	-6869
▁자극받고	-6870
▁자유롭게	-6871
▁제외하면	-6872
▁좋아해요	-6873
▁좋았어요	-6874
▁준비하고	-6875
▁친구한테	-6876
▁토요일에	-6877
▁평가원이	-6878
▁풀었는지	-6879
▁하니까요	-6880
▁하셨으면	-6881
▁학교생활	-6882
▁학생들도	-6883
▁해봤는데	-6884
▁헷갈려서	-6885
▁후회하지	-6886
이더라고요	-6887
▁같더라구요	-6888
▁공부하는데	-6889
▁공부하면서	-6890
▁공부하시는	-6891
▁공부하시면	-6892
▁담임선생님	-6893
▁되겠습니다	-6894
▁마스터님께	-6895
▁문제풀이를	-6896
▁받았습니다	-6897
▁선생님한테	-6898
▁신기하네요	-6899
▁않았습니다	-6900
▁어렵습니다	-6901
▁있으실까요	-6902
▁충분합니다	-6903
▁해야하나요	-6904
▁그러더라고요	-6905
▁모르겠지만요	-6906
▁상관없습니다	-6907
▁올려드릴게요	-6908
.?	-6909
▁곤	-6910
▁긑	-6911
▁끄	-6912
▁낀	-6913
▁넥	-6914
▁뉘	-6915
▁뚝	-6916
▁랜	-6917
▁랩	-6918
▁섬	-6919
▁얹	-6920
▁얽	-6921
▁엘	-6922
▁윗	-6923
▁윤	-6924
▁짤	-6925
▁춥	-6926
▁캐	-6927
▁탓	-6928
▁템	-6929
▁툭	-6930
▁팝	-6931
▁핑	-6932
▁헌	-6933
▁횟	-6934
▁흉	-6935
갇아	-6936
감과	-6937
거고	-6938
겨진	-6939
관에	-6940
구가	-6941
구도	-6942
국가	-6943
국이	-6944
금이	-6945
기구	-6946
기두	-6947
꺼풀	-6948
나니	-6949
내에	-6950
낸다	-6951
넘무	-6952
네가	-6953
네임	-6954
논문	-6955
님들	-6956
님은	-6957
다닌	-6958
다르	-6959
단다	-6960
단이	-6961
당이	-6962
도의	-6963
돼면	-6964
둬서	-6965
드린	-6966
때도	-6967
때문	-6968
떄도	-6969
랄까	-6970
랜드	-6971
랫폼	-6972
령을	-6973
로도	-6974
로로	-6975
른다	-6976
리아	-6977
리즈	-6978
리즘	-6979
리학	-6980
만들	-6981
만을	-6982
말을	-6983
면증	-6984
반기	-6985
배가	-6986
밴드	-6987
버림	-6988
볍게	-6989
부를	-6990
분야	-6991
분해	-6992
블릿	-6993
비스	-6994
비슷	-6995
사건	-6996
사실	-6997
사용	-6998
산은	-6999
상도	-7000
설수	-7001
시엄	-7002
싫어	-7003
심과	-7004
쓰고	-7005
앞에	-7006
애인	-7007
어내	-7008
어라	-7009
언을	-7010
연필	-7011
예정	-7012
왕은	-7013
욜에	-7014
용을	-7015
은안	-7016
의의	-7017
이익	-7018
이재	-7019
이크	-7020
이파	-7021
인간	-7022
인강	-7023
인증	-7024
있긴	-7025
있던	-7026
있오	-7027
자신	-7028
재를	-7029
적일	-7030
정지	-7031
정책	-7032
져도	-7033
진않	-7034
질문	-7035
차는	-7036
채팅	-7037
체를	-7038
치를	-7039
친다	-7040
텐셜	-7041
트는	-7042
트폴	-7043
티콘	-7044
패턴	-7045
푸는	-7046
프라	-7047
하겟	-7048
하에	-7049
하였	-7050
한텐	-7051
해둔	-7052
햇던	-7053
환경	-7054
효과	-7055
희롱	-7056
히다	-7057
힘들	-7058
!!!	-7059
▁가독	-7060
▁가상	-7061
▁가속	-7062
▁가입	-7063
▁가천	-7064
▁감고	-7065
▁값이	-7066
▁강요	-7067
▁개선	-7068
▁건대	-7069
▁결핵	-7070
▁경고	-7071
▁계집	-7072
▁고사	-7073
▁고인	-7074
▁고치	-7075
▁곳도	-7076
▁괴롭	-7077
▁교배	-7078
▁교훈	-7079
▁그룹	-7080
▁극단	-7081
▁기관	-7082
▁기록	-7083
▁기왕	-7084
▁기적	-7085
▁기획	-7086
▁길에	-7087
▁김에	-7088
▁꽉꽉	-7089
▁꾸미	-7090
▁나갔	-7091
▁나빠	-7092
▁남녀	-7093
▁남성	-7094
▁내에	-7095
▁넣고	-7096
▁넥타	-7097
▁뇌가	-7098
▁뉘앙	-7099
▁느낄	-7100
▁느린	-7101
▁늘려	-7102
▁다짐	-7103
▁닮았	-7104
▁답은	-7105
▁당당	-7106
▁당첨	-7107
▁더운	-7108
▁덕에	-7109
▁던져	-7110
▁데려	-7111
▁도형	-7112
▁돼야	-7113
▁돼지	-7114
▁됐다	-7115
▁될것	-7116
▁두꺼	-7117
▁두세	-7118
▁드를	-7119
▁들이	-7120
▁듯이	-7121
▁디바	-7122
▁떄문	-7123
▁떨리	-7124
▁라면	-7125
▁루틴	-7126
▁마련	-7127
▁맞다	-7128
▁먹기	-7129
▁멀쩡	-7130
▁멈추	-7131
▁메리	-7132
▁메일	-7133
▁멸망	-7134
▁몇몇	-7135
▁몰아	-7136
▁무기	-7137
▁무단	-7138
▁무려	-7139
▁문자	-7140
▁미칠	-7141
▁믿는	-7142
▁믿을	-7143
▁밀린	-7144
▁바구	-7145
▁바른	-7146
▁밝혀	-7147
▁밟아	-7148
▁밥도	-7149
▁방문	-7150
▁방지	-7151
▁배달	-7152
▁배려	-7153
▁배부	-7154
▁배송	-7155
▁배정	-7156
▁보강	-7157
▁보낼	-7158
▁보며	-7159
▁보신	-7160
▁보장	-7161
▁보정	-7162
▁볼까	-7163
▁부계	-7164
▁부수	-7165
▁분류	-7166
▁불쾌	-7167
▁불평	-7168
▁붙는	-7169
▁비싼	-7170
▁뿌리	-7171
▁사촌	-7172
▁살까	-7173
▁살인	-7174
▁삽입	-7175
▁상세	-7176
▁상의	-7177
▁생략	-7178
▁생존	-7179
▁서서	-7180
▁서운	-7181
▁섞여	-7182
▁세포	-7183
▁소문	-7184
▁소송	-7185
▁손도	-7186
▁손에	-7187
▁솔찌	-7188
▁수를	-7189
▁수식	-7190
▁수월	-7191
▁스카	-7192
▁슬쩍	-7193
▁시각	-7194
▁시골	-7195
▁시킨	-7196
▁싫고	-7197
▁쌍욕	-7198
▁써보	-7199
▁쓰여	-7200
▁쓰일	-7201
▁알기	-7202
▁알던	-7203
▁압축	-7204
▁애니	-7205
▁애도	-7206
▁야구	-7207
▁양심	-7208
▁양치	-7209
▁어랴	-7210
▁어리	-7211
▁어서	-7212
▁언론	-7213
▁없네	-7214
▁엉망	-7215
▁에스	-7216
▁에어	-7217
▁엑셀	-7218
▁연간	-7219
▁연극	-7220
▁연장	-7221
▁열받	-7222
▁열어	-7223
▁예를	-7224
▁오름	-7225
▁왤케	-7226
▁외롭	-7227
▁외웠	-7228
▁요건	-7229
▁요청	-7230
▁용서	-7231
▁워크	-7232
▁원격	-7233
▁원활	-7234
▁유독	-7235
▁유혹	-7236
▁음성	-7237
▁의예	-7238
▁의해	-7239
▁이끌	-7240
▁이래	-7241
▁이랬	-7242
▁이르	-7243
▁이탈	-7244
▁이혼	-7245
▁인건	-7246
▁인구	-7247
▁인권	-7248
▁인맥	-7249
▁인물	-7250
▁인수	-7251
▁읽기	-7252
▁임시	-7253
▁잇을	-7254
▁있겠	-7255
▁자본	-7256
▁자서	-7257
▁잠금	-7258
▁장단	-7259
▁저널	-7260
▁적당	-7261
▁적절	-7262
▁적합	-7263
▁전번	-7264
▁전시	-7265
▁전염	-7266
▁전원	-7267
▁전쟁	-7268
▁점은	-7269
▁정기	-7270
▁정렬	-7271
▁정작	-7272
▁정진	-7273
▁제게	-7274
▁제트	-7275
▁조는	-7276
▁조별	-7277
▁조장	-7278
▁조퇴	-7279
▁조회	-7280
▁종류	-7281
▁좌표	-7282
▁주소	-7283
▁죽는	-7284
▁줄줄	-7285
▁중급	-7286
▁중등	-7287
▁중복	-7288
▁중인	-7289
▁증발	-7290
▁지루	-7291
▁지속	-7292
▁지운	-7293
▁직관	-7294
▁쪽은	-7295
▁찍을	-7296
▁차지	-7297
▁착각	-7298
▁착착	-7299
▁창피	-7300
▁채팅	-7301
▁청년	-7302
▁쳐다	-7303
▁촬영	-7304
▁최신	-7305
▁최초	-7306
▁출석	-7307
▁출입	-7308
▁캡쳐	-7309
▁커트	-7310
▁코드	-7311
▁타격	-7312
▁타입	-7313
▁탈출	-7314
▁통과	-7315
▁통제	-7316
▁특이	-7317
▁특징	-7318
▁팁을	-7319
▁판매	-7320
▁패턴	-7321
▁페이	-7322
▁펴서	-7323
▁편안	-7324
▁평생	-7325
▁평일	-7326
▁폐가	-7327
▁포털	-7328
▁푸실	-7329
▁풀린	-7330
▁품질	-7331
▁피는	-7332
▁하겟	-7333
▁하여	-7334
▁학사	-7335
▁한정	-7336
▁한편	-7337
▁할게	-7338
▁합쳐	-7339
▁항목	-7340
▁해떤	-7341
▁해소	-7342
▁했음	-7343
▁향상	-7344
▁허리	-7345
▁확신	-7346
▁확통	-7347
▁환불	-7348
▁후기	-7349
▁후반	-7350
▁흘러	-7351
가지구	-7352
간다는	-7353
갔는데	-7354
건거요	-7355
겅가요	-7356
과목을	-7357
그래밍	-7358
기능이	-7359
끝나고	-7360
놓으면	-7361
놓으셨	-7362
닉네임	-7363
달라구	-7364
드리는	-7365
떄부터	-7366
릴게요	-7367
만으로	-7368
메이트	-7369
문제가	-7370
받아야	-7371
방에서	-7372
색으로	-7373
생인데	-7374
속에서	-7375
시구요	-7376
시니까	-7377
아서요	-7378
어야지	-7379
어주고	-7380
였는지	-7381
였으면	-7382
오는데	-7383
외에도	-7384
웁니다	-7385
원들이	-7386
으려는	-7387
으셔야	-7388
의미한	-7389
이나마	-7390
이야기	-7391
인들이	-7392
일어나	-7393
잇어서	-7394
있나요	-7395
자구요	-7396
적으론	-7397
중이야	-7398
천면역	-7399
트웨어	-7400
필요한	-7401
하게도	-7402
하기싫	-7403
하느라	-7404
하다구	-7405
하셔요	-7406
하시던	-7407
하시죠	-7408
할수잇	-7409
함니다	-7410
해보면	-7411
했더니	-7412
했으니	-7413
▁가르치	-7414
▁가방에	-7415
▁가볍게	-7416
▁가슴이	-7417
▁감각이	-7418
▁감정에	-7419
▁강의에	-7420
▁강하게	-7421
▁같다는	-7422
▁것들도	-7423
▁게다가	-7424
▁겨울에	-7425
▁결과는	-7426
▁결국은	-7427
▁결론이	-7428
▁결혼식	-7429
▁고난도	-7430
▁고대는	-7431
▁고려해	-7432
▁고쳐야	-7433
▁공기업	-7434
▁공부방	-7435
▁공부허	-7436
▁공책에	-7437
▁과목인	-7438
▁관계가	-7439
▁괜찮다	-7440
▁교사가	-7441
▁교수가	-7442
▁구조가	-7443
▁국어랑	-7444
▁국영수	-7445
▁그걸로	-7446
▁그니까	-7447
▁그런건	-7448
▁그렇다	-7449
▁급하게	-7450
▁기능을	-7451
▁기분은	-7452
▁기억은	-7453
▁기억해	-7454
▁기준은	-7455
▁기출만	-7456
▁기흉이	-7457
▁긴장감	-7458
▁긴장이	-7459
▁길어서	-7460
▁깨달은	-7461
▁끝내는	-7462
▁나가고	-7463
▁나가면	-7464
▁나라가	-7465
▁나라는	-7466
▁나쁘게	-7467
▁나오지	-7468
▁나와요	-7469
▁나이가	-7470
▁남기고	-7471
▁낮아서	-7472
▁내신에	-7473
▁넣으려	-7474
▁넣으면	-7475
▁노래를	-7476
▁노래방	-7477
▁논란이	-7478
▁논문을	-7479
▁높아서	-7480
▁높이기	-7481
▁누워서	-7482
▁느낀다	-7483
▁느낌을	-7484
▁능력을	-7485
▁다녔던	-7486
▁다루는	-7487
▁다르니	-7488
▁다르면	-7489
▁다른거	-7490
▁도움되	-7491
▁독서에	-7492
▁동기가	-7493
▁동영상	-7494
▁되거든	-7495
▁되잖아	-7496
▁뒤집어	-7497
▁드려도	-7498
▁드시면	-7499
▁듣는다	-7500
▁듣는데	-7501
▁때에는	-7502
▁리포트	-7503
▁막히는	-7504
▁만나는	-7505
▁많다면	-7506
▁많으신	-7507
▁말싸움	-7508
▁말씀은	-7509
▁말씀을	-7510
▁맘대로	-7511
▁멘탈을	-7512
▁명확히	-7513
▁모르니	-7514
▁모른다	-7515
▁모습이	-7516
▁목적은	-7517
▁몰아서	-7518
▁못하게	-7519
▁못하면	-7520
▁무리가	-7521
▁무지성	-7522
▁무책임	-7523
▁문장을	-7524
▁문장이	-7525
▁문제임	-7526
▁미래의	-7527
▁바꾸면	-7528
▁바뀌었	-7529
▁반대로	-7530
▁반에서	-7531
▁반응이	-7532
▁받았다	-7533
▁받으신	-7534
▁방어선	-7535
▁방학이	-7536
▁방해가	-7537
▁배워서	-7538
▁버리기	-7539
▁변환표	-7540
▁보기도	-7541
▁보기만	-7542
▁보통은	-7543
▁봄니다	-7544
▁부끄러	-7545
▁부산은	-7546
▁불면증	-7547
▁불안해	-7548
▁비싸고	-7549
▁빠르고	-7550
▁사라진	-7551
▁사람만	-7552
▁사범대	-7553
▁사용해	-7554
▁사진만	-7555
▁살면서	-7556
▁색연필	-7557
▁서비스	-7558
▁서울은	-7559
▁선택이	-7560
▁설명이	-7561
▁성격이	-7562
▁성희롱	-7563
▁세로로	-7564
▁세상이	-7565
▁속상해	-7566
▁수의대	-7567
▁수준에	-7568
▁수학과	-7569
▁순서가	-7570
▁순서로	-7571
▁순으로	-7572
▁쉬워서	-7573
▁시리즈	-7574
▁시비걸	-7575
▁신경을	-7576
▁실기를	-7577
▁실험을	-7578
▁싫으면	-7579
▁안나요	-7580
▁안타까	-7581
▁않다고	-7582
▁않았어	-7583
▁않았었	-7584
▁않으셨	-7585
▁알아주	-7586
▁알차게	-7587
▁암기를	-7588
▁어느새	-7589
▁어디에	-7590
▁어려우	-7591
▁어려웠	-7592
▁어른이	-7593
▁어휘를	-7594
▁없었다	-7595
▁없었어	-7596
▁여기가	-7597
▁여전히	-7598
▁여쭈어	-7599
▁연습해	-7600
▁영역을	-7601
▁오르는	-7602
▁오빠도	-7603
▁오셔서	-7604
▁올게요	-7605
▁올려서	-7606
▁올바른	-7607
▁올해도	-7608
▁와이파	-7609
▁외국인	-7610
▁요즘엔	-7611
▁용도로	-7612
▁원래는	-7613
▁원래도	-7614
▁위험한	-7615
▁응원해	-7616
▁의견이	-7617
▁이것만	-7618
▁이겨내	-7619
▁이과가	-7620
▁이과로	-7621
▁이기는	-7622
▁이러다	-7623
▁이런데	-7624
▁이해는	-7625
▁일본은	-7626
▁읽어주	-7627
▁잇는데	-7628
▁있겠다	-7629
▁있을지	-7630
▁자기들	-7631
▁자동차	-7632
▁자습서	-7633
▁잘하자	-7634
▁장점이	-7635
▁저라면	-7636
▁저희가	-7637
▁적용이	-7638
▁전날에	-7639
▁전에는	-7640
▁전자기	-7641
▁정부가	-7642
▁정해야	-7643
▁제한이	-7644
▁조건을	-7645
▁좋네요	-7646
▁주식은	-7647
▁주제를	-7648
▁중이라	-7649
▁지문만	-7650
▁지문의	-7651
▁지우고	-7652
▁직전에	-7653
▁짝수형	-7654
▁책이랑	-7655
▁체육복	-7656
▁치는데	-7657
▁칼럼은	-7658
▁커버가	-7659
▁타이밍	-7660
▁통해서	-7661
▁편하실	-7662
▁포트폴	-7663
▁표지가	-7664
▁표현을	-7665
▁푸는거	-7666
▁피타고	-7667
▁필요없	-7668
▁하고싶	-7669
▁하구요	-7670
▁하나를	-7671
▁하루를	-7672
▁하시길	-7673
▁하지마	-7674
▁학교도	-7675
▁학생은	-7676
▁학생회	-7677
▁할머니	-7678
▁합격할	-7679
▁해설이	-7680
▁했네요	-7681
▁했더니	-7682
▁행동이	-7683
▁행복한	-7684
▁확률도	-7685
▁환자가	-7686
▁회독을	-7687
▁후회할	-7688
▁휴대폰	-7689
▁휴식을	-7690
▁힘들고	-7691
▁힘들다	-7692
▁힘들면	-7693
겠습니까	-7694
구석에서	-7695
식으으로	-7696
이라는게	-7697
이라는데	-7698
하는대요	-7699
하시면서	-7700
해보세요	-7701
해야겠다	-7702
해야하나	-7703
했습나다	-7704
헷습니다	-7705
▁가능하다	-7706
▁가능해요	-7707
▁갔습니다	-7708
▁갔었는데	-7709
▁개학하면	-7710
▁것이에요	-7711
▁게시물이	-7712
▁계시나요	-7713
▁고민하고	-7714
▁과제에서	-7715
▁교육방송	-7716
▁교환학생	-7717
▁궁금한게	-7718
▁그래프가	-7719
▁그렇다면	-7720
▁기반으로	-7721
▁기본으로	-7722
▁남았는데	-7723
▁내신기간	-7724
▁내신대비	-7725
▁누군가는	-7726
▁느껴지는	-7727
▁다니면서	-7728
▁다니시면	-7729
▁달라지는	-7730
▁도움되는	-7731
▁도전해보	-7732
▁돌아가는	-7733
▁되는데요	-7734
▁드립니다	-7735
▁들으세요	-7736
▁들으시는	-7737
▁디바이스	-7738
▁때문이다	-7739
▁만들면서	-7740
▁만족하고	-7741
▁모르겟다	-7742
▁모르겟어	-7743
▁모르겠고	-7744
▁못한다는	-7745
▁못했는데	-7746
▁못했어요	-7747
▁미루다가	-7748
▁박사과정	-7749
▁반복하는	-7750
▁받았다고	-7751
▁배경화면	-7752
▁벼락치기	-7753
▁보입니다	-7754
▁복수전공	-7755
▁복잡하게	-7756
▁부담스러	-7757
▁부모님께	-7758
▁부정적인	-7759
▁분석하고	-7760
▁분석하면	-7761
▁분위기에	-7762
▁불안해서	-7763
▁비슷해서	-7764
▁사람에게	-7765
▁사이에서	-7766
▁상태에서	-7767
▁생각나서	-7768
▁생각에는	-7769
▁생겼는데	-7770
▁서울대를	-7771
▁선택하는	-7772
▁설명하는	-7773
▁성공하신	-7774
▁수정해서	-7775
▁순서대로	-7776
▁시작해도	-7777
▁시작해서	-7778
▁시험인데	-7779
▁신경쓰지	-7780
▁신중하게	-7781
▁심해지면	-7782
▁아프리카	-7783
▁안그래도	-7784
▁안되네요	-7785
▁안된다고	-7786
▁안됩니다	-7787
▁애들한테	-7788
▁얘기하는	-7789
▁어떻게든	-7790
▁어려운데	-7791
▁어린아이	-7792
▁언젠가는	-7793
▁없었네요	-7794
▁없으니까	-7795
▁없잖아요	-7796
▁여름방학	-7797
▁여유롭게	-7798
▁여자친구	-7799
▁오랫만에	-7800
▁유명하신	-7801
▁이정도면	-7802
▁이탈리아	-7803
▁익숙해지	-7804
▁인터넷을	-7805
▁일상생활	-7806
▁일요일은	-7807
▁자기한테	-7808
▁자신감을	-7809
▁잘하시는	-7810
▁장단점이	-7811
▁재밌어요	-7812
▁전체적인	-7813
▁전화해서	-7814
▁죄송해요	-7815
▁준비하면	-7816
▁중요한게	-7817
▁지나가다	-7818
▁지엽적인	-7819
▁집중력이	-7820
▁참고하면	-7821
▁최소한의	-7822
▁컨디션이	-7823
▁컴퓨터로	-7824
▁퀄리티가	-7825
▁틀리는데	-7826
▁풀이법을	-7827
▁필요하다	-7828
▁필요해요	-7829
▁하다보면	-7830
▁하던데요	-7831
▁하셨는데	-7832
▁학교마다	-7833
▁학생분의	-7834
▁할머니가	-7835
▁할아버지	-7836
▁해보세요	-7837
▁햇습니다	-7838
▁현실적인	-7839
▁현역이라	-7840
▁현장에서	-7841
▁혹시라도	-7842
▁회사에서	-7843
▁회의감이	-7844
▁효율적인	-7845
겠더라고요	-7846
▁공부시간은	-7847
▁공부시간이	-7848
▁공부하세요	-7849
▁궁금해서요	-7850
▁들어갔는데	-7851
▁마지막으로	-7852
▁많더라구요	-7853
▁모의고사도	-7854
▁문제집으로	-7855
▁배경지식을	-7856
▁보았습니다	-7857
▁본격적으로	-7858
▁사람입니다	-7859
▁생각하시면	-7860
▁수업시간에	-7861
▁시작했는데	-7862
▁안타깝게도	-7863
▁않더라고요	-7864
▁알려주셔서	-7865
▁없더라고요	-7866
▁우선적으로	-7867
▁유리하다고	-7868
▁입장에서는	-7869
▁있는건가요	-7870
▁있었는데요	-7871
▁있으시다면	-7872
▁정상적으로	-7873
▁조금이나마	-7874
▁좋더라구요	-7875
▁주기적으로	-7876
▁중간중간에	-7877
▁중점적으로	-7878
▁지구과학을	-7879
▁직접적으로	-7880
▁체계적으로	-7881
▁포스트잇에	-7882
▁풀어보시는	-7883
▁풀어주세요	-7884
▁프로그래밍	-7885
▁하신건가요	-7886
▁힘들었어요	-7887
▁마스터님께서	-7888
▁마스터님들이	-7889
▁실전모의고사	-7890
▁축하드립니다	-7891
▁갱	-7892
▁낭	-7893
▁는	-7894
▁늙	-7895
▁닦	-7896
▁됀	-7897
▁됩	-7898
▁둔	-7899
▁봣	-7900
▁뵈	-7901
▁얕	-7902
▁웅	-7903
▁쳇	-7904
▁폴	-7905
▁헸	-7906
가봐	-7907
감각	-7908
갔어	-7909
개를	-7910
결합	-7911
경험	-7912
곳이	-7913
과제	-7914
국민	-7915
글은	-7916
급이	-7917
기능	-7918
껴서	-7919
나도	-7920
늦게	-7921
다지	-7922
데체	-7923
도도	-7924
도많	-7925
도소	-7926
동에	-7927
될까	-7928
들로	-7929
듯한	-7930
떄가	-7931
라두	-7932
락이	-7933
랴면	-7934
러야	-7935
려니	-7936
렸어	-7937
마음	-7938
많다	-7939
멍이	-7940
바람	-7941
바서	-7942
반도	-7943
받지	-7944
방향	-7945
법도	-7946
보기	-7947
볼래	-7948
부러	-7949
부탁	-7950
분의	-7951
비가	-7952
비도	-7953
사랑	-7954
사전	-7955
사지	-7956
상을	-7957
생기	-7958
생은	-7959
수능	-7960
수없	-7961
시대	-7962
신다	-7963
아냐	-7964
아직	-7965
애를	-7966
야죠	-7967
어려	-7968
업시	-7969
업씨	-7970
없구	-7971
엇음	-7972
영어	-7973
오고	-7974
와의	-7975
운을	-7976
위는	-7977
을만	-7978
의대	-7979
의식	-7980
이게	-7981
이유	-7982
일떄	-7983
일러	-7984
일어	-7985
일지	-7986
임을	-7987
자구	-7988
재로	-7989
정시	-7990
제품	-7991
져가	-7992
져야	-7993
종합	-7994
증상	-7995
직한	-7996
집중	-7997
체크	-7998
칼럼	-7999
트를	-8000
파트	-8001
하디	-8002
하심	-8003
한걸	-8004
한국	-8005
햇지	-8006
했음	-8007
헤서	-8008
회의	-8009
▁가사	-8010
▁갔이	-8011
▁강남	-8012
▁개가	-8013
▁갠찬	-8014
▁걸렸	-8015
▁것일	-8016
▁것임	-8017
▁결제	-8018
▁경계	-8019
▁괜차	-8020
▁군데	-8021
▁권리	-8022
▁그딴	-8023
▁근로	-8024
▁글고	-8025
▁글의	-8026
▁급식	-8027
▁나니	-8028
▁남을	-8029
▁널리	-8030
▁넘는	-8031
▁노출	-8032
▁놀았	-8033
▁누그	-8034
▁누나	-8035
▁느슨	-8036
▁늘지	-8037
▁니무	-8038
▁다중	-8039
▁답장	-8040
▁대출	-8041
▁대회	-8042
▁도달	-8043
▁도장	-8044
▁돈벌	-8045
▁되길	-8046
▁되셨	-8047
▁된대	-8048
▁드렸	-8049
▁등의	-8050
▁따기	-8051
▁딲히	-8052
▁딴짓	-8053
▁떠나	-8054
▁말임	-8055
▁맞춤	-8056
▁매력	-8057
▁먹어	-8058
▁명문	-8059
▁몇분	-8060
▁모순	-8061
▁모양	-8062
▁모여	-8063
▁목동	-8064
▁몸을	-8065
▁못받	-8066
▁못함	-8067
▁무릎	-8068
▁문서	-8069
▁뭐야	-8070
▁뭐지	-8071
▁믄재	-8072
▁반납	-8073
▁발휘	-8074
▁배가	-8075
▁밴드	-8076
▁버틸	-8077
▁번만	-8078
▁범주	-8079
▁보긴	-8080
▁보실	-8081
▁보임	-8082
▁보존	-8083
▁보험	-8084
▁봐주	-8085
▁부딪	-8086
▁부뷴	-8087
▁부심	-8088
▁부자	-8089
▁붙고	-8090
▁비상	-8091
▁비워	-8092
▁빌런	-8093
▁사례	-8094
▁사물	-8095
▁산책	-8096
▁살기	-8097
▁생리	-8098
▁서양	-8099
▁성대	-8100
▁세운	-8101
▁소프	-8102
▁수영	-8103
▁수출	-8104
▁순위	-8105
▁쉬웠	-8106
▁쉽고	-8107
▁시에	-8108
▁시절	-8109
▁식물	-8110
▁싶고	-8111
▁쓰인	-8112
▁아녔	-8113
▁아플	-8114
▁안받	-8115
▁안써	-8116
▁알지	-8117
▁애기	-8118
▁약국	-8119
▁어딨	-8120
▁어울	-8121
▁어째	-8122
▁어학	-8123
▁얻을	-8124
▁역학	-8125
▁연세	-8126
▁오게	-8127
▁요리	-8128
▁욕할	-8129
▁우유	-8130
▁운래	-8131
▁원시	-8132
▁위반	-8133
▁유통	-8134
▁의존	-8135
▁의한	-8136
▁이수	-8137
▁이와	-8138
▁일거	-8139
▁읽구	-8140
▁잃지	-8141
▁잇어	-8142
▁잊고	-8143
▁잊지	-8144
▁작게	-8145
▁전향	-8146
▁정의	-8147
▁종교	-8148
▁주도	-8149
▁줄이	-8150
▁중립	-8151
▁증상	-8152
▁지배	-8153
▁지웠	-8154
▁진단	-8155
▁진출	-8156
▁집애	-8157
▁쪽에	-8158
▁찍는	-8159
▁차량	-8160
▁차례	-8161
▁착한	-8162
▁첨부	-8163
▁체험	-8164
▁추정	-8165
▁치열	-8166
▁커요	-8167
▁크지	-8168
▁키우	-8169
▁티켓	-8170
▁편도	-8171
▁편집	-8172
▁편한	-8173
▁폴더	-8174
▁하냐	-8175
▁함정	-8176
▁해걸	-8177
▁해여	-8178
▁해준	-8179
▁햇다	-8180
▁혹쉬	-8181
가격리	-8182
가는데	-8183
가능한	-8184
가튼거	-8185
간다고	-8186
거같아	-8187
거구요	-8188
겠는데	-8189
고싶다	-8190
곳에서	-8191
관에서	-8192
그대로	-8193
까지의	-8194
냐고요	-8195
느낌이	-8196
는거도	-8197
는거에	-8198
능력이	-8199
다가요	-8200
데으로	-8201
동안은	-8202
됄까요	-8203
되니까	-8204
된다고	-8205
드려야	-8206
리는게	-8207
리스트	-8208
린다는	-8209
마스터	-8210
맞아서	-8211
목으로	-8212
방법은	-8213
방법을	-8214
버리는	-8215
분석을	-8216
사라미	-8217
셨다고	-8218
스럽지	-8219
슬가요	-8220
시키면	-8221
십시오	-8222
안하구	-8223
야겠어	-8224
어지고	-8225
여서요	-8226
왔어요	-8227
위주로	-8228
은데요	-8229
이유가	-8230
이잖아	-8231
인이라	-8232
잇는데	-8233
자들도	-8234
정보를	-8235
정으로	-8236
중에서	-8237
지니까	-8238
지모르	-8239
지않았	-8240
하길래	-8241
하자고	-8242
하자나	-8243
하지도	-8244
학과를	-8245
학생들	-8246
한거야	-8247
할수있	-8248
합니까	-8249
해야할	-8250
했거든	-8251
했지만	-8252
▁가계도	-8253
▁가나요	-8254
▁가능성	-8255
▁가셔서	-8256
▁가시는	-8257
▁가시면	-8258
▁가지구	-8259
▁가튼거	-8260
▁간다고	-8261
▁갈게요	-8262
▁갈수있	-8263
▁감자기	-8264
▁감정을	-8265
▁갔으면	-8266
▁같내요	-8267
▁거구나	-8268
▁건지는	-8269
▁걸리면	-8270
▁것들은	-8271
▁것부터	-8272
▁경우에	-8273
▁계세요	-8274
▁계획도	-8275
▁계획표	-8276
▁고르는	-8277
▁공감이	-8278
▁국어의	-8279
▁군대를	-8280
▁귀여운	-8281
▁그다음	-8282
▁그치만	-8283
▁근거를	-8284
▁글에서	-8285
▁나는데	-8286
▁나니까	-8287
▁나아지	-8288
▁나와도	-8289
▁나왔다	-8290
▁나이에	-8291
▁남았다	-8292
▁내용에	-8293
▁넣어주	-8294
▁놓치는	-8295
▁느끼는	-8296
▁닉네임	-8297
▁다르다	-8298
▁다하면	-8299
▁단순한	-8300
▁단어는	-8301
▁단위로	-8302
▁달리면	-8303
▁달아주	-8304
▁담당자	-8305
▁대체로	-8306
▁대치동	-8307
▁대학에	-8308
▁대화를	-8309
▁도데체	-8310
▁됐네요	-8311
▁되시길	-8312
▁듣기는	-8313
▁듣는게	-8314
▁들리는	-8315
▁뜻으로	-8316
▁만점을	-8317
▁많으면	-8318
▁말로만	-8319
▁말리는	-8320
▁맞추면	-8321
▁먹었던	-8322
▁모자란	-8323
▁뭐라도	-8324
▁바뀌는	-8325
▁받으셨	-8326
▁방학떄	-8327
▁방향을	-8328
▁방향이	-8329
▁배우면	-8330
▁별으로	-8331
▁보시는	-8332
▁복습이	-8333
▁봄미다	-8334
▁봅시다	-8335
▁분석한	-8336
▁블로그	-8337
▁사라지	-8338
▁사실을	-8339
▁사용한	-8340
▁살아서	-8341
▁생활을	-8342
▁세우고	-8343
▁속도가	-8344
▁수준의	-8345
▁스타일	-8346
▁습관이	-8347
▁시간과	-8348
▁신고를	-8349
▁실력도	-8350
▁싫다고	-8351
▁심각한	-8352
▁심하다	-8353
▁싶다면	-8354
▁싸움이	-8355
▁쓰는거	-8356
▁쓰는데	-8357
▁아나요	-8358
▁안되서	-8359
▁안보고	-8360
▁안올라	-8361
▁안좋아	-8362
▁안하구	-8363
▁않네요	-8364
▁알려줘	-8365
▁알아봐	-8366
▁약속을	-8367
▁얘기는	-8368
▁얼굴도	-8369
▁없는거	-8370
▁없는대	-8371
▁없다면	-8372
▁여자가	-8373
▁연세대	-8374
▁오늘이	-8375
▁올리실	-8376
▁외우기	-8377
▁외우면	-8378
▁외워서	-8379
▁웬만한	-8380
▁유사한	-8381
▁유익한	-8382
▁의대를	-8383
▁의대에	-8384
▁의도를	-8385
▁이따가	-8386
▁이름만	-8387
▁이상은	-8388
▁이유로	-8389
▁이해해	-8390
▁인간들	-8391
▁일본이	-8392
▁잇어요	-8393
▁있겠지	-8394
▁있는것	-8395
▁있다가	-8396
▁자려고	-8397
▁잘못은	-8398
▁잘하눈	-8399
▁재미가	-8400
▁재미도	-8401
▁재밌을	-8402
▁저런거	-8403
▁점수랑	-8404
▁정도야	-8405
▁정신을	-8406
▁정해서	-8407
▁정해져	-8408
▁좋으신	-8409
▁주기로	-8410
▁준비가	-8411
▁중국은	-8412
▁중국인	-8413
▁중이다	-8414
▁증거가	-8415
▁지문들	-8416
▁직원들	-8417
▁질문해	-8418
▁챙겨서	-8419
▁초점이	-8420
▁최고인	-8421
▁추가해	-8422
▁축하해	-8423
▁충분할	-8424
▁코로저	-8425
▁터지면	-8426
▁테니까	-8427
▁틈틈이	-8428
▁퍼텐셜	-8429
▁페이지	-8430
▁푸세요	-8431
▁푼다는	-8432
▁풀어요	-8433
▁플랫폼	-8434
▁필기는	-8435
▁하거든	-8436
▁하나의	-8437
▁하니깐	-8438
▁하루도	-8439
▁하자고	-8440
▁하잖아	-8441
▁학교랑	-8442
▁한번만	-8443
▁할수록	-8444
▁해볼까	-8445
▁해봐서	-8446
▁해석을	-8447
▁했다가	-8448
▁환경이	-8449
▁회사에	-8450
▁힘들긴	-8451
▁힘들지	-8452
거같타요	-8453
바랍니다	-8454
어보세요	-8455
왔습니다	-8456
을거라고	-8457
이었지만	-8458
적으로는	-8459
중입니다	-8460
하거든요	-8461
하는거지	-8462
하던데요	-8463
하려고요	-8464
해주시는	-8465
헤주세요	-8466
▁가져와서	-8467
▁감사하고	-8468
▁같았어요	-8469
▁개념들도	-8470
▁걸리나요	-8471
▁공부량이	-8472
▁공부허기	-8473
▁공유하고	-8474
▁과목에서	-8475
▁과목으로	-8476
▁괜찮나요	-8477
▁교과서를	-8478
▁궁금한거	-8479
▁그러네요	-8480
▁끝났는데	-8481
▁나온다는	-8482
▁남자친구	-8483
▁내신공부	-8484
▁너머ᅥ가	-8485
▁느껴져서	-8486
▁다니는데	-8487
▁다니다가	-8488
▁다운로드	-8489
▁다음날에	-8490
▁다음주에	-8491
▁대표적인	-8492
▁데이터를	-8493
▁돌아오는	-8494
▁들어가도	-8495
▁들어오면	-8496
▁따뜻하게	-8497
▁떨어져서	-8498
▁떨어졌다	-8499
▁마시고요	-8500
▁마음가짐	-8501
▁만났으면	-8502
▁많은데요	-8503
▁말입니다	-8504
▁말하면서	-8505
▁먹는다는	-8506
▁목요일에	-8507
▁못하는데	-8508
▁무난하게	-8509
▁문제들도	-8510
▁문제집도	-8511
▁문제집만	-8512
▁발표해야	-8513
▁방학동안	-8514
▁방향으로	-8515
▁배워보고	-8516
▁볼떄마다	-8517
▁부분들이	-8518
▁부족하다	-8519
▁사달라고	-8520
▁사람들의	-8521
▁사람이라	-8522
▁생각해도	-8523
▁생각해야	-8524
▁생각했던	-8525
▁선생님께	-8526
▁성적으로	-8527
▁수능시험	-8528
▁수학공부	-8529
▁순간부터	-8530
▁시간제한	-8531
▁시작하면	-8532
▁시험범위	-8533
▁시험이랑	-8534
▁쓰셨는지	-8535
▁쓸데없이	-8536
▁아닌데요	-8537
▁아시나요	-8538
▁않는다면	-8539
▁않았나요	-8540
▁않았어요	-8541
▁알고리즘	-8542
▁어렵네요	-8543
▁없습니디	-8544
▁없었는데	-8545
▁에너지를	-8546
▁연습해야	-8547
▁와이파이	-8548
▁왔다갔다	-8549
▁우리학교	-8550
▁이런거에	-8551
▁이런것도	-8552
▁이모티콘	-8553
▁이해하려	-8554
▁인강으로	-8555
▁일대일로	-8556
▁일어나면	-8557
▁일어나서	-8558
▁잇으시면	-8559
▁있었는지	-8560
▁있으셔서	-8561
▁자가격리	-8562
▁잘못하면	-8563
▁재밌어서	-8564
▁재수하는	-8565
▁적었어요	-8566
▁적혀있는	-8567
▁좋겠지만	-8568
▁좋습나다	-8569
▁좋았는데	-8570
▁주식으로	-8571
▁중국어권	-8572
▁지금처럼	-8573
▁집중하고	-8574
▁차원에서	-8575
▁처음에는	-8576
▁체크하는	-8577
▁추천이요	-8578
▁추천한다	-8579
▁테스트를	-8580
▁피드백을	-8581
▁하더라고	-8582
▁하더라도	-8583
▁하시는게	-8584
▁하시는지	-8585
▁하지만요	-8586
▁학생들의	-8587
▁한국사는	-8588
▁합격해서	-8589
▁해결하는	-8590
▁해봅시다	-8591
▁했씁니다	-8592
▁했었어요	-8593
▁형식으로	-8594
시더라고요	-8595
해야겠어요	-8596
▁공부하려고	-8597
▁과목이에요	-8598
▁되는건가요	-8599
▁많았는데요	-8600
▁머릿속에서	-8601
▁모르겟찌만	-8602
▁모르겠다고	-8603
▁모의고사가	-8604
▁모의고사들	-8605
▁생각하는데	-8606
▁소프트웨어	-8607
▁스트레스를	-8608
▁아니더라도	-8609
▁없었습니다	-8610
▁인터넷으로	-8611
▁재수하면서	-8612
▁좋아하는데	-8613
▁필요하다고	-8614
▁해야겠어요	-8615
▁홈페이지에	-8616
▁알려드릴게요	-8617
▁추천해주세요	-8618
▁해보겠습니다	-8619
▁겉	-8620
▁곁	-8621
▁곰	-8622
▁곱	-8623
▁궤	-8624
▁꽂	-8625
▁끋	-8626
▁끓	-8627
▁냅	-8628
▁뒀	-8629
▁떴	-8630
▁뚜	-8631
▁롱	-8632
▁룸	-8633
▁뭣	-8634
▁밸	-8635
▁벚	-8636
▁빅	-8637
▁빗	-8638
▁뻗	-8639
▁섭	-8640
▁썩	-8641
▁씁	-8642
▁잴	-8643
▁즉	-8644
▁짱	-8645
▁찰	-8646
▁촉	-8647
▁층	-8648
▁캠	-8649
▁쾌	-8650
▁탑	-8651
▁텍	-8652
▁펜	-8653
▁펼	-8654
가구	-8655
가다	-8656
간대	-8657
개토	-8658
거는	-8659
거랑	-8660
거림	-8661
검사	-8662
게가	-8663
게되	-8664
경이	-8665
계시	-8666
교수	-8667
구에	-8668
구저	-8669
권은	-8670
권을	-8671
권화	-8672
그라	-8673
그럿	-8674
그릇	-8675
긴해	-8676
까짓	-8677
꽃이	-8678
끄럽	-8679
내가	-8680
네욥	-8681
네일	-8682
년도	-8683
능력	-8684
니요	-8685
다른	-8686
당에	-8687
대충	-8688
던걸	-8689
데르	-8690
도형	-8691
동물	-8692
동아	-8693
돼지	-8694
된대	-8695
두는	-8696
둘까	-8697
드려	-8698
드렸	-8699
든가	-8700
든다	-8701
들다	-8702
따고	-8703
똑한	-8704
뚱땅	-8705
라우	-8706
량은	-8707
러니	-8708
렇지	-8709
로서	-8710
로우	-8711
로울	-8712
론을	-8713
료소	-8714
루투	-8715
르게	-8716
르르	-8717
리나	-8718
린것	-8719
마냥	-8720
마저	-8721
많은	-8722
말까	-8723
말씀	-8724
망을	-8725
맞는	-8726
매매	-8727
머로	-8728
면허	-8729
모집	-8730
목표	-8731
무슨	-8732
문도	-8733
민족	-8734
바꼐	-8735
박수	-8736
박죽	-8737
배우	-8738
배치	-8739
버려	-8740
버른	-8741
번째	-8742
벡터	-8743
변이	-8744
보게	-8745
복지	-8746
본을	-8747
분명	-8748
분은	-8749
분을	-8750
븐이	-8751
블이	-8752
비를	-8753
비탈	-8754
빨리	-8755
빼고	-8756
뿐만	-8757
사구	-8758
사상	-8759
상의	-8760
생겼	-8761
서도	-8762
서버	-8763
석에	-8764
석은	-8765
선의	-8766
세계	-8767
셨네	-8768
소를	-8769
수칙	-8770
숙제	-8771
스를	-8772
스잇	-8773
시네	-8774
시던	-8775
식은	-8776
식품	-8777
식해	-8778
신게	-8779
실력	-8780
실에	-8781
실은	-8782
심에	-8783
씨가	-8784
아님	-8785
아줄	-8786
아프	-8787
약은	-8788
약한	-8789
어놓	-8790
어떤	-8791
어마	-8792
어본	-8793
어빵	-8794
엇던	-8795
었음	-8796
영업	-8797
오니	-8798
올리	-8799
외과	-8800
운동	-8801
운이	-8802
움을	-8803
웃거	-8804
워야	-8805
워지	-8806
워크	-8807
유예	-8808
으란	-8809
이냐	-8810
이서	-8811
이의	-8812
인게	-8813
자녀	-8814
자산	-8815
잘못	-8816
잡는	-8817
장의	-8818
저녁	-8819
저트	-8820
전도	-8821
절이	-8822
정치	-8823
좋을	-8824
주기	-8825
주들	-8826
주행	-8827
지구	-8828
지니	-8829
지망	-8830
질러	-8831
질을	-8832
질팡	-8833
집도	-8834
쨋든	-8835
쪽에	-8836
쯤에	-8837
차순	-8838
천에	-8839
최면	-8840
추는	-8841
춰야	-8842
타민	-8843
트랙	-8844
트러	-8845
파서	-8846
퍼요	-8847
페인	-8848
플릿	-8849
하우	-8850
하저	-8851
할게	-8852
해낸	-8853
했기	-8854
헸대	-8855
혀서	-8856
혁을	-8857
현대	-8858
혈압	-8859
호가	-8860
화되	-8861
황을	-8862
회독	-8863
횡단	-8864
힌다	-8865
▁가망	-8866
▁가벼	-8867
▁각성	-8868
▁간격	-8869
▁간의	-8870
▁간절	-8871
▁갈팡	-8872
▁감기	-8873
▁값을	-8874
▁갔어	-8875
▁강아	-8876
▁같진	-8877
▁개별	-8878
▁개운	-8879
▁개척	-8880
▁개화	-8881
▁걔는	-8882
▁거능	-8883
▁거슬	-8884
▁건너	-8885
▁건전	-8886
▁걸러	-8887
▁것같	-8888
▁것두	-8889
▁견딜	-8890
▁겹치	-8891
▁경향	-8892
▁고교	-8893
▁고냥	-8894
▁고득	-8895
▁고런	-8896
▁고양	-8897
▁고장	-8898
▁고집	-8899
▁고칠	-8900
▁곤란	-8901
▁골랐	-8902
▁공백	-8903
▁공뷰	-8904
▁공익	-8905
▁과감	-8906
▁과고	-8907
▁과기	-8908
▁과에	-8909
▁광고	-8910
▁교직	-8911
▁구냥	-8912
▁구어	-8913
▁구입	-8914
▁구할	-8915
▁굳게	-8916
▁귀가	-8917
▁규제	-8918
▁그랫	-8919
▁그외	-8920
▁그쯤	-8921
▁금액	-8922
▁기가	-8923
▁기부	-8924
▁기상	-8925
▁깊이	-8926
▁깔아	-8927
▁깔짝	-8928
▁깜빡	-8929
▁깨어	-8930
▁깨우	-8931
▁깨질	-8932
▁꼬옥	-8933
▁꼭꼭	-8934
▁꿀벌	-8935
▁끊을	-8936
▁나태	-8937
▁날라	-8938
▁날로	-8939
▁남긴	-8940
▁낫죠	-8941
▁낯설	-8942
▁내림	-8943
▁내보	-8944
▁낼은	-8945
▁널널	-8946
▁넓고	-8947
▁넓이	-8948
▁넘치	-8949
▁네안	-8950
▁노려	-8951
▁녹화	-8952
▁놓은	-8953
▁누님	-8954
▁눌러	-8955
▁눌렀	-8956
▁느려	-8957
▁느릴	-8958
▁다는	-8959
▁다소	-8960
▁다해	-8961
▁단단	-8962
▁단정	-8963
▁달달	-8964
▁달릴	-8965
▁담주	-8966
▁답도	-8967
▁답인	-8968
▁대는	-8969
▁더러	-8970
▁독립	-8971
▁독재	-8972
▁됐어	-8973
▁됐을	-8974
▁되구	-8975
▁되든	-8976
▁되새	-8977
▁되야	-8978
▁둘을	-8979
▁뒤죽	-8980
▁뒹굴	-8981
▁듣지	-8982
▁들면	-8983
▁들여	-8984
▁디게	-8985
▁디테	-8986
▁따름	-8987
▁딴지	-8988
▁떄도	-8989
▁떄려	-8990
▁떠날	-8991
▁떠는	-8992
▁뜻을	-8993
▁띄워	-8994
▁라고	-8995
▁라구	-8996
▁리더	-8997
▁리뷰	-8998
▁마구	-8999
▁마른	-9000
▁마신	-9001
▁만난	-9002
▁많긴	-9003
▁많죠	-9004
▁말까	-9005
▁말들	-9006
▁말지	-9007
▁맘껏	-9008
▁망가	-9009
▁망설	-9010
▁망한	-9011
▁맞으	-9012
▁맞췄	-9013
▁매주	-9014
▁매진	-9015
▁매출	-9016
▁먹구	-9017
▁멀리	-9018
▁멋지	-9019
▁명백	-9020
▁명언	-9021
▁명예	-9022
▁몇년	-9023
▁모은	-9024
▁모인	-9025
▁몰입	-9026
▁못쓰	-9027
▁못햇	-9028
▁무겁	-9029
▁무언	-9030
▁묻는	-9031
▁물들	-9032
▁물이	-9033
▁물타	-9034
▁뭘로	-9035
▁뭣도	-9036
▁미세	-9037
▁미쳐	-9038
▁미팅	-9039
▁민감	-9040
▁민주	-9041
▁밑줄	-9042
▁반성	-9043
▁반은	-9044
▁반이	-9045
▁받기	-9046
▁발간	-9047
▁발달	-9048
▁발리	-9049
▁발포	-9050
▁밥이	-9051
▁방안	-9052
▁방출	-9053
▁방치	-9054
▁배신	-9055
▁배웠	-9056
▁밸런	-9057
▁버거	-9058
▁번은	-9059
▁벌꿀	-9060
▁법무	-9061
▁법인	-9062
▁벗어	-9063
▁별거	-9064
▁별일	-9065
▁보려	-9066
▁보안	-9067
▁보였	-9068
▁복사	-9069
▁뵙고	-9070
▁부는	-9071
▁부들	-9072
▁부작	-9073
▁부터	-9074
▁부피	-9075
▁비빔	-9076
▁비스	-9077
▁비염	-9078
▁비웃	-9079
▁빛이	-9080
▁빡센	-9081
▁빨간	-9082
▁빼곤	-9083
▁뽑고	-9084
▁사상	-9085
▁사형	-9086
▁사후	-9087
▁삶을	-9088
▁삼차	-9089
▁생산	-9090
▁생성	-9091
▁샤워	-9092
▁성경	-9093
▁성폭	-9094
▁소멸	-9095
▁소수	-9096
▁소식	-9097
▁속이	-9098
▁쇼트	-9099
▁수나	-9100
▁수료	-9101
▁수십	-9102
▁수입	-9103
▁수집	-9104
▁숙달	-9105
▁순식	-9106
▁쉬울	-9107
▁쉬움	-9108
▁스캔	-9109
▁스크	-9110
▁시나	-9111
▁시켰	-9112
▁신규	-9113
▁신문	-9114
▁신민	-9115
▁신발	-9116
▁신종	-9117
▁실컷	-9118
▁심신	-9119
▁심야	-9120
▁쌓고	-9121
▁쌓아	-9122
▁써본	-9123
▁써요	-9124
▁쓰다	-9125
▁쓰러	-9126
▁쓰레	-9127
▁씁쓸	-9128
▁악질	-9129
▁안마	-9130
▁안만	-9131
▁안먹	-9132
▁안부	-9133
▁안암	-9134
▁않지	-9135
▁압도	-9136
▁애용	-9137
▁야무	-9138
▁약은	-9139
▁양극	-9140
▁양성	-9141
▁양수	-9142
▁양해	-9143
▁얕게	-9144
▁어깨	-9145
▁어딘	-9146
▁억제	-9147
▁얻으	-9148
▁얼렁	-9149
▁얽힌	-9150
▁업데	-9151
▁없게	-9152
▁없던	-9153
▁여론	-9154
▁역대	-9155
▁연초	-9156
▁열이	-9157
▁열정	-9158
▁오기	-9159
▁온갖	-9160
▁왔던	-9161
▁왕복	-9162
▁외는	-9163
▁외래	-9164
▁외에	-9165
▁외엔	-9166
▁우물	-9167
▁우주	-9168
▁운도	-9169
▁웃음	-9170
▁원장	-9171
▁월간	-9172
▁위의	-9173
▁유급	-9174
▁유동	-9175
▁유창	-9176
▁유추	-9177
▁윤리	-9178
▁응용	-9179
▁이곳	-9180
▁이도	-9181
▁이력	-9182
▁이룬	-9183
▁이성	-9184
▁이시	-9185
▁이차	-9186
▁익혔	-9187
▁익힘	-9188
▁인쇄	-9189
▁인준	-9190
▁인한	-9191
▁일과	-9192
▁일기	-9193
▁읽은	-9194
▁임상	-9195
▁입구	-9196
▁있구	-9197
▁자가	-9198
▁자네	-9199
▁자라	-9200
▁자립	-9201
▁자만	-9202
▁자잘	-9203
▁작심	-9204
▁잔인	-9205
▁잘은	-9206
▁잘한	-9207
▁잘해	-9208
▁잠에	-9209
▁잡을	-9210
▁장비	-9211
▁장점	-9212
▁재구	-9213
▁재난	-9214
▁재해	-9215
▁저와	-9216
▁저지	-9217
▁적대	-9218
▁적힌	-9219
▁전동	-9220
▁전액	-9221
▁정규	-9222
▁정당	-9223
▁정두	-9224
▁정립	-9225
▁정문	-9226
▁정서	-9227
▁존중	-9228
▁졸고	-9229
▁좀더	-9230
▁종목	-9231
▁주를	-9232
▁주입	-9233
▁죽고	-9234
▁죽기	-9235
▁중대	-9236
▁증가	-9237
▁지겹	-9238
▁지는	-9239
▁지믄	-9240
▁지양	-9241
▁지장	-9242
▁지점	-9243
▁지친	-9244
▁지켰	-9245
▁지학	-9246
▁진실	-9247
▁집값	-9248
▁집을	-9249
▁짚고	-9250
▁찍었	-9251
▁차단	-9252
▁차분	-9253
▁참새	-9254
▁창문	-9255
▁책은	-9256
▁챙길	-9257
▁철저	-9258
▁첨에	-9259
▁청구	-9260
▁초급	-9261
▁초보	-9262
▁추상	-9263
▁추석	-9264
▁추세	-9265
▁추스	-9266
▁추후	-9267
▁춘천	-9268
▁출연	-9269
▁출판	-9270
▁취직	-9271
▁치기	-9272
▁치킨	-9273
▁친척	-9274
▁침략	-9275
▁침해	-9276
▁케어	-9277
▁콘셉	-9278
▁크고	-9279
▁크로	-9280
▁큰데	-9281
▁탄생	-9282
▁터졌	-9283
▁터지	-9284
▁토픽	-9285
▁통역	-9286
▁통학	-9287
▁통한	-9288
▁퇴근	-9289
▁퇴실	-9290
▁퇴원	-9291
▁툭툭	-9292
▁팀플	-9293
▁파고	-9294
▁파란	-9295
▁파업	-9296
▁팝송	-9297
▁패션	-9298
▁편파	-9299
▁편히	-9300
▁포괄	-9301
▁포도	-9302
▁포상	-9303
▁푸신	-9304
▁풀구	-9305
▁풀긴	-9306
▁풀떄	-9307
▁피로	-9308
▁피시	-9309
▁하셧	-9310
▁하심	-9311
▁학위	-9312
▁한게	-9313
▁한계	-9314
▁한글	-9315
▁한대	-9316
▁한방	-9317
▁한숨	-9318
▁할걸	-9319
▁할때	-9320
▁할떄	-9321
▁할려	-9322
▁해명	-9323
▁해부	-9324
▁행시	-9325
▁허수	-9326
▁형식	-9327
▁형이	-9328
▁형평	-9329
▁혼나	-9330
▁혼내	-9331
▁혼돈	-9332
▁화난	-9333
▁화날	-9334
▁화려	-9335
▁확고	-9336
▁확답	-9337
▁확대	-9338
▁확정	-9339
▁활발	-9340
▁활성	-9341
▁회색	-9342
▁회수	-9343
▁후드	-9344
▁휴원	-9345
▁흔히	-9346
갔다가	-9347
것들이	-9348
겟네요	-9349
관리도	-9350
관리를	-9351
교대는	-9352
교사가	-9353
권이나	-9354
기라고	-9355
기사가	-9356
기사항	-9357
꺼에요	-9358
끼리만	-9359
날까지	-9360
내는게	-9361
냈는데	-9362
놨다가	-9363
는거다	-9364
니깐요	-9365
다는걸	-9366
당하는	-9367
대는데	-9368
대으로	-9369
대학교	-9370
데르탈	-9371
드려서	-9372
드리긴	-9373
들어서	-9374
때까지	-9375
라는게	-9376
라는데	-9377
리에서	-9378
버렸다	-9379
법이나	-9380
베이스	-9381
보는게	-9382
봄니다	-9383
분들은	-9384
분으로	-9385
삼각형	-9386
셨군요	-9387
셨길래	-9388
소하고	-9389
스러울	-9390
습도가	-9391
시간은	-9392
시군요	-9393
시기도	-9394
시는건	-9395
시다가	-9396
시라면	-9397
시아사	-9398
시켜야	-9399
시하고	-9400
신다니	-9401
싶으면	-9402
아니구	-9403
아닌가	-9404
안하고	-9405
안하면	-9406
애들은	-9407
어나갈	-9408
어보는	-9409
어쓰기	-9410
었나요	-9411
었으면	-9412
었지만	-9413
역에서	-9414
올게요	-9415
왔으니	-9416
으니깐	-9417
으려고	-9418
이더라	-9419
이면서	-9420
인데이	-9421
인들은	-9422
일하게	-9423
잇어요	-9424
자격증	-9425
자님이	-9426
자체가	-9427
장님이	-9428
점수가	-9429
정도만	-9430
졌다고	-9431
주교대	-9432
중이다	-9433
쥬세요	-9434
지도않	-9435
지안아	-9436
쯤이면	-9437
킥보드	-9438
트워크	-9439
하겠다	-9440
하겠죠	-9441
하느냐	-9442
하려구	-9443
하셨어	-9444
하시구	-9445
하시네	-9446
하신거	-9447
하실떄	-9448
하지안	-9449
학생도	-9450
할까봐	-9451
할수록	-9452
함수의	-9453
해주구	-9454
해준다	-9455
해지지	-9456
혁명이	-9457
▁가거나	-9458
▁가까워	-9459
▁가난한	-9460
▁가다가	-9461
▁가리고	-9462
▁가정을	-9463
▁가져와	-9464
▁가천대	-9465
▁간단히	-9466
▁감각을	-9467
▁강의실	-9468
▁강의와	-9469
▁갖춰야	-9470
▁거의다	-9471
▁건물에	-9472
▁걸어서	-9473
▁검사도	-9474
▁검사받	-9475
▁것까지	-9476
▁결과도	-9477
▁결과로	-9478
▁겹쳐서	-9479
▁경상도	-9480
▁경쟁률	-9481
▁계산이	-9482
▁계시면	-9483
▁고소를	-9484
▁골라야	-9485
▁곳으로	-9486
▁공식을	-9487
▁공지에	-9488
▁과목도	-9489
▁과정에	-9490
▁과학고	-9491
▁광개토	-9492
▁교대를	-9493
▁교무실	-9494
▁교재로	-9495
▁구겨진	-9496
▁구성원	-9497
▁국어에	-9498
▁규정에	-9499
▁그거랑	-9500
▁그거를	-9501
▁그것을	-9502
▁그까짓	-9503
▁그다지	-9504
▁그러신	-9505
▁그렇죠	-9506
▁그려지	-9507
▁그리기	-9508
▁그부분	-9509
▁그분이	-9510
▁근거가	-9511
▁근현대	-9512
▁글이나	-9513
▁기간에	-9514
▁기능이	-9515
▁기립성	-9516
▁기분나	-9517
▁기분도	-9518
▁기사는	-9519
▁기술을	-9520
▁기억에	-9521
▁기웃거	-9522
▁기차가	-9523
▁기초가	-9524
▁기초를	-9525
▁기출로	-9526
▁깎아내	-9527
▁깨닫는	-9528
▁꺼내는	-9529
▁꾸미고	-9530
▁나가기	-9531
▁나머진	-9532
▁나보고	-9533
▁나쁘진	-9534
▁나지금	-9535
▁날아간	-9536
▁남자가	-9537
▁남자는	-9538
▁낮다고	-9539
▁낮다는	-9540
▁낮으면	-9541
▁내려서	-9542
▁내리면	-9543
▁내신과	-9544
▁내신도	-9545
▁내신만	-9546
▁너한테	-9547
▁넣어야	-9548
▁논문은	-9549
▁높이는	-9550
▁눈에는	-9551
▁눈으로	-9552
▁뉘앙스	-9553
▁뉴스를	-9554
▁느끼고	-9555
▁느낌은	-9556
▁늘려서	-9557
▁늘어요	-9558
▁다시는	-9559
▁다음번	-9560
▁다음엔	-9561
▁단권화	-9562
▁단어만	-9563
▁단점은	-9564
▁달라고	-9565
▁달라진	-9566
▁달라질	-9567
▁달려보	-9568
▁당사자	-9569
▁당신의	-9570
▁당신이	-9571
▁당연한	-9572
▁대비를	-9573
▁데이트	-9574
▁도구를	-9575
▁도중에	-9576
▁독서가	-9577
▁독해는	-9578
▁돌려야	-9579
▁돌아와	-9580
▁됐는데	-9581
▁두시간	-9582
▁드는데	-9583
▁들으신	-9584
▁듭니다	-9585
▁등으로	-9586
▁디저트	-9587
▁따라올	-9588
▁떄마다	-9589
▁떠나서	-9590
▁떨어져	-9591
▁똑똑한	-9592
▁뜬금없	-9593
▁라이브	-9594
▁리스트	-9595
▁마치고	-9596
▁만든거	-9597
▁만점자	-9598
▁많군요	-9599
▁많다고	-9600
▁많아지	-9601
▁많아진	-9602
▁많았고	-9603
▁말아야	-9604
▁맞지만	-9605
▁맞추기	-9606
▁멀어서	-9607
▁멀쩡한	-9608
▁멍청한	-9609
▁명확한	-9610
▁모두의	-9611
▁모르죠	-9612
▁몰랐다	-9613
▁못해도	-9614
▁못했을	-9615
▁무게가	-9616
▁무작정	-9617
▁문법을	-9618
▁문제나	-9619
▁물리를	-9620
▁물어봤	-9621
▁뭐랄까	-9622
▁뭐부터	-9623
▁뭘까요	-9624
▁미래가	-9625
▁미래를	-9626
▁미루고	-9627
▁미적은	-9628
▁믿는다	-9629
▁밀어붙	-9630
▁바꿔서	-9631
▁바꿔야	-9632
▁바라는	-9633
▁받아들	-9634
▁밥그릇	-9635
▁방지를	-9636
▁방학에	-9637
▁버티는	-9638
▁벌어졌	-9639
▁범위를	-9640
▁변화를	-9641
▁보거나	-9642
▁보내야	-9643
▁보내줄	-9644
▁보니깐	-9645
▁보셔도	-9646
▁보이고	-9647
▁본인만	-9648
▁봤네요	-9649
▁부담은	-9650
▁부담을	-9651
▁부수고	-9652
▁분석이	-9653
▁분쟁을	-9654
▁불분명	-9655
▁불안한	-9656
▁불이익	-9657
▁붕어빵	-9658
▁붙는다	-9659
▁브레이	-9660
▁블루투	-9661
▁비교적	-9662
▁비용이	-9663
▁비타민	-9664
▁빠져서	-9665
▁사담이	-9666
▁사시는	-9667
▁사진을	-9668
▁사진의	-9669
▁사탐은	-9670
▁사회의	-9671
▁삭제해	-9672
▁살아남	-9673
▁살아야	-9674
▁상상이	-9675
▁상세히	-9676
▁상태이	-9677
▁생겨요	-9678
▁생기고	-9679
▁생기면	-9680
▁생긴다	-9681
▁생물학	-9682
▁서서히	-9683
▁서울로	-9684
▁서으로	-9685
▁설명도	-9686
▁설명을	-9687
▁성공한	-9688
▁성매매	-9689
▁세계가	-9690
▁세상은	-9691
▁세우면	-9692
▁세워서	-9693
▁소리를	-9694
▁소비자	-9695
▁소소한	-9696
▁수능의	-9697
▁수능장	-9698
▁순간이	-9699
▁순서도	-9700
▁쉬면서	-9701
▁스타트	-9702
▁시간울	-9703
▁시간인	-9704
▁시발점	-9705
▁시선이	-9706
▁시작도	-9707
▁시험도	-9708
▁실례가	-9709
▁실수만	-9710
▁실수한	-9711
▁심리적	-9712
▁심장이	-9713
▁심하면	-9714
▁심해서	-9715
▁싸우는	-9716
▁써놓고	-9717
▁써먹을	-9718
▁쓰거나	-9719
▁쓰다가	-9720
▁씁니다	-9721
▁아니긴	-9722
▁아무런	-9723
▁아버지	-9724
▁아빠랑	-9725
▁아이고	-9726
▁아이를	-9727
▁안에서	-9728
▁앉아만	-9729
▁않겠나	-9730
▁않으니	-9731
▁알아볼	-9732
▁알았다	-9733
▁암호화	-9734
▁앞머리	-9735
▁약대를	-9736
▁약해서	-9737
▁얘기만	-9738
▁얘기한	-9739
▁얘기해	-9740
▁어때요	-9741
▁어떤게	-9742
▁어떨까	-9743
▁어떨지	-9744
▁어색한	-9745
▁어지간	-9746
▁어쨋든	-9747
▁언어와	-9748
▁언젠간	-9749
▁얼굴을	-9750
▁없겠죠	-9751
▁없어보	-9752
▁없어진	-9753
▁여기도	-9754
▁여름에	-9755
▁여성이	-9756
▁여유가	-9757
▁역사는	-9758
▁연계가	-9759
▁연대가	-9760
▁연산군	-9761
▁열어주	-9762
▁영재고	-9763
▁영향력	-9764
▁예쁘게	-9765
▁예전엔	-9766
▁옛날엔	-9767
▁오늘의	-9768
▁오비탈	-9769
▁오빠는	-9770
▁오타가	-9771
▁오후에	-9772
▁올라온	-9773
▁올려줄	-9774
▁왔더니	-9775
▁왜인지	-9776
▁외국어	-9777
▁외우게	-9778
▁요새는	-9779
▁요약을	-9780
▁우르르	-9781
▁우리두	-9782
▁우리랑	-9783
▁워크북	-9784
▁원인이	-9785
▁원활히	-9786
▁유전자	-9787
▁유형별	-9788
▁음료수	-9789
▁음악은	-9790
▁의도가	-9791
▁의문이	-9792
▁의사들	-9793
▁이것을	-9794
▁이과는	-9795
▁이끌어	-9796
▁이런게	-9797
▁이런말	-9798
▁이르렀	-9799
▁이뻐요	-9800
▁이상하	-9801
▁이해될	-9802
▁인강만	-9803
▁인강은	-9804
▁인싸가	-9805
▁인원이	-9806
▁인정이	-9807
▁인프라	-9808
▁일본의	-9809
▁일어난	-9810
▁일종의	-9811
▁읽는다	-9812
▁읽다가	-9813
▁입장을	-9814
▁자기를	-9815
▁자라는	-9816
▁자랑할	-9817
▁자리가	-9818
▁자습을	-9819
▁자존심	-9820
▁작년엔	-9821
▁작품에	-9822
▁잘하시	-9823
▁잘하실	-9824
▁잘해야	-9825
▁잡아야	-9826
▁잤는데	-9827
▁장점은	-9828
▁재능이	-9829
▁재수떄	-9830
▁재작년	-9831
▁저기에	-9832
▁저보고	-9833
▁저혈압	-9834
▁적용해	-9835
▁적으실	-9836
▁적절한	-9837
▁전공은	-9838
▁전문직	-9839
▁접촉한	-9840
▁정리가	-9841
▁정리한	-9842
▁정상이	-9843
▁정서를	-9844
▁정시가	-9845
▁정신적	-9846
▁제데로	-9847
▁조건이	-9848
▁조언해	-9849
▁조용히	-9850
▁조은것	-9851
▁존재가	-9852
▁좋아야	-9853
▁좋았던	-9854
▁주시기	-9855
▁주의를	-9856
▁주제에	-9857
▁죽도록	-9858
▁죽어버	-9859
▁죽이고	-9860
▁준다고	-9861
▁준비는	-9862
▁준비도	-9863
▁준비를	-9864
▁준비한	-9865
▁줄여서	-9866
▁중국이	-9867
▁중위권	-9868
▁증명서	-9869
▁증명할	-9870
▁지난번	-9871
▁지식이	-9872
▁지역이	-9873
▁지적이	-9874
▁지치고	-9875
▁지켜서	-9876
▁진로는	-9877
▁진로와	-9878
▁집중할	-9879
▁쪼개서	-9880
▁쪼금만	-9881
▁찍어둔	-9882
▁찾아가	-9883
▁찾아봤	-9884
▁찾았어	-9885
▁책으로	-9886
▁책임져	-9887
▁처벌이	-9888
▁처음엔	-9889
▁청소년	-9890
▁쳇바퀴	-9891
▁최고죠	-9892
▁최소화	-9893
▁최저만	-9894
▁출신이	-9895
▁충분한	-9896
▁친밀감	-9897
▁키우기	-9898
▁탐구는	-9899
▁태도가	-9900
▁태블릿	-9901
▁터져서	-9902
▁텍스트	-9903
▁템플릿	-9904
▁토론을	-9905
▁투어도	-9906
▁틀려도	-9907
▁파악을	-9908
▁파일에	-9909
▁파일을	-9910
▁파트만	-9911
▁편하고	-9912
▁풀리고	-9913
▁풀어본	-9914
▁풀이와	-9915
▁피해를	-9916
▁필기나	-9917
▁필통에	-9918
▁하겠죠	-9919
▁하기엔	-9920
▁하나로	-9921
▁하눈데	-9922
▁하는것	-9923
▁하더니	-9924
▁하려는	-9925
▁하려니	-9926
▁하루가	-9927
▁하였다	-9928
▁하위권	-9929
▁하한가	-9930
▁학생을	-9931
▁학생의	-9932
▁학점이	-9933
▁한국에	-9934
▁할수잇	-9935
▁합쳐서	-9936
▁해놓고	-9937
▁해석할	-9938
▁해주면	-9939
▁해줘요	-9940
▁했었죠	-9941
▁행복해	-9942
▁현강을	-9943
▁호랑이	-9944
▁혼란을	-9945
▁환경에	-9946
▁활동도	-9947
▁회사는	-9948
▁회의가	-9949
▁횟수를	-9950
▁효과를	-9951
▁후회는	-9952
▁흐트러	-9953
▁힘드시	-9954
▁힘드실	-9955
▁힘든거	-9956
▁힘든데	-9957
거가타서	-9958
거같네요	-9959
교육과정	-9960
긴한데요	-9961
보셨나요	-9962
사람들은	-9963
셨잖아요	-9964
수업으로	-9965
엇습니다	-9966
였는데요	-9967
으시다면	-9968
이러스가	-9969
적이어도	-9970
중이예요	-9971
타인데이	-9972
하겠네요	-9973
하는거죠	-9974
하더라도	-9975
하십니까	-9976
해가지고	-9977
했씁니다	-9978
했었어요	-9979
▁가산점을	-9980
▁갈팡질팡	-9981
▁같지만요	-9982
▁개념강의	-9983
▁개념이랑	-9984
▁갠적으로	-9985
▁거기까지	-9986
▁거기다가	-9987
▁거였어요	-9988
▁걱정돼서	-9989
▁검사받고	-9990
▁검색하면	-9991
▁검정고시	-9992
▁것이라고	-9993
▁게시판에	-9994
▁게시판을	-9995
▁결정적인	-9996
▁계속하는	-9997
▁계속해서	-9998
▁계획대로	-9999
▁고민이다	-10000
▁고민해보	-10001
▁공간도형	-10002
▁공부법도	-10003
▁공부에만	-10004
▁공부하구	-10005
▁공부한거	-10006
▁공부한다	-10007
▁과목들이	-10008
▁과목마다	-10009
▁과목이라	-10010
▁관련하여	-10011
▁관리자가	-10012
▁관리자님	-10013
▁괜찮아지	-10014
▁교수님께	-10015
▁교수님들	-10016
▁교수님은	-10017
▁교양과목	-10018
▁구경하고	-10019
▁구분해서	-10020
▁구하기가	-10021
▁궁금하다	-10022
▁궁금한데	-10023
▁귀여워서	-10024
▁그러지는	-10025
▁극복하는	-10026
▁긍정적인	-10027
▁긴장해서	-10028
▁까먹어서	-10029
▁꾸준하게	-10030
▁나오는거	-10031
▁나왔으면	-10032
▁남자들은	-10033
▁내일까지	-10034
▁노력하신	-10035
▁노력한다	-10036
▁노력해보	-10037
▁노트북이	-10038
▁누구한테	-10039
▁느껴지고	-10040
▁느껴지실	-10041
▁늘어나고	-10042
▁다녔어요	-10043
▁다르다고	-10044
▁다릅니다	-10045
▁다행이지	-10046
▁대단하신	-10047
▁대학원은	-10048
▁도전하는	-10049
▁돌리려고	-10050
▁동사무소	-10051
▁되잖아요	-10052
▁두려워요	-10053
▁뒤죽박죽	-10054
▁들어보면	-10055
▁들어서요	-10056
▁들으려고	-10057
▁듯하네요	-10058
▁따라가는	-10059
▁따지자면	-10060
▁로스쿨은	-10061
▁마음대로	-10062
▁만드시는	-10063
▁만들어주	-10064
▁만들어준	-10065
▁말하는거	-10066
▁모릅니다	-10067
▁모자라서	-10068
▁목적으로	-10069
▁몰랐는데	-10070
▁무단횡단	-10071
▁무엇이든	-10072
▁무엇인지	-10073
▁무책임한	-10074
▁문제집이	-10075
▁문학작품	-10076
▁미국에서	-10077
▁미적분이	-10078
▁미쳐버릴	-10079
▁바닥으로	-10080
▁바로바로	-10081
▁반가워요	-10082
▁반도체가	-10083
▁발표하는	-10084
▁방식대로	-10085
▁방역수칙	-10086
▁방향성을	-10087
▁백지복습	-10088
▁베이스가	-10089
▁베트남어	-10090
▁변환표준	-10091
▁보기에는	-10092
▁보는데요	-10093
▁복습하고	-10094
▁본인에게	-10095
▁봐주시면	-10096
▁봤는데요	-10097
▁부족하면	-10098
▁부탁하면	-10099
▁분위기를	-10100
▁불필요한	-10101
▁사관학교	-10102
▁사람이랑	-10103
▁사람인데	-10104
▁사진으로	-10105
▁사피엔스	-10106
▁상담으로	-10107
▁생각이다	-10108
▁생각하니	-10109
▁생각하며	-10110
▁생활패턴	-10111
▁서울교대	-10112
▁서울대에	-10113
▁선배님의	-10114
▁선생님도	-10115
▁선택하신	-10116
▁성공해서	-10117
▁소수민족	-10118
▁쇼트트랙	-10119
▁수능공부	-10120
▁수능까지	-10121
▁수능으로	-10122
▁수시로는	-10123
▁수요일에	-10124
▁수학이나	-10125
▁수학이랑	-10126
▁수학학원	-10127
▁순기능이	-10128
▁순식간에	-10129
▁스타일을	-10130
▁스타일이	-10131
▁스트래스	-10132
▁슬럼프가	-10133
▁시간들이	-10134
▁시간이랑	-10135
▁시나리오	-10136
▁시험공부	-10137
▁실질적인	-10138
▁싫어하는	-10139
▁심심해서	-10140
▁싶은데요	-10141
▁써주시면	-10142
▁쓸데없는	-10143
▁아니고요	-10144
▁아니어도	-10145
▁아무렇지	-10146
▁아저씨가	-10147
▁안되지만	-10148
▁안정적인	-10149
▁안해봐서	-10150
▁않아서요	-10151
▁알려주신	-10152
▁알아봐야	-10153
▁알았네요	-10154
▁얘기하고	-10155
▁얘기하면	-10156
▁어느순간	-10157
▁어떠세요	-10158
▁어려웠던	-10159
▁어마어마	-10160
▁어이없는	-10161
▁어쨌거나	-10162
▁어쩌다가	-10163
▁얻으시길	-10164
▁얼렁뚱땅	-10165
▁업데이트	-10166
▁없씁니다	-10167
▁연습하는	-10168
▁연예인이	-10169
▁열공해서	-10170
▁열심히만	-10171
▁영어공부	-10172
▁오늘까지	-10173
▁오답하고	-10174
▁오프라인	-10175
▁올라오면	-10176
▁올렸다가	-10177
▁완벽하지	-10178
▁왜이렇게	-10179
▁운동하고	-10180
▁운전면허	-10181
▁원래대로	-10182
▁위해서는	-10183
▁유의미한	-10184
▁유일하게	-10185
▁이루시길	-10186
▁이외에도	-10187
▁이제부터	-10188
▁이해되지	-10189
▁이해하기	-10190
▁익숙해질	-10191
▁인강이랑	-10192
▁인수분해	-10193
▁일반적인	-10194
▁일본에서	-10195
▁일어나는	-10196
▁일어나지	-10197
▁일어났어	-10198
▁일요일에	-10199
▁일주일은	-10200
▁읽어보고	-10201
▁있슬가요	-10202
▁있씁니다	-10203
▁있었나요	-10204
▁자기들이	-10205
▁자기최면	-10206
▁자료해석	-10207
▁자습시간	-10208
▁작년에는	-10209
▁장학금이	-10210
▁재수생이	-10211
▁재수해서	-10212
▁적용하는	-10213
▁적용해서	-10214
▁정도예요	-10215
▁정도이다	-10216
▁정도인지	-10217
▁정리해야	-10218
▁제출해야	-10219
▁조심스레	-10220
▁존재하는	-10221
▁존재한다	-10222
▁주관적인	-10223
▁주의해야	-10224
▁주재소장	-10225
▁중에서도	-10226
▁중요성을	-10227
▁지수함수	-10228
▁지키면서	-10229
▁질문하고	-10230
▁집중하는	-10231
▁집행유예	-10232
▁참고해서	-10233
▁찾아보고	-10234
▁챙기는게	-10235
▁처음보는	-10236
▁처음으로	-10237
▁체화하는	-10238
▁초반에는	-10239
▁최저등급	-10240
▁추가해서	-10241
▁친구들과	-10242
▁칼럼에서	-10243
▁코로나바	-10244
▁테니까요	-10245
▁통합사회	-10246
▁통화하고	-10247
▁특기사항	-10248
▁페이스에	-10249
▁편의점에	-10250
▁편이에요	-10251
▁평소보다	-10252
▁평소에도	-10253
▁포인트를	-10254
▁풀어봐야	-10255
▁필기하면	-10256
▁하겠다고	-10257
▁하는대요	-10258
▁하시네요	-10259
▁학교다닐	-10260
▁학생이라	-10261
▁학습자를	-10262
▁학원다니	-10263
▁한국지리	-10264
▁합격하면	-10265
▁해석하는	-10266
▁해야해요	-10267
▁했거든요	-10268
▁했는데도	-10269
▁했으니까	-10270
▁현역인데	-10271
▁화상채팅	-10272
▁활용해서	-10273
▁회독하는	-10274
▁후회하고	-10275
▁힘내세요	-10276
▁힘드내요	-10277
봐야겠어요	-10278
하신건가요	-10279
하였습니다	-10280
▁가고싶은데	-10281
▁감사드려요	-10282
▁객관적으로	-10283
▁걱정입니다	-10284
▁걸리셨나요	-10285
▁겨울방학에	-10286
▁고등학교는	-10287
▁고등학교를	-10288
▁고민하다가	-10289
▁공부시간을	-10290
▁과목입니다	-10291
▁괜찬을까요	-10292
▁국어공부를	-10293
▁기본적으로	-10294
▁기숙학원에	-10295
▁기억나네요	-10296
▁나와있어요	-10297
▁네안데르탈	-10298
▁노력할게요	-10299
▁노트북으로	-10300
▁논리적으로	-10301
▁느껴지는데	-10302
▁달려봅시다	-10303
▁답변하시는	-10304
▁대단하세요	-10305
▁동아시아사	-10306
▁될거같아요	-10307
▁들어가는게	-10308
▁들었었어요	-10309
▁들으셨나요	-10310
▁마스크끼고	-10311
▁마스터님과	-10312
▁못하겠어요	-10313
▁물어보시면	-10314
▁미안하지만	-10315
▁반갑습니다	-10316
▁방법입니다	-10317
▁보내주시면	-10318
▁복습하면서	-10319
▁부럽습니다	-10320
▁비문학처럼	-10321
▁사람이에요	-10322
▁삼각형에서	-10323
▁생각됩니다	-10324
▁생각해보니	-10325
▁생각해보면	-10326
▁선생님들은	-10327
▁선택과목은	-10328
▁설명해주실	-10329
▁성공하셔서	-10330
▁수증기량이	-10331
▁쉬는시간에	-10332
▁시험기간이	-10333
▁실시간으로	-10334
▁실전에서는	-10335
▁아니라서요	-10336
▁아니었어요	-10337
▁않으셨나요	-10338
▁어느정도는	-10339
▁어디서부터	-10340
▁여러분들은	-10341
▁여러분들을	-10342
▁연습하시면	-10343
▁우리나라가	-10344
▁우선이라는	-10345
▁이루셨으면	-10346
▁이야기하는	-10347
▁이후부터는	-10348
▁읽어주셔서	-10349
▁자격증이든	-10350
▁자체적으로	-10351
▁재수생인데	-10352
▁적당할까요	-10353
▁전반적으로	-10354
▁존경합니다	-10355
▁좋아보여요	-10356
▁좋아하시는	-10357
▁진입장벽이	-10358
▁질문드려도	-10359
▁충분하다고	-10360
▁커리큘럼이	-10361
▁통합과학은	-10362
▁페이스대로	-10363
▁평가원에서	-10364
▁포트폴리오	-10365
▁프로그램에	-10366
▁필요합니다	-10367
▁하는건가요	-10368
▁학교에서는	-10369
▁해야겠네요	-10370
▁현실적으로	-10371
▁공부하시나요	-10372
▁기숙학원에서	-10373
▁나오더라고요	-10374
▁복습하셨나요	-10375
▁시작하셨나요	-10376
▁재밌더라고요	-10377
▁재수생입니다	-10378
▁주관적이어도	-10379
▁지우겠습니다	-10380
▁해봐야겠네요	-10381
▁화이팅입니다	-10382
▁화이팅하세요	-10383
▁힘들더라고요	-10384
▁감사하겠씁니다	-10385
▁굽	-10386
▁꼈	-10387
▁댔	-10388
▁돋	-10389
▁됬	-10390
▁듦	-10391
▁렌	-10392
▁맹	-10393
▁몬	-10394
▁붉	-10395
▁뷰	-10396
▁쉰	-10397
▁썸	-10398
▁씹	-10399
▁융	-10400
▁죠	-10401
▁징	-10402
▁찡	-10403
▁컵	-10404
▁툴	-10405
▁핀	-10406
가기	-10407
가두	-10408
가바	-10409
가워	-10410
갔아	-10411
갔을	-10412
갔이	-10413
갗다	-10414
같아	-10415
개가	-10416
개씩	-10417
거기	-10418
거에	-10419
것과	-10420
게시	-10421
겠나	-10422
결이	-10423
결정	-10424
계약	-10425
곳에	-10426
곳은	-10427
과재	-10428
교사	-10429
구경	-10430
구니	-10431
구런	-10432
구장	-10433
군의	-10434
균형	-10435
그게	-10436
극어	-10437
급수	-10438
급한	-10439
기랑	-10440
기록	-10441
기한	-10442
길이	-10443
까바	-10444
꺼는	-10445
끝나	-10446
끝났	-10447
나마	-10448
나보	-10449
나와	-10450
날이	-10451
날짜	-10452
내도	-10453
내려	-10454
내면	-10455
내지	-10456
네는	-10457
느껴	-10458
느끼	-10459
는곳	-10460
님께	-10461
단원	-10462
달에	-10463
도시	-10464
동사	-10465
돼는	-10466
둬도	-10467
들지	-10468
등을	-10469
디요	-10470
따른	-10471
떠서	-10472
떻케	-10473
뜨리	-10474
랑도	-10475
래두	-10476
랴서	-10477
레스	-10478
력자	-10479
료로	-10480
르기	-10481
르바	-10482
말도	-10483
먹는	-10484
먹을	-10485
메일	-10486
면이	-10487
명은	-10488
믄제	-10489
바꿨	-10490
바야	-10491
반영	-10492
밤에	-10493
방은	-10494
방을	-10495
보이	-10496
봉사	-10497
북대	-10498
분배	-10499
불가	-10500
사할	-10501
세를	-10502
세우	-10503
세한	-10504
션을	-10505
션이	-10506
셨고	-10507
셨나	-10508
소득	-10509
소음	-10510
소재	-10511
수만	-10512
수일	-10513
스있	-10514
식의	-10515
실수	-10516
심히	-10517
써서	-10518
아웃	-10519
안는	-10520
애서	-10521
야장	-10522
약속	-10523
어떡	-10524
언니	-10525
언어	-10526
업은	-10527
없음	-10528
역사	-10529
역에	-10530
영화	-10531
오게	-10532
오지	-10533
올라	-10534
올린	-10535
유치	-10536
은건	-10537
은지	-10538
을걸	-10539
음에	-10540
이저	-10541
이티	-10542
인건	-10543
일단	-10544
일도	-10545
입시	-10546
잇음	-10547
자습	-10548
저거	-10549
저는	-10550
전형	-10551
점검	-10552
접한	-10553
정신	-10554
졌네	-10555
좋아	-10556
주제	-10557
주지	-10558
준대	-10559
지라	-10560
지러	-10561
지식	-10562
지의	-10563
지키	-10564
지하	-10565
집에	-10566
째로	-10567
차이	-10568
체는	-10569
체로	-10570
추천	-10571
치우	-10572
칭을	-10573
통수	-10574
통신	-10575
패딩	-10576
편도	-10577
표현	-10578
풀고	-10579
프레	-10580
픈데	-10581
하든	-10582
학년	-10583
해결	-10584
해따	-10585
해라	-10586
해저	-10587
햇음	-10588
허다	-10589
회사	-10590
후배	-10591
히게	-10592
히지	-10593
▁가곤	-10594
▁가만	-10595
▁각오	-10596
▁각을	-10597
▁간과	-10598
▁간에	-10599
▁갖추	-10600
▁갗다	-10601
▁개수	-10602
▁갠히	-10603
▁거니	-10604
▁거듭	-10605
▁거란	-10606
▁거만	-10607
▁거주	-10608
▁건들	-10609
▁걸요	-10610
▁것의	-10611
▁게으	-10612
▁격리	-10613
▁견제	-10614
▁결재	-10615
▁고지	-10616
▁곳은	-10617
▁곳을	-10618
▁공격	-10619
▁공연	-10620
▁공정	-10621
▁공항	-10622
▁구속	-10623
▁구술	-10624
▁구지	-10625
▁굴러	-10626
▁그중	-10627
▁급수	-10628
▁기한	-10629
▁깊은	-10630
▁깨나	-10631
▁끊임	-10632
▁끝에	-10633
▁나증	-10634
▁날에	-10635
▁날을	-10636
▁낫다	-10637
▁낮아	-10638
▁넣기	-10639
▁높고	-10640
▁높지	-10641
▁누르	-10642
▁니므	-10643
▁다채	-10644
▁다큐	-10645
▁다했	-10646
▁당겨	-10647
▁대가	-10648
▁대기	-10649
▁도시	-10650
▁독한	-10651
▁돈은	-10652
▁동작	-10653
▁돼도	-10654
▁돼면	-10655
▁두달	-10656
▁둘중	-10657
▁뒤지	-10658
▁뒤처	-10659
▁뒤쳐	-10660
▁들음	-10661
▁등교	-10662
▁디자	-10663
▁딱딱	-10664
▁때랑	-10665
▁또는	-10666
▁뛰어	-10667
▁마늠	-10668
▁마다	-10669
▁마디	-10670
▁마리	-10671
▁막는	-10672
▁막힐	-10673
▁많대	-10674
▁맛도	-10675
▁맛이	-10676
▁망치	-10677
▁망할	-10678
▁맞춘	-10679
▁맞출	-10680
▁먼지	-10681
▁몇일	-10682
▁모의	-10683
▁목이	-10684
▁몰려	-10685
▁못본	-10686
▁문구	-10687
▁문득	-10688
▁문젠	-10689
▁뭔데	-10690
▁바꼐	-10691
▁바퀴	-10692
▁반에	-10693
▁받구	-10694
▁버릇	-10695
▁벌어	-10696
▁병운	-10697
▁보수	-10698
▁보호	-10699
▁복귀	-10700
▁본거	-10701
▁봤어	-10702
▁부등	-10703
▁부실	-10704
▁부엉	-10705
▁부장	-10706
▁불러	-10707
▁붙은	-10708
▁븐위	-10709
▁비닐	-10710
▁비슫	-10711
▁비평	-10712
▁비행	-10713
▁빡셀	-10714
▁뽑을	-10715
▁사귀	-10716
▁사무	-10717
▁사정	-10718
▁사주	-10719
▁사태	-10720
▁산출	-10721
▁살자	-10722
▁살지	-10723
▁삼아	-10724
▁상품	-10725
▁상하	-10726
▁새끼	-10727
▁생일	-10728
▁서러	-10729
▁설계	-10730
▁설렁	-10731
▁설령	-10732
▁설이	-10733
▁설쩡	-10734
▁성립	-10735
▁소품	-10736
▁수단	-10737
▁술도	-10738
▁술을	-10739
▁숨이	-10740
▁시설	-10741
▁실무	-10742
▁실어	-10743
▁실행	-10744
▁싶긴	-10745
▁싶단	-10746
▁써놨	-10747
▁썼던	-10748
▁썼을	-10749
▁쓰구	-10750
▁아가	-10751
▁안고	-10752
▁안는	-10753
▁안은	-10754
▁안조	-10755
▁안쪽	-10756
▁않네	-10757
▁않죠	-10758
▁알앗	-10759
▁앞이	-10760
▁애를	-10761
▁앱은	-10762
▁약이	-10763
▁약점	-10764
▁양적	-10765
▁어조	-10766
▁억압	-10767
▁업시	-10768
▁연도	-10769
▁연령	-10770
▁연쇄	-10771
▁영국	-10772
▁와꾸	-10773
▁왔어	-10774
▁왔을	-10775
▁왕이	-10776
▁요런	-10777
▁욕구	-10778
▁위기	-10779
▁이말	-10780
▁이슈	-10781
▁이지	-10782
▁인자	-10783
▁일년	-10784
▁일으	-10785
▁읽다	-10786
▁읽었	-10787
▁자구	-10788
▁자식	-10789
▁작동	-10790
▁작문	-10791
▁잘될	-10792
▁잘만	-10793
▁잘봤	-10794
▁잠적	-10795
▁재시	-10796
▁전산	-10797
▁전애	-10798
▁제곱	-10799
▁제주	-10800
▁준대	-10801
▁줄게	-10802
▁중도	-10803
▁중독	-10804
▁줘도	-10805
▁지급	-10806
▁지옥	-10807
▁지을	-10808
▁지킨	-10809
▁진리	-10810
▁집회	-10811
▁짜는	-10812
▁쪽이	-10813
▁찍혀	-10814
▁차를	-10815
▁차별	-10816
▁차차	-10817
▁찾았	-10818
▁찾은	-10819
▁쳐서	-10820
▁침대	-10821
▁컨셉	-10822
▁타사	-10823
▁탁구	-10824
▁태국	-10825
▁택배	-10826
▁택시	-10827
▁틀려	-10828
▁파견	-10829
▁파서	-10830
▁파티	-10831
▁패딩	-10832
▁패키	-10833
▁편리	-10834
▁편지	-10835
▁표를	-10836
▁풀때	-10837
▁풍경	-10838
▁피가	-10839
▁학번	-10840
▁학언	-10841
▁한결	-10842
▁할인	-10843
▁할일	-10844
▁합의	-10845
▁해깔	-10846
▁해라	-10847
▁해버	-10848
▁해봐	-10849
▁해오	-10850
▁했나	-10851
▁했었	-10852
▁혈액	-10853
▁홈스	-10854
▁환율	-10855
▁후유	-10856
가는거	-10857
가다가	-10858
가튼데	-10859
갔으면	-10860
같아요	-10861
같은건	-10862
거였어	-10863
겁니까	-10864
경우가	-10865
고싶은	-10866
과목은	-10867
관리는	-10868
교육을	-10869
국으로	-10870
기간에	-10871
났으면	-10872
내려고	-10873
놓는게	-10874
놓는다	-10875
눈데요	-10876
는거래	-10877
는거임	-10878
는데는	-10879
다면요	-10880
대학에	-10881
더라구	-10882
독으로	-10883
되는거	-10884
되는게	-10885
된다는	-10886
뒀어요	-10887
들이나	-10888
듯한데	-10889
따라서	-10890
랬는데	-10891
려있지	-10892
렸지만	-10893
많아서	-10894
문법은	-10895
문재가	-10896
방법이	-10897
보는건	-10898
보세요	-10899
보시는	-10900
본적이	-10901
봅니디	-10902
봤네요	-10903
부터가	-10904
선으로	-10905
설수설	-10906
셨다는	-10907
소리가	-10908
소리도	-10909
수있는	-10910
수있어	-10911
습니닷	-10912
시대에	-10913
실텐데	-10914
싶네요	-10915
쓰시면	-10916
아니다	-10917
아니면	-10918
아니야	-10919
아니지	-10920
안됀다	-10921
앞에서	-10922
야말로	-10923
야장천	-10924
어놓고	-10925
어떻케	-10926
어보고	-10927
어지구	-10928
엇으면	-10929
었다는	-10930
었던거	-10931
였군요	-10932
였지만	-10933
오는거	-10934
오면서	-10935
으니가	-10936
으려나	-10937
을거야	-10938
이고요	-10939
이던데	-10940
이시는	-10941
이쓰면	-10942
인걸요	-10943
임니다	-10944
입니까	-10945
있거든	-10946
자나요	-10947
잘모르	-10948
적인데	-10949
전형은	-10950
점수는	-10951
점인데	-10952
주시고	-10953
주시는	-10954
중에는	-10955
줬는데	-10956
즈세요	-10957
지도못	-10958
지도안	-10959
지문을	-10960
치라고	-10961
푸는게	-10962
플래너	-10963
하게되	-10964
하고는	-10965
하냐고	-10966
하다니	-10967
하다면	-10968
하던데	-10969
하듯이	-10970
하려니	-10971
하면되	-10972
하시지	-10973
하신다	-10974
하지못	-10975
학기에	-10976
할거면	-10977
해야겠	-10978
해야돼	-10979
해야징	-10980
해주고	-10981
해질까	-10982
햇거든	-10983
햇으면	-10984
했대요	-10985
화하는	-10986
활동이	-10987
▁가기로	-10988
▁가는거	-10989
▁가니까	-10990
▁가서도	-10991
▁가져가	-10992
▁가치를	-10993
▁간다는	-10994
▁갈등이	-10995
▁갑시다	-10996
▁강의만	-10997
▁같으니	-10998
▁같은게	-10999
▁갚자기	-11000
▁개념서	-11001
▁개념어	-11002
▁개념의	-11003
▁거지만	-11004
▁걱정을	-11005
▁걸리고	-11006
▁걸리는	-11007
▁것보단	-11008
▁것이랑	-11009
▁것이야	-11010
▁것인지	-11011
▁게임을	-11012
▁겠네요	-11013
▁경기도	-11014
▁경우엔	-11015
▁경제적	-11016
▁계획한	-11017
▁고마워	-11018
▁고전시	-11019
▁고통을	-11020
▁공부잘	-11021
▁과외를	-11022
▁과제가	-11023
▁과제도	-11024
▁교대가	-11025
▁교도소	-11026
▁교스님	-11027
▁구멍이	-11028
▁국어도	-11029
▁권리를	-11030
▁그거에	-11031
▁그것두	-11032
▁그것이	-11033
▁그랬던	-11034
▁그러니	-11035
▁그리는	-11036
▁그분은	-11037
▁그사람	-11038
▁그전에	-11039
▁극복할	-11040
▁근거로	-11041
▁기사를	-11042
▁기존의	-11043
▁기출과	-11044
▁끗까지	-11045
▁끝나서	-11046
▁나가요	-11047
▁나간다	-11048
▁나라를	-11049
▁나오기	-11050
▁나왔을	-11051
▁나타내	-11052
▁낫나요	-11053
▁내친구	-11054
▁낼부터	-11055
▁넘기는	-11056
▁넘어서	-11057
▁노력이	-11058
▁논문이	-11059
▁논술로	-11060
▁논술은	-11061
▁논의가	-11062
▁놀아서	-11063
▁높이고	-11064
▁놓으면	-11065
▁놓치고	-11066
▁누구누	-11067
▁누나가	-11068
▁느껴서	-11069
▁느꼈다	-11070
▁느려서	-11071
▁늘리면	-11072
▁능력도	-11073
▁늦어서	-11074
▁다니실	-11075
▁다닐까	-11076
▁다행이	-11077
▁다행인	-11078
▁닥치는	-11079
▁단원이	-11080
▁답변이	-11081
▁당장은	-11082
▁대단해	-11083
▁데스크	-11084
▁데에는	-11085
▁독서를	-11086
▁돌려보	-11087
▁됄까요	-11088
▁되내요	-11089
▁되지만	-11090
▁될만한	-11091
▁될수도	-11092
▁두꺼운	-11093
▁두려운	-11094
▁두통이	-11095
▁드려요	-11096
▁들었을	-11097
▁들으러	-11098
▁등급을	-11099
▁딸리는	-11100
▁때리는	-11101
▁떄까지	-11102
▁떠도는	-11103
▁똑가튼	-11104
▁똑바로	-11105
▁뜯어고	-11106
▁마사지	-11107
▁마시면	-11108
▁만나요	-11109
▁만들면	-11110
▁만들었	-11111
▁만큼만	-11112
▁많아질	-11113
▁많잖아	-11114
▁많지만	-11115
▁말로는	-11116
▁말인데	-11117
▁말해서	-11118
▁말해줘	-11119
▁말해줬	-11120
▁맞아야	-11121
▁먹어서	-11122
▁메일로	-11123
▁면접을	-11124
▁몇개월	-11125
▁모르긴	-11126
▁모자라	-11127
▁모집단	-11128
▁못써서	-11129
▁못쓰는	-11130
▁못한다	-11131
▁못했어	-11132
▁무섭고	-11133
▁문장도	-11134
▁문재가	-11135
▁문제였	-11136
▁물리와	-11137
▁물리화	-11138
▁뭐라구	-11139
▁바꾸기	-11140
▁바꾸는	-11141
▁바꿨다	-11142
▁바라고	-11143
▁밖으로	-11144
▁반복해	-11145
▁반으로	-11146
▁받는다	-11147
▁받는데	-11148
▁받아요	-11149
▁받았던	-11150
▁받으실	-11151
▁발전을	-11152
▁발표도	-11153
▁방식은	-11154
▁방식을	-11155
▁배웠던	-11156
▁버리는	-11157
▁번씩은	-11158
▁번아웃	-11159
▁보건소	-11160
▁보기는	-11161
▁보나요	-11162
▁보다는	-11163
▁보도록	-11164
▁보면요	-11165
▁보시길	-11166
▁보이지	-11167
▁봤는지	-11168
▁봤다고	-11169
▁부계정	-11170
▁부러울	-11171
▁분들을	-11172
▁분석할	-11173
▁분야를	-11174
▁분이면	-11175
▁불안불	-11176
▁뿐이다	-11177
▁사건을	-11178
▁사건이	-11179
▁사라미	-11180
▁사라짐	-11181
▁사진도	-11182
▁사회에	-11183
▁샀어요	-11184
▁상태가	-11185
▁상황도	-11186
▁새으로	-11187
▁생각나	-11188
▁생기지	-11189
▁생활은	-11190
▁서강대	-11191
▁서버가	-11192
▁선배들	-11193
▁선생들	-11194
▁선에서	-11195
▁선지가	-11196
▁선택에	-11197
▁선택할	-11198
▁설정을	-11199
▁성적에	-11200
▁세계사	-11201
▁소문이	-11202
▁소용없	-11203
▁솔찌기	-11204
▁수시는	-11205
▁수요일	-11206
▁쉬어요	-11207
▁쉽다고	-11208
▁스페인	-11209
▁시간대	-11210
▁시대가	-11211
▁시중에	-11212
▁신경안	-11213
▁신기한	-11214
▁신세계	-11215
▁실력에	-11216
▁실력은	-11217
▁싫은데	-11218
▁심하지	-11219
▁싶으신	-11220
▁싸움은	-11221
▁써야지	-11222
▁썼는데	-11223
▁쓰셔도	-11224
▁쓰시는	-11225
▁쓸려고	-11226
▁아닌거	-11227
▁아르바	-11228
▁아무나	-11229
▁아세요	-11230
▁아시면	-11231
▁아프고	-11232
▁악물고	-11233
▁안가고	-11234
▁안되겠	-11235
▁안되니	-11236
▁안되요	-11237
▁안되지	-11238
▁안좋고	-11239
▁안한다	-11240
▁않다면	-11241
▁않았고	-11242
▁알겠지	-11243
▁애들을	-11244
▁약한데	-11245
▁양으로	-11246
▁얘들아	-11247
▁어디로	-11248
▁어떤거	-11249
▁어이없	-11250
▁어쩌란	-11251
▁어학당	-11252
▁없는지	-11253
▁없어도	-11254
▁여쭤봤	-11255
▁연결이	-11256
▁연락을	-11257
▁영상은	-11258
▁영어에	-11259
▁영어의	-11260
▁예쁘고	-11261
▁오는데	-11262
▁오류가	-11263
▁오른손	-11264
▁오시면	-11265
▁온다고	-11266
▁완강한	-11267
▁외워도	-11268
▁욕먹는	-11269
▁위로가	-11270
▁의도로	-11271
▁의욕이	-11272
▁이과반	-11273
▁이만큼	-11274
▁이쁘게	-11275
▁이쓰면	-11276
▁이유도	-11277
▁이쪽은	-11278
▁인강도	-11279
▁인강에	-11280
▁인강이	-11281
▁인건비	-11282
▁일이야	-11283
▁일정이	-11284
▁읽었어	-11285
▁입시는	-11286
▁입학처	-11287
▁입학한	-11288
▁있길래	-11289
▁있눈데	-11290
▁있는걸	-11291
▁있었음	-11292
▁자료도	-11293
▁자야지	-11294
▁자영업	-11295
▁작품을	-11296
▁잘하구	-11297
▁잡혀있	-11298
▁장난이	-11299
▁장애인	-11300
▁재구성	-11301
▁저러고	-11302
▁저분이	-11303
▁저정도	-11304
▁전과목	-11305
▁전문대	-11306
▁정리할	-11307
▁조건만	-11308
▁조아요	-11309
▁조은거	-11310
▁종이를	-11311
▁좋겟다	-11312
▁좋구요	-11313
▁좋았을	-11314
▁주가가	-11315
▁주는데	-11316
▁주장을	-11317
▁주제가	-11318
▁줄어요	-11319
▁중에는	-11320
▁지겹고	-11321
▁지수로	-11322
▁지역에	-11323
▁지원금	-11324
▁지원할	-11325
▁진행해	-11326
▁집에만	-11327
▁찾는게	-11328
▁채워넣	-11329
▁책임이	-11330
▁챙기고	-11331
▁첨부터	-11332
▁첫날에	-11333
▁첫번째	-11334
▁체크를	-11335
▁추천도	-11336
▁추천서	-11337
▁추천은	-11338
▁추천을	-11339
▁취미로	-11340
▁취업이	-11341
▁카드는	-11342
▁콘셉트	-11343
▁터진다	-11344
▁통하는	-11345
▁투자를	-11346
▁특별한	-11347
▁틀렸던	-11348
▁틀리지	-11349
▁틀린거	-11350
▁판단할	-11351
▁푸니까	-11352
▁푸러도	-11353
▁풀려서	-11354
▁풀리지	-11355
▁풀어볼	-11356
▁필기가	-11357
▁필요해	-11358
▁하겠다	-11359
▁하기가	-11360
▁하기싫	-11361
▁하나두	-11362
▁하내요	-11363
▁하는걸	-11364
▁하셨을	-11365
▁하시던	-11366
▁하지말	-11367
▁하지않	-11368
▁학과를	-11369
▁학교로	-11370
▁학교의	-11371
▁학기가	-11372
▁한다구	-11373
▁한다니	-11374
▁한번쯤	-11375
▁한시간	-11376
▁한쪽이	-11377
▁할만한	-11378
▁합니까	-11379
▁해결될	-11380
▁해결이	-11381
▁해본다	-11382
▁해야죠	-11383
▁해줘서	-11384
▁해줘야	-11385
▁행동에	-11386
▁확인할	-11387
▁확정이	-11388
▁환경을	-11389
▁활동이	-11390
▁회사가	-11391
▁후회가	-11392
▁휴학이	-11393
것가타요	-11394
겟지만요	-11395
겠지만요	-11396
구나라는	-11397
긴합니다	-11398
나보네요	-11399
다는거지	-11400
다보니까	-11401
만이라도	-11402
버렸네요	-11403
봐야겠다	-11404
봐야겠어	-11405
시작하면	-11406
어버리는	-11407
어지니까	-11408
이아니다	-11409
이었어서	-11410
일거에요	-11411
있습니다	-11412
있었는데	-11413
적으로도	-11414
적일까요	-11415
하구싶어	-11416
하는건지	-11417
하다보니	-11418
하셨네요	-11419
하셨어요	-11420
하시는데	-11421
하지말고	-11422
학생들은	-11423
한다더라	-11424
해야겠어	-11425
해주새요	-11426
햇는데요	-11427
했는데도	-11428
▁가능성도	-11429
▁가능하면	-11430
▁가셨으면	-11431
▁가족들이	-11432
▁같았는데	-11433
▁개념에서	-11434
▁개인정보	-11435
▁거랍니다	-11436
▁것보다는	-11437
▁것이어요	-11438
▁것인가요	-11439
▁경험하는	-11440
▁공부하시	-11441
▁공부할때	-11442
▁공부할떄	-11443
▁공부해도	-11444
▁공부해요	-11445
▁관련으로	-11446
▁괜찮다고	-11447
▁구매해서	-11448
▁국가에서	-11449
▁그랬는데	-11450
▁그러더라	-11451
▁그렇네요	-11452
▁그사람은	-11453
▁그전까지	-11454
▁금지하고	-11455
▁끝낸다는	-11456
▁끝냈어요	-11457
▁나오시는	-11458
▁나와있는	-11459
▁나중에는	-11460
▁나증에는	-11461
▁낭비하는	-11462
▁내용으로	-11463
▁너머가는	-11464
▁네트워크	-11465
▁노력하면	-11466
▁놀랐어요	-11467
▁놓으시면	-11468
▁느껴지면	-11469
▁느낌이다	-11470
▁다이어트	-11471
▁답변가능	-11472
▁대면수업	-11473
▁대학가면	-11474
▁대학가서	-11475
▁도출하는	-11476
▁독학재수	-11477
▁되겠네요	-11478
▁되니까요	-11479
▁들어가니	-11480
▁들어가지	-11481
▁들어보고	-11482
▁들어오지	-11483
▁들으니까	-11484
▁때문이야	-11485
▁떨어지지	-11486
▁뜻입니다	-11487
▁만들려고	-11488
▁많아져서	-11489
▁말씀드릴	-11490
▁모르겟음	-11491
▁모르겠슴	-11492
▁모르는게	-11493
▁모른다고	-11494
▁못한다고	-11495
▁무서워서	-11496
▁무서워요	-11497
▁무슨일이	-11498
▁문제까지	-11499
▁문제네요	-11500
▁문학개념	-11501
▁미친듯이	-11502
▁바꾸시는	-11503
▁별로라고	-11504
▁보시나요	-11505
▁보이내요	-11506
▁분석한거	-11507
▁분야에서	-11508
▁불안하고	-11509
▁비교하고	-11510
▁비문학을	-11511
▁비해서는	-11512
▁사고방식	-11513
▁사라지는	-11514
▁상담하고	-11515
▁상태이다	-11516
▁새벽공부	-11517
▁생각처럼	-11518
▁생각하구	-11519
▁생각하기	-11520
▁생각하자	-11521
▁생겼어요	-11522
▁성공하는	-11523
▁세부적인	-11524
▁수능대비	-11525
▁수학문제	-11526
▁수학에서	-11527
▁수험생의	-11528
▁시간강사	-11529
▁시간재고	-11530
▁시스템이	-11531
▁시키려고	-11532
▁실력으로	-11533
▁싫어해서	-11534
▁심해져서	-11535
▁싶어져요	-11536
▁싶으시면	-11537
▁썼습니다	-11538
▁쓰다보면	-11539
▁아니라구	-11540
▁아니라요	-11541
▁아무것두	-11542
▁아주아주	-11543
▁안나와서	-11544
▁안돼서요	-11545
▁안된다면	-11546
▁안하셔도	-11547
▁앉아있는	-11548
▁않는다는	-11549
▁않습니까	-11550
▁않았는데	-11551
▁않았다고	-11552
▁않았을까	-11553
▁알겠네요	-11554
▁알려드릴	-11555
▁알아보는	-11556
▁어떡하지	-11557
▁언제든지	-11558
▁없는데요	-11559
▁없습나다	-11560
▁여러분들	-11561
▁연계교재	-11562
▁영상에서	-11563
▁오늘따라	-11564
▁올려드릴	-11565
▁올려주신	-11566
▁올려주실	-11567
▁왔으니까	-11568
▁외국인이	-11569
▁외우시는	-11570
▁월요일에	-11571
▁의사소통	-11572
▁이러면서	-11573
▁이상으로	-11574
▁이야기는	-11575
▁이야기해	-11576
▁일하면서	-11577
▁읽었어요	-11578
▁있겠네요	-11579
▁있겠지만	-11580
▁있었군요	-11581
▁있을게요	-11582
▁자기만의	-11583
▁자야겠다	-11584
▁자작문제	-11585
▁자존심을	-11586
▁잘한다고	-11587
▁잠잠해지	-11588
▁재밌네요	-11589
▁전형으로	-11590
▁접근해야	-11591
▁정도까지	-11592
▁정리해둔	-11593
▁조절하는	-11594
▁좋겠내요	-11595
▁좋은데요	-11596
▁주야장천	-11597
▁중요하죠	-11598
▁중학교때	-11599
▁지문들을	-11600
▁지지하는	-11601
▁찍었는데	-11602
▁찾아보면	-11603
▁캠퍼스가	-11604
▁커트라인	-11605
▁콘텐츠는	-11606
▁파악하고	-11607
▁편입니다	-11608
▁푸시는게	-11609
▁풀다보면	-11610
▁풀어버리	-11611
▁피곤해서	-11612
▁필요한거	-11613
▁하는걸로	-11614
▁하려고요	-11615
▁하셔서요	-11616
▁한국사를	-11617
▁한국어로	-11618
▁한국어를	-11619
▁해결되는	-11620
▁해달라고	-11621
▁해야겠어	-11622
▁해야하나	-11623
▁해야한다	-11624
▁해야할것	-11625
▁햇었는데	-11626
▁했습나다	-11627
▁헷습니다	-11628
▁확인하고	-11629
▁확진자들	-11630
▁활용하는	-11631
버렸습니다	-11632
이더라구요	-11633
해야겠네요	-11634
해야할까요	-11635
▁가고싶어요	-11636
▁가능할까요	-11637
▁가채점표는	-11638
▁강제적으로	-11639
▁고민이네요	-11640
▁공감합니다	-11641
▁공부시간에	-11642
▁교수님이랑	-11643
▁그랬습니다	-11644
▁긍정적으로	-11645
▁기분이에요	-11646
▁기억하는데	-11647
▁기출문제로	-11648
▁기출문제만	-11649
▁나더라고요	-11650
▁느꼈습니다	-11651
▁느낌이네요	-11652
▁느낌이었어	-11653
▁들어가는데	-11654
▁들어갔어요	-11655
▁따라가다가	-11656
▁때려치우고	-11657
▁말씀드리고	-11658
▁말아주세요	-11659
▁모르겠내요	-11660
▁못하겠는데	-11661
▁물어보는게	-11662
▁물어보셔도	-11663
▁보내주세요	-11664
▁보여주시는	-11665
▁불가능하다	-11666
▁사드릴게요	-11667
▁사람으로서	-11668
▁사람인데요	-11669
▁사회적으로	-11670
▁상관없어요	-11671
▁생각났는데	-11672
▁생각하시고	-11673
▁수능끝나고	-11674
▁수능장에서	-11675
▁수험생활에	-11676
▁시작했어요	-11677
▁시험기간에	-11678
▁싶었는데요	-11679
▁아닌듯해요	-11680
▁아르바이트	-11681
▁않더라구요	-11682
▁알려주시는	-11683
▁알려주실수	-11684
▁어느정도로	-11685
▁어떡하나요	-11686
▁어쩌다보니	-11687
▁없더라구요	-11688
▁없을듯해요	-11689
▁여쭈어봐도	-11690
▁오겠습니다	-11691
▁이득입니다	-11692
▁이상하다고	-11693
▁읽어보니까	-11694
▁있으셨나요	-11695
▁잊어버리고	-11696
▁정리하면서	-11697
▁좋아했어요	-11698
▁추천하시는	-11699
▁친구들에게	-11700
▁풀어봤는데	-11701
▁했었습니다	-11702
▁힘들었는데	-11703
해보겠습나다	-11704
해보았습니다	-11705
▁가보겠습니다	-11706
▁고민이었는데	-11707
▁공부했습니다	-11708
▁괜찮을거에요	-11709
▁기출문제집은	-11710
▁너무너무너무	-11711
▁모르겟지만요	-11712
▁모르겠씁니다	-11713
▁바라겠습니다	-11714
▁불가능하다고	-11715
▁시험기간이라	-11716
▁시험기간인데	-11717
▁일어나자마자	-11718
▁졸리더라고요	-11719
▁참고해주세요	-11720
▁편하더라고요	-11721
.!	-11722
ᅦ요	-11723
▁굵	-11724
▁깡	-11725
▁깽	-11726
▁껐	-11727
▁끈	-11728
▁낄	-11729
▁낡	-11730
▁냉	-11731
▁냥	-11732
▁덧	-11733
▁돕	-11734
▁땀	-11735
▁뜹	-11736
▁맙	-11737
▁멤	-11738
▁멧	-11739
▁몫	-11740
▁뭉	-11741
▁뭡	-11742
▁뮤	-11743
▁뱀	-11744
▁볶	-11745
▁뺀	-11746
▁뺐	-11747
▁뻘	-11748
▁뽀	-11749
▁센	-11750
▁슈	-11751
▁슨	-11752
▁쌈	-11753
▁쌩	-11754
▁썻	-11755
▁쎄	-11756
▁쏠	-11757
▁쐬	-11758
▁쑤	-11759
▁쓱	-11760
▁씨	-11761
▁앗	-11762
▁액	-11763
▁앨	-11764
▁얇	-11765
▁엊	-11766
▁엔	-11767
▁엠	-11768
▁옥	-11769
▁을	-11770
▁잦	-11771
▁젓	-11772
▁줍	-11773
▁즈	-11774
▁짖	-11775
▁짭	-11776
▁찌	-11777
▁찐	-11778
▁찔	-11779
▁찝	-11780
▁챔	-11781
▁촌	-11782
▁츨	-11783
▁콧	-11784
▁쿵	-11785
▁탕	-11786
▁튕	-11787
▁헬	-11788
▁횡	-11789
▁훌	-11790
▁훤	-11791
▁휩	-11792
▁흡	-11793
▁흰	-11794
가물	-11795
가잇	-11796
각각	-11797
간의	-11798
갈때	-11799
감기	-11800
감독	-11801
감정	-11802
갔음	-11803
강도	-11804
갗이	-11805
개의	-11806
거갔	-11807
거니	-11808
거도	-11809
거란	-11810
거를	-11811
거서	-11812
건축	-11813
겁지	-11814
겟음	-11815
겠대	-11816
겹다	-11817
경외	-11818
경제	-11819
계는	-11820
계산	-11821
계예	-11822
곡차	-11823
공군	-11824
공원	-11825
공학	-11826
과에	-11827
관대	-11828
괴감	-11829
구만	-11830
구절	-11831
국대	-11832
군뇨	-11833
권인	-11834
귀도	-11835
규칙	-11836
그날	-11837
그리	-11838
그제	-11839
극에	-11840
글에	-11841
금은	-11842
기게	-11843
기관	-11844
기억	-11845
긴다	-11846
긴데	-11847
꺼야	-11848
꼬박	-11849
꾸로	-11850
나긴	-11851
나바	-11852
나지	-11853
난이	-11854
날쑥	-11855
남아	-11856
남이	-11857
났어	-11858
났음	-11859
내일	-11860
낸거	-11861
냅스	-11862
냈다	-11863
냐가	-11864
냐를	-11865
념이	-11866
노구	-11867
놓았	-11868
놨다	-11869
눈물	-11870
느니	-11871
니즘	-11872
니폼	-11873
니피	-11874
님도	-11875
다닥	-11876
다들	-11877
다를	-11878
달까	-11879
달아	-11880
당함	-11881
대고	-11882
대응	-11883
대화	-11884
더래	-11885
덕에	-11886
던게	-11887
데기	-11888
데는	-11889
도전	-11890
동네	-11891
동화	-11892
됐다	-11893
되길	-11894
되시	-11895
된단	-11896
두기	-11897
두지	-11898
들구	-11899
듬어	-11900
등록	-11901
딩을	-11902
때가	-11903
떨어	-11904
라앉	-11905
라질	-11906
락사	-11907
락은	-11908
란다	-11909
람이	-11910
랭크	-11911
량도	-11912
러러	-11913
럽다	-11914
렁거	-11915
레는	-11916
레를	-11917
려다	-11918
력과	-11919
력한	-11920
렸을	-11921
례식	-11922
로써	-11923
록색	-11924
론이	-11925
롯한	-11926
률도	-11927
륨이	-11928
르몬	-11929
르신	-11930
르웨	-11931
리베	-11932
리어	-11933
리핀	-11934
립이	-11935
립트	-11936
링을	-11937
마개	-11938
마땅	-11939
마를	-11940
마토	-11941
막이	-11942
만은	-11943
말라	-11944
말에	-11945
말한	-11946
망의	-11947
맞게	-11948
맣게	-11949
머님	-11950
먹기	-11951
먹지	-11952
먼지	-11953
메이	-11954
면요	-11955
면접	-11956
모습	-11957
몹시	-11958
무는	-11959
무를	-11960
묵히	-11961
물구	-11962
물러	-11963
물에	-11964
물은	-11965
물이	-11966
믄에	-11967
믄재	-11968
미용	-11969
민자	-11970
바꾸	-11971
바뀌	-11972
바라	-11973
박과	-11974
박을	-11975
박지	-11976
반응	-11977
받기	-11978
발로	-11979
발표	-11980
방과	-11981
백질	-11982
버스	-11983
번을	-11984
범이	-11985
법칙	-11986
별이	-11987
병원	-11988
보냈	-11989
보로	-11990
보장	-11991
보카	-11992
본까	-11993
봐두	-11994
부가	-11995
부도	-11996
부들	-11997
부로	-11998
부팅	-11999
북의	-12000
분사	-12001
불이	-12002
브이	-12003
비는	-12004
비티	-12005
비해	-12006
빛이	-12007
쁘게	-12008
사다	-12009
사서	-12010
사소	-12011
사야	-12012
사의	-12013
사친	-12014
사히	-12015
산업	-12016
살이	-12017
살표	-12018
상풍	-12019
생명	-12020
생을	-12021
서만	-12022
서야	-12023
석이	-12024
선다	-12025
선대	-12026
선배	-12027
설렁	-12028
성년	-12029
성비	-12030
성어	-12031
성온	-12032
성황	-12033
센트	-12034
셨대	-12035
셨어	-12036
소문	-12037
소스	-12038
수강	-12039
숙한	-12040
스면	-12041
습니	-12042
승전	-12043
시계	-12044
시급	-12045
시러	-12046
시미	-12047
시요	-12048
시피	-12049
실거	-12050
실도	-12051
실로	-12052
심리	-12053
심분	-12054
심한	-12055
써도	-12056
아노	-12057
아닐	-12058
악해	-12059
안되	-12060
알려	-12061
았대	-12062
애만	-12063
애요	-12064
양책	-12065
어먹	-12066
어휘	-12067
언스	-12068
업소	-12069
없을	-12070
여섯	-12071
역을	-12072
역학	-12073
연계	-12074
연은	-12075
였대	-12076
오래	-12077
올게	-12078
올은	-12079
와는	-12080
왔던	-12081
왔어	-12082
왕이	-12083
요가	-12084
욕장	-12085
용량	-12086
용어	-12087
우신	-12088
우절	-12089
움이	-12090
워도	-12091
위원	-12092
위한	-12093
유럽	-12094
유의	-12095
으루	-12096
으리	-12097
을것	-12098
을통	-12099
음은	-12100
의로	-12101
이드	-12102
이에	-12103
인과	-12104
인단	-12105
인듯	-12106
인원	-12107
인재	-12108
인할	-12109
일뿐	-12110
일찎	-12111
임말	-12112
잇던	-12113
있나	-12114
자꾸	-12115
자니	-12116
자에	-12117
작가	-12118
잡구	-12119
장과	-12120
장애	-12121
저곳	-12122
저래	-12123
저올	-12124
전가	-12125
절은	-12126
정의	-12127
정해	-12128
정화	-12129
조아	-12130
조어	-12131
조한	-12132
종은	-12133
종을	-12134
좋은	-12135
좌로	-12136
주변	-12137
주재	-12138
줄알	-12139
줄에	-12140
줌마	-12141
줘도	-12142
지긴	-12143
지대	-12144
지랑	-12145
지런	-12146
지털	-12147
직은	-12148
진거	-12149
진들	-12150
질과	-12151
질은	-12152
짓을	-12153
짜리	-12154
쪼록	-12155
쪽은	-12156
쯤엔	-12157
차도	-12158
찮게	-12159
창에	-12160
채신	-12161
책은	-12162
챙겨	-12163
체계	-12164
체능	-12165
쳐야	-12166
쳤다	-12167
추가	-12168
축을	-12169
취가	-12170
취업	-12171
치구	-12172
침을	-12173
카가	-12174
캔디	-12175
케팅	-12176
퀴즈	-12177
크림	-12178
키고	-12179
키는	-12180
타면	-12181
타임	-12182
타작	-12183
탈방	-12184
태소	-12185
탱자	-12186
터리	-12187
토샵	-12188
톨릭	-12189
퇴한	-12190
투명	-12191
투성	-12192
튜브	-12193
트렸	-12194
티는	-12195
티를	-12196
틱한	-12197
팅을	-12198
파가	-12199
파를	-12200
파업	-12201
판단	-12202
판을	-12203
패를	-12204
편을	-12205
포를	-12206
포터	-12207
품이	-12208
풋살	-12209
플루	-12210
피곤	-12211
피아	-12212
필기	-12213
하셔	-12214
한단	-12215
할꺼	-12216
함에	-12217
합리	-12218
항을	-12219
해떤	-12220
해줄	-12221
해줬	-12222
행사	-12223
행위	-12224
호를	-12225
화롭	-12226
회가	-12227
회용	-12228
훼손	-12229
???	-12230
▁가래	-12231
▁가물	-12232
▁가수	-12233
▁가위	-12234
▁가을	-12235
▁가전	-12236
▁가죠	-12237
▁가질	-12238
▁가짜	-12239
▁가해	-12240
▁각종	-12241
▁간도	-12242
▁간체	-12243
▁갈등	-12244
▁갈수	-12245
▁갈피	-12246
▁감수	-12247
▁감탄	-12248
▁강구	-12249
▁강릉	-12250
▁강연	-12251
▁강인	-12252
▁강진	-12253
▁갖게	-12254
▁같단	-12255
▁같죠	-12256
▁개개	-12257
▁개구	-12258
▁개방	-12259
▁개의	-12260
▁개정	-12261
▁갠찮	-12262
▁걔넨	-12263
▁걔니	-12264
▁걔랑	-12265
▁거나	-12266
▁거도	-12267
▁거르	-12268
▁거울	-12269
▁건의	-12270
▁걸려	-12271
▁걸음	-12272
▁검열	-12273
▁검찰	-12274
▁것인	-12275
▁게이	-12276
▁겪은	-12277
▁견뎌	-12278
▁결극	-12279
▁결석	-12280
▁결승	-12281
▁결심	-12282
▁경재	-12283
▁계단	-12284
▁계명	-12285
▁고삼	-12286
▁고용	-12287
▁고운	-12288
▁골든	-12289
▁공고	-12290
▁공과	-12291
▁공기	-12292
▁공사	-12293
▁공산	-12294
▁공포	-12295
▁과도	-12296
▁과자	-12297
▁과한	-12298
▁관건	-12299
▁관여	-12300
▁광주	-12301
▁광합	-12302
▁교내	-12303
▁교장	-12304
▁구간	-12305
▁구문	-12306
▁구상	-12307
▁구의	-12308
▁구해	-12309
▁권고	-12310
▁권장	-12311
▁귀국	-12312
▁귀신	-12313
▁규칙	-12314
▁그를	-12315
▁그립	-12316
▁그의	-12317
▁그이	-12318
▁극가	-12319
▁극성	-12320
▁극소	-12321
▁근육	-12322
▁글들	-12323
▁글시	-12324
▁금강	-12325
▁금리	-12326
▁금을	-12327
▁급진	-12328
▁급한	-12329
▁기겁	-12330
▁기기	-12331
▁기르	-12332
▁기를	-12333
▁기절	-12334
▁긴데	-12335
▁길은	-12336
▁까마	-12337
▁깜깜	-12338
▁깜짝	-12339
▁깽판	-12340
▁꺼리	-12341
▁꺼지	-12342
▁꼬박	-12343
▁꼴등	-12344
▁꼴을	-12345
▁꿀꺽	-12346
▁꿀이	-12347
▁꿈도	-12348
▁꿈인	-12349
▁끔찍	-12350
▁끝낼	-12351
▁끝을	-12352
▁끼면	-12353
▁끼워	-12354
▁나네	-12355
▁나락	-12356
▁나란	-12357
▁나믄	-12358
▁나불	-12359
▁나야	-12360
▁나왓	-12361
▁낙담	-12362
▁난동	-12363
▁날린	-12364
▁날카	-12365
▁남길	-12366
▁남동	-12367
▁남부	-12368
▁남음	-12369
▁납부	-12370
▁낮추	-12371
▁내게	-12372
▁내뱉	-12373
▁내부	-12374
▁내요	-12375
▁내재	-12376
▁내향	-12377
▁넘겼	-12378
▁넘길	-12379
▁넘지	-12380
▁넣을	-12381
▁년을	-12382
▁노드	-12383
▁노인	-12384
▁녹음	-12385
▁놀기	-12386
▁놀랍	-12387
▁놀랬	-12388
▁놈이	-12389
▁농구	-12390
▁놓지	-12391
▁놓치	-12392
▁뇌로	-12393
▁눈깔	-12394
▁눈의	-12395
▁눈팅	-12396
▁뉴런	-12397
▁느그	-12398
▁느낍	-12399
▁늘릴	-12400
▁늦잠	-12401
▁니네	-12402
▁님만	-12403
▁님을	-12404
▁다리	-12405
▁다질	-12406
▁닦고	-12407
▁단과	-12408
▁단기	-12409
▁단지	-12410
▁단체	-12411
▁단타	-12412
▁단톡	-12413
▁닫아	-12414
▁달고	-12415
▁달에	-12416
▁달의	-12417
▁담겨	-12418
▁담긴	-12419
▁담배	-12420
▁담아	-12421
▁담에	-12422
▁답만	-12423
▁답해	-12424
▁대강	-12425
▁대견	-12426
▁대륙	-12427
▁대리	-12428
▁대법	-12429
▁대중	-12430
▁대칭	-12431
▁대폭	-12432
▁더는	-12433
▁더불	-12434
▁더심	-12435
▁덧붙	-12436
▁데서	-12437
▁도구	-12438
▁도로	-12439
▁도발	-12440
▁도표	-12441
▁독감	-12442
▁독수	-12443
▁돌이	-12444
▁동등	-12445
▁동선	-12446
▁동지	-12447
▁동창	-12448
▁됀다	-12449
▁두기	-12450
▁두뇌	-12451
▁두어	-12452
▁둘러	-12453
▁뒤섞	-12454
▁뒷북	-12455
▁드셔	-12456
▁듣던	-12457
▁들쑥	-12458
▁등과	-12459
▁등산	-12460
▁따고	-12461
▁따르	-12462
▁따를	-12463
▁땅이	-12464
▁때요	-12465
▁떼면	-12466
▁뚜렷	-12467
▁뚫을	-12468
▁뜨고	-12469
▁뜨끈	-12470
▁뜨면	-12471
▁라인	-12472
▁랜덤	-12473
▁레벨	-12474
▁렌즈	-12475
▁로마	-12476
▁마땅	-12477
▁마무	-12478
▁마셔	-12479
▁마이	-12480
▁마저	-12481
▁마카	-12482
▁마트	-12483
▁막혔	-12484
▁만져	-12485
▁많기	-12486
▁많네	-12487
▁말끔	-12488
▁말끝	-12489
▁말든	-12490
▁말인	-12491
▁망친	-12492
▁맡기	-12493
▁매개	-12494
▁먹은	-12495
▁먹지	-12496
▁멀다	-12497
▁멤버	-12498
▁면담	-12499
▁면역	-12500
▁몇시	-12501
▁모교	-12502
▁모국	-12503
▁모델	-12504
▁모색	-12505
▁모음	-12506
▁모호	-12507
▁목소	-12508
▁목숨	-12509
▁몬가	-12510
▁몰랏	-12511
▁몸도	-12512
▁몸은	-12513
▁못봤	-12514
▁못썼	-12515
▁못쓴	-12516
▁못외	-12517
▁못정	-12518
▁못참	-12519
▁못하	-12520
▁묘사	-12521
▁무대	-12522
▁무뎌	-12523
▁무역	-12524
▁무죄	-12525
▁무턱	-12526
▁물러	-12527
▁물질	-12528
▁뭐뭐	-12529
▁미군	-12530
▁미디	-12531
▁미룰	-12532
▁미용	-12533
▁미지	-12534
▁바리	-12535
▁박람	-12536
▁박살	-12537
▁박아	-12538
▁박제	-12539
▁밖애	-12540
▁반년	-12541
▁반만	-12542
▁반면	-12543
▁반발	-12544
▁반을	-12545
▁발급	-12546
▁발로	-12547
▁발열	-12548
▁발췌	-12549
▁밤을	-12550
▁방도	-12551
▁방심	-12552
▁방정	-12553
▁배속	-12554
▁배제	-12555
▁백만	-12556
▁백색	-12557
▁백성	-12558
▁버는	-12559
▁버린	-12560
▁벅차	-12561
▁벅찬	-12562
▁번을	-12563
▁번질	-12564
▁법치	-12565
▁법칙	-12566
▁벚꽃	-12567
▁베껴	-12568
▁베이	-12569
▁벡터	-12570
▁벽에	-12571
▁벽이	-12572
▁변리	-12573
▁변태	-12574
▁별은	-12575
▁별점	-12576
▁별표	-12577
▁보관	-12578
▁보답	-12579
▁보던	-12580
▁보라	-12581
▁보유	-12582
▁보증	-12583
▁복싱	-12584
▁볶음	-12585
▁본능	-12586
▁본문	-12587
▁본전	-12588
▁볼거	-12589
▁볼일	-12590
▁봉쇄	-12591
▁부끄	-12592
▁부엌	-12593
▁부채	-12594
▁분량	-12595
▁분리	-12596
▁분발	-12597
▁불교	-12598
▁붙인	-12599
▁붙일	-12600
▁비리	-12601
▁비속	-12602
▁비쌀	-12603
▁비주	-12604
▁비켜	-12605
▁빅데	-12606
▁빠를	-12607
▁빠졌	-12608
▁빠진	-12609
▁빠짐	-12610
▁빼면	-12611
▁뻘쭘	-12612
▁뽑는	-12613
▁뿐만	-12614
▁사게	-12615
▁사냥	-12616
▁사림	-12617
▁사립	-12618
▁사먹	-12619
▁사면	-12620
▁사바	-12621
▁사소	-12622
▁사수	-12623
▁사의	-12624
▁사인	-12625
▁사자	-12626
▁사칭	-12627
▁산다	-12628
▁산문	-12629
▁살이	-12630
▁삶에	-12631
▁삼국	-12632
▁삼일	-12633
▁상기	-12634
▁상반	-12635
▁상식	-12636
▁상어	-12637
▁상자	-12638
▁새롭	-12639
▁새삼	-12640
▁색깔	-12641
▁생생	-12642
▁생선	-12643
▁서너	-12644
▁서둘	-12645
▁서론	-12646
▁서른	-12647
▁서점	-12648
▁선생	-12649
▁선이	-12650
▁설대	-12651
▁설득	-12652
▁설문	-12653
▁설믄	-12654
▁성균	-12655
▁성남	-12656
▁성냥	-12657
▁성능	-12658
▁성리	-12659
▁성인	-12660
▁성조	-12661
▁세대	-12662
▁세수	-12663
▁세울	-12664
▁세종	-12665
▁셀프	-12666
▁셋째	-12667
▁소거	-12668
▁소년	-12669
▁소독	-12670
▁소유	-12671
▁소홀	-12672
▁속물	-12673
▁손꼽	-12674
▁손님	-12675
▁손수	-12676
▁손톱	-12677
▁수급	-12678
▁수만	-12679
▁순천	-12680
▁순환	-12681
▁숫짜	-12682
▁쉬면	-12683
▁쉬어	-12684
▁슈퍼	-12685
▁스업	-12686
▁스키	-12687
▁스탠	-12688
▁스텝	-12689
▁스포	-12690
▁스피	-12691
▁슬퍼	-12692
▁승리	-12693
▁시계	-12694
▁시그	-12695
▁시급	-12696
▁시내	-12697
▁시립	-12698
▁시안	-12699
▁시야	-12700
▁시위	-12701
▁시킬	-12702
▁신분	-12703
▁신선	-12704
▁신중	-12705
▁신학	-12706
▁실감	-12707
▁실례	-12708
▁실망	-12709
▁실물	-12710
▁실용	-12711
▁실현	-12712
▁심란	-12713
▁심어	-12714
▁심할	-12715
▁십다	-12716
▁싱글	-12717
▁싸운	-12718
▁쌓는	-12719
▁쌩쌩	-12720
▁써오	-12721
▁썩은	-12722
▁쏟아	-12723
▁쓰게	-12724
▁쓰곤	-12725
▁쓰실	-12726
▁쓰이	-12727
▁쓸까	-12728
▁쓸모	-12729
▁아날	-12730
▁아내	-12731
▁아녀	-12732
▁아시	-12733
▁아팠	-12734
▁안간	-12735
▁안과	-12736
▁안긴	-12737
▁안남	-12738
▁안녕	-12739
▁안늦	-12740
▁안믿	-12741
▁안심	-12742
▁안썼	-12743
▁안읽	-12744
▁안잡	-12745
▁안졸	-12746
▁안함	-12747
▁앉은	-12748
▁알겟	-12749
▁알선	-12750
▁알수	-12751
▁알찬	-12752
▁앞의	-12753
▁얇은	-12754
▁양식	-12755
▁양에	-12756
▁양은	-12757
▁얘가	-12758
▁얘는	-12759
▁어는	-12760
▁어땠	-12761
▁얻고	-12762
▁얻기	-12763
▁엄격	-12764
▁엄중	-12765
▁업보	-12766
▁업적	-12767
▁없길	-12768
▁없진	-12769
▁엉덩	-12770
▁에프	-12771
▁여가	-12772
▁여고	-12773
▁여섯	-12774
▁역수	-12775
▁열고	-12776
▁열등	-12777
▁열몇	-12778
▁열역	-12779
▁염두	-12780
▁염증	-12781
▁영광	-12782
▁옆집	-12783
▁예뻐	-12784
▁예산	-12785
▁예열	-12786
▁예외	-12787
▁예제	-12788
▁올랴	-12789
▁옮길	-12790
▁옳지	-12791
▁와야	-12792
▁와요	-12793
▁외계	-12794
▁외교	-12795
▁외로	-12796
▁외모	-12797
▁외식	-12798
▁외압	-12799
▁외운	-12800
▁외의	-12801
▁왼손	-12802
▁요가	-12803
▁요샌	-12804
▁용도	-12805
▁용돈	-12806
▁용량	-12807
▁용어	-12808
▁우승	-12809
▁울릉	-12810
▁웃김	-12811
▁웅장	-12812
▁원가	-12813
▁원룸	-12814
▁원리	-12815
▁원망	-12816
▁원인	-12817
▁원자	-12818
▁월급	-12819
▁월별	-12820
▁월북	-12821
▁위협	-12822
▁유연	-12823
▁유인	-12824
▁유포	-12825
▁유흥	-12826
▁으로	-12827
▁은퇴	-12828
▁응결	-12829
▁의아	-12830
▁이공	-12831
▁이길	-12832
▁이놈	-12833
▁이딴	-12834
▁이렇	-12835
▁이분	-12836
▁이온	-12837
▁이웃	-12838
▁이의	-12839
▁이익	-12840
▁이쯤	-12841
▁이천	-12842
▁인성	-12843
▁인천	-12844
▁일산	-12845
▁일에	-12846
▁잃었	-12847
▁임용	-12848
▁입문	-12849
▁입에	-12850
▁잇지	-12851
▁있냐	-12852
▁있니	-12853
▁있따	-12854
▁잊을	-12855
▁자긴	-12856
▁자부	-12857
▁자아	-12858
▁자책	-12859
▁잘풀	-12860
▁잠깨	-12861
▁잡구	-12862
▁잡기	-12863
▁잡힌	-12864
▁장가	-12865
▁장르	-12866
▁장만	-12867
▁장바	-12868
▁장벽	-12869
▁장수	-12870
▁장악	-12871
▁장염	-12872
▁재밋	-12873
▁재발	-12874
▁재배	-12875
▁재산	-12876
▁재외	-12877
▁쟤는	-12878
▁저가	-12879
▁저떄	-12880
▁저리	-12881
▁저분	-12882
▁저자	-12883
▁저조	-12884
▁저흰	-12885
▁전교	-12886
▁전남	-12887
▁전복	-12888
▁전엔	-12889
▁전주	-12890
▁전치	-12891
▁전해	-12892
▁전후	-12893
▁절로	-12894
▁절박	-12895
▁절벽	-12896
▁절제	-12897
▁점령	-12898
▁점진	-12899
▁접속	-12900
▁정독	-12901
▁정수	-12902
▁정정	-12903
▁정형	-12904
▁제법	-12905
▁제어	-12906
▁조각	-12907
▁조립	-12908
▁조율	-12909
▁족보	-12910
▁좁은	-12911
▁좋대	-12912
▁죄다	-12913
▁주권	-12914
▁주목	-12915
▁주심	-12916
▁죽도	-12917
▁죽은	-12918
▁줄어	-12919
▁중동	-12920
▁중세	-12921
▁중화	-12922
▁줬다	-12923
▁지날	-12924
▁지랄	-12925
▁지뮨	-12926
▁지울	-12927
▁직각	-12928
▁직감	-12929
▁직선	-12930
▁직장	-12931
▁직전	-12932
▁직종	-12933
▁진대	-12934
▁진동	-12935
▁진자	-12936
▁질량	-12937
▁질릴	-12938
▁질투	-12939
▁집사	-12940
▁집안	-12941
▁집엔	-12942
▁집합	-12943
▁짓이	-12944
▁짜고	-12945
▁짧고	-12946
▁쪽잠	-12947
▁찍기	-12948
▁찝찝	-12949
▁차로	-12950
▁차마	-12951
▁착실	-12952
▁찰떡	-12953
▁창작	-12954
▁책만	-12955
▁책의	-12956
▁챔피	-12957
▁처방	-12958
▁처분	-12959
▁천사	-12960
▁천지	-12961
▁체결	-12962
▁체질	-12963
▁쳐요	-12964
▁쳐주	-12965
▁초대	-12966
▁초코	-12967
▁최상	-12968
▁최애	-12969
▁최우	-12970
▁추구	-12971
▁추락	-12972
▁추론	-12973
▁추모	-12974
▁추운	-12975
▁축적	-12976
▁출력	-12977
▁춥다	-12978
▁취합	-12979
▁층간	-12980
▁치명	-12981
▁치즈	-12982
▁친해	-12983
▁침착	-12984
▁칸에	-12985
▁칼국	-12986
▁칼로	-12987
▁캐치	-12988
▁캠프	-12989
▁커지	-12990
▁컴공	-12991
▁크니	-12992
▁키가	-12993
▁키를	-12994
▁타당	-12995
▁타서	-12996
▁탄탄	-12997
▁탈모	-12998
▁탈주	-12999
▁태양	-13000
▁테러	-13001
▁통치	-13002
▁트집	-13003
▁틀림	-13004
▁틀면	-13005
▁틀을	-13006
▁파우	-13007
▁파이	-13008
▁판별	-13009
▁판에	-13010
▁팔아	-13011
▁패드	-13012
▁패스	-13013
▁퍼졌	-13014
▁퍼즐	-13015
▁편인	-13016
▁편할	-13017
▁펼쳐	-13018
▁평범	-13019
▁평상	-13020
▁평형	-13021
▁폐렴	-13022
▁폭행	-13023
▁표기	-13024
▁풀게	-13025
▁풍부	-13026
▁프라	-13027
▁피상	-13028
▁피식	-13029
▁피켓	-13030
▁피폐	-13031
▁필사	-13032
▁하드	-13033
▁하반	-13034
▁하트	-13035
▁학비	-13036
▁학업	-13037
▁학평	-13038
▁한권	-13039
▁한발	-13040
▁한복	-13041
▁한양	-13042
▁한잔	-13043
▁한줄	-13044
▁할당	-13045
▁할라	-13046
▁할래	-13047
▁함수	-13048
▁합산	-13049
▁항공	-13050
▁항의	-13051
▁해가	-13052
▁해둔	-13053
▁해봣	-13054
▁해에	-13055
▁해운	-13056
▁해이	-13057
▁햇고	-13058
▁했네	-13059
▁행사	-13060
▁향한	-13061
▁허언	-13062
▁허튼	-13063
▁헤맸	-13064
▁헬스	-13065
▁헸다	-13066
▁현업	-13067
▁협박	-13068
▁호모	-13069
▁호옥	-13070
▁호주	-13071
▁호텔	-13072
▁혹여	-13073
▁홀로	-13074
▁홍삼	-13075
▁환급	-13076
▁환영	-13077
▁환자	-13078
▁환장	-13079
▁환전	-13080
▁황국	-13081
▁황당	-13082
▁회원	-13083
▁후각	-13084
▁후쿠	-13085
▁훈수	-13086
▁훤칠	-13087
▁휘말	-13088
▁휩쓸	-13089
▁휴게	-13090
▁휴교	-13091
▁흉부	-13092
▁흐려	-13093
▁흐리	-13094
▁흔치	-13095
▁흥분	-13096
가봐요	-13097
가부터	-13098
가타서	-13099
간으로	-13100
갈수록	-13101
갑시다	-13102
갔거든	-13103
갔다는	-13104
강의는	-13105
같은게	-13106
거같음	-13107
거나요	-13108
거리는	-13109
걸가요	-13110
겁지겁	-13111
것이다	-13112
경외시	-13113
계획서	-13114
계획을	-13115
고싶어	-13116
곡차곡	-13117
공부가	-13118
과목의	-13119
관들이	-13120
교재만	-13121
구나무	-13122
구절절	-13123
국시대	-13124
그라미	-13125
그래두	-13126
그래서	-13127
그런거	-13128
그럿게	-13129
그리고	-13130
기사는	-13131
긴하죠	-13132
까지도	-13133
꺼예요	-13134
꿉니다	-13135
나바요	-13136
나오는	-13137
나오면	-13138
납니다	-13139
내용은	-13140
냅시다	-13141
냐면서	-13142
냐하면	-13143
넣어서	-13144
느냐는	-13145
는거라	-13146
는사람	-13147
는지에	-13148
늕데요	-13149
니폼을	-13150
니피그	-13151
다녀서	-13152
달라는	-13153
돼서요	-13154
됐는데	-13155
됐어요	-13156
되기도	-13157
된다면	-13158
두시면	-13159
두어야	-13160
드라도	-13161
드러운	-13162
드려보	-13163
드린다	-13164
들어가	-13165
들어온	-13166
들어요	-13167
들으면	-13168
들이야	-13169
들처럼	-13170
듯하다	-13171
듯해서	-13172
라는걸	-13173
라는대	-13174
라스틱	-13175
라우마	-13176
라인이	-13177
락해서	-13178
럽네요	-13179
렀는데	-13180
렇게나	-13181
률이나	-13182
리처럼	-13183
린다고	-13184
만이라	-13185
메이션	-13186
면서도	-13187
몰라요	-13188
문자로	-13189
문재를	-13190
문제르	-13191
뭉치를	-13192
반이라	-13193
받으면	-13194
방식이	-13195
버리고	-13196
버리면	-13197
버지가	-13198
법으로	-13199
법이랑	-13200
병원은	-13201
보는데	-13202
보니깐	-13203
보다가	-13204
보려고	-13205
보면요	-13206
보새요	-13207
보시면	-13208
봤어도	-13209
부르고	-13210
부분을	-13211
부븐이	-13212
분께서	-13213
분들의	-13214
빳하게	-13215
뿐이다	-13216
사람도	-13217
사소송	-13218
산으로	-13219
상실은	-13220
상으론	-13221
생이라	-13222
성온천	-13223
성황후	-13224
셧나요	-13225
소하는	-13226
수도있	-13227
수밖에	-13228
수업도	-13229
수잇어	-13230
승전결	-13231
시간두	-13232
시간만	-13233
시길래	-13234
시스템	-13235
시에요	-13236
시켜서	-13237
식이라	-13238
식해서	-13239
심으로	-13240
십시요	-13241
싶다고	-13242
쌍꺼풀	-13243
아니고	-13244
아닌데	-13245
아이가	-13246
악으로	-13247
안하는	-13248
았으면	-13249
야하는	-13250
야한다	-13251
어놓을	-13252
어버림	-13253
어야죠	-13254
어주는	-13255
어지게	-13256
었내요	-13257
에서두	-13258
에서요	-13259
에잇는	-13260
에있는	-13261
여대는	-13262
였다가	-13263
였다고	-13264
였잖아	-13265
오니까	-13266
왔다고	-13267
외과는	-13268
용이라	-13269
워하지	-13270
원이나	-13271
월부터	-13272
위해서	-13273
으셔도	-13274
으셔요	-13275
으시지	-13276
은거의	-13277
을때도	-13278
을떄는	-13279
이거나	-13280
이는거	-13281
이란게	-13282
이러케	-13283
이름은	-13284
이므로	-13285
이아몬	-13286
이어야	-13287
이예요	-13288
이티브	-13289
인거야	-13290
인대요	-13291
인데도	-13292
인만큼	-13293
인지가	-13294
입니닷	-13295
잇는거	-13296
잇서서	-13297
잇엇다	-13298
잇지않	-13299
있는지	-13300
있어야	-13301
있었어	-13302
자들은	-13303
자인데	-13304
장님은	-13305
저만이	-13306
적이긴	-13307
적이든	-13308
전공이	-13309
점수를	-13310
정책이	-13311
져서요	-13312
져있는	-13313
졌네요	-13314
조사는	-13315
조사를	-13316
조차도	-13317
좋아요	-13318
주는게	-13319
주시길	-13320
주의를	-13321
주의자	-13322
중으로	-13323
중이라	-13324
중인격	-13325
줘야지	-13326
증으로	-13327
지나요	-13328
지능이	-13329
지도가	-13330
지말지	-13331
지안나	-13332
지안어	-13333
지않다	-13334
지않은	-13335
지에서	-13336
지원금	-13337
직전에	-13338
직하게	-13339
진다는	-13340
차하면	-13341
추동물	-13342
카메라	-13343
테니까	-13344
텐대요	-13345
판이랑	-13346
편이다	-13347
편적인	-13348
평가는	-13349
풉니다	-13350
하게끔	-13351
하겟지	-13352
하겠네	-13353
하겠지	-13354
하고도	-13355
하고싶	-13356
하고있	-13357
하기에	-13358
하나봐	-13359
하는가	-13360
하더니	-13361
하도록	-13362
하려다	-13363
하셨고	-13364
하시기	-13365
하시든	-13366
하시오	-13367
학과는	-13368
학과라	-13369
학과로	-13370
학교가	-13371
학도가	-13372
한거다	-13373
한만큼	-13374
한사람	-13375
한테는	-13376
한테만	-13377
할때는	-13378
할떄는	-13379
할수도	-13380
함으로	-13381
합일까	-13382
해놓은	-13383
해두면	-13384
해서도	-13385
해야죠	-13386
해졌다	-13387
해줘서	-13388
햇다는	-13389
햇지만	-13390
했는디	-13391
했던거	-13392
했어도	-13393
했어서	-13394
헸어요	-13395
형태소	-13396
호르몬	-13397
화에서	-13398
화하여	-13399
효과가	-13400
후배로	-13401
히도록	-13402
..??	-13403
▁가게를	-13404
▁가겠다	-13405
▁가기는	-13406
▁가기싫	-13407
▁가는건	-13408
▁가라앉	-13409
▁가려는	-13410
▁가르친	-13411
▁가면서	-13412
▁가벼운	-13413
▁가성비	-13414
▁가시고	-13415
▁가야지	-13416
▁가져오	-13417
▁가치는	-13418
▁가톨릭	-13419
▁각각의	-13420
▁간간이	-13421
▁간략화	-13422
▁간략히	-13423
▁간신히	-13424
▁감사의	-13425
▁감사할	-13426
▁감성을	-13427
▁갔는지	-13428
▁갔다온	-13429
▁강사나	-13430
▁강사의	-13431
▁강아지	-13432
▁같군요	-13433
▁같다면	-13434
▁개념도	-13435
▁개선이	-13436
▁개업을	-13437
▁개인도	-13438
▁개학을	-13439
▁개혁을	-13440
▁갱장히	-13441
▁거겠지	-13442
▁거기가	-13443
▁거기는	-13444
▁거기를	-13445
▁거라구	-13446
▁거라도	-13447
▁거랑은	-13448
▁거리를	-13449
▁거북이	-13450
▁걱정할	-13451
▁걱정해	-13452
▁건강을	-13453
▁건강이	-13454
▁건너뛰	-13455
▁건대는	-13456
▁걸가요	-13457
▁걸려도	-13458
▁걸리진	-13459
▁걸린다	-13460
▁것들만	-13461
▁것만큼	-13462
▁게시글	-13463
▁격퇴한	-13464
▁결국엔	-13465
▁결론은	-13466
▁결정을	-13467
▁결정한	-13468
▁경영대	-13469
▁경제가	-13470
▁경제는	-13471
▁경찰에	-13472
▁경찰이	-13473
▁계기로	-13474
▁계시지	-13475
▁계획만	-13476
▁계획세	-13477
▁계획이	-13478
▁계획짜	-13479
▁계획해	-13480
▁고대에	-13481
▁고민만	-13482
▁고치면	-13483
▁공급이	-13484
▁공대만	-13485
▁공매도	-13486
▁공백문	-13487
▁공부로	-13488
▁공부죠	-13489
▁공시가	-13490
▁공시도	-13491
▁공약을	-13492
▁공통된	-13493
▁공학과	-13494
▁과감히	-13495
▁과거의	-13496
▁과목만	-13497
▁과학은	-13498
▁과학중	-13499
▁관계를	-13500
▁괜찮고	-13501
▁괜찮긴	-13502
▁괴로워	-13503
▁괴리가	-13504
▁교대생	-13505
▁교류를	-13506
▁교육을	-13507
▁교훈을	-13508
▁구매한	-13509
▁구조를	-13510
▁국가들	-13511
▁군수는	-13512
▁굴레를	-13513
▁궁금증	-13514
▁궁금함	-13515
▁권력을	-13516
▁궤도에	-13517
▁귀찮고	-13518
▁귀찮은	-13519
▁그대신	-13520
▁그떄는	-13521
▁그러실	-13522
▁그러죠	-13523
▁그럴싸	-13524
▁그렇긴	-13525
▁그레요	-13526
▁그리면	-13527
▁그림도	-13528
▁그림은	-13529
▁그만둔	-13530
▁그쪽은	-13531
▁그쪽이	-13532
▁근데이	-13533
▁글에만	-13534
▁글자는	-13535
▁금박지	-13536
▁금액이	-13537
▁기대가	-13538
▁기대에	-13539
▁기본은	-13540
▁기숙은	-13541
▁기적을	-13542
▁기하는	-13543
▁기하도	-13544
▁기하로	-13545
▁기하학	-13546
▁기회를	-13547
▁긴장도	-13548
▁길어졌	-13549
▁까먹을	-13550
▁깔끔한	-13551
▁깨달음	-13552
▁꺼내서	-13553
▁꼬투리	-13554
▁꿀벌옷	-13555
▁끌어올	-13556
▁끝나구	-13557
▁끝나지	-13558
▁끝난다	-13559
▁끝내구	-13560
▁나누고	-13561
▁나누는	-13562
▁나눠주	-13563
▁나서도	-13564
▁나아가	-13565
▁나오게	-13566
▁나오네	-13567
▁나오니	-13568
▁나오신	-13569
▁나왔던	-13570
▁나으실	-13571
▁나이는	-13572
▁난다고	-13573
▁날씨가	-13574
▁남들도	-13575
▁남들은	-13576
▁남아있	-13577
▁남으면	-13578
▁남자들	-13579
▁남편의	-13580
▁남편이	-13581
▁남한테	-13582
▁납득이	-13583
▁낮겠죠	-13584
▁낮아도	-13585
▁낮에는	-13586
▁낮잠을	-13587
▁내다가	-13588
▁내려놓	-13589
▁내리고	-13590
▁내신따	-13591
▁내일을	-13592
▁내일의	-13593
▁너에게	-13594
▁넓어서	-13595
▁넘어갈	-13596
▁넘으면	-13597
▁넣어놨	-13598
▁네일도	-13599
▁노래가	-13600
▁노래는	-13601
▁노래도	-13602
▁노력에	-13603
▁노력은	-13604
▁노르웨	-13605
▁노리고	-13606
▁노하우	-13607
▁논술을	-13608
▁논점을	-13609
▁놀아도	-13610
▁놈들은	-13611
▁농구는	-13612
▁농기구	-13613
▁높아지	-13614
▁누구든	-13615
▁느낌도	-13616
▁느낌인	-13617
▁늘어났	-13618
▁늘어서	-13619
▁다가가	-13620
▁다녀본	-13621
▁다녀서	-13622
▁다녀온	-13623
▁다닐떄	-13624
▁다뤄서	-13625
▁다르지	-13626
▁다리에	-13627
▁다수의	-13628
▁다하는	-13629
▁다해서	-13630
▁단어들	-13631
▁단어로	-13632
▁단어에	-13633
▁단점도	-13634
▁단점이	-13635
▁단축될	-13636
▁달까지	-13637
▁달라지	-13638
▁담아보	-13639
▁담임이	-13640
▁답글이	-13641
▁답이없	-13642
▁답지가	-13643
▁답지만	-13644
▁당하는	-13645
▁당황한	-13646
▁대구에	-13647
▁대기업	-13648
▁대답을	-13649
▁대비가	-13650
▁대비는	-13651
▁대상이	-13652
▁대여섯	-13653
▁대전에	-13654
▁대처를	-13655
▁대체가	-13656
▁대체할	-13657
▁대하여	-13658
▁대학도	-13659
▁대학만	-13660
▁대형견	-13661
▁댓글은	-13662
▁댓글창	-13663
▁더워서	-13664
▁데리고	-13665
▁도망가	-13666
▁도시락	-13667
▁도형은	-13668
▁도형을	-13669
▁독서도	-13670
▁독해법	-13671
▁돌리고	-13672
▁돌아온	-13673
▁돌아올	-13674
▁돌아왔	-13675
▁동기들	-13676
▁동남아	-13677
▁동물들	-13678
▁동물이	-13679
▁동생도	-13680
▁동아줄	-13681
▁동일시	-13682
▁되냐고	-13683
▁되는게	-13684
▁되세요	-13685
▁되시면	-13686
▁되어야	-13687
▁되었던	-13688
▁되었음	-13689
▁됩시다	-13690
▁두개로	-13691
▁두드러	-13692
▁두려움	-13693
▁두번째	-13694
▁두시에	-13695
▁두통은	-13696
▁둘중에	-13697
▁뒤늦게	-13698
▁뒤로는	-13699
▁뒤에서	-13700
▁뒤집을	-13701
▁뒤통수	-13702
▁드러낸	-13703
▁드려서	-13704
▁드리고	-13705
▁드리는	-13706
▁들어본	-13707
▁들여다	-13708
▁들으니	-13709
▁들으려	-13710
▁들은거	-13711
▁들키고	-13712
▁등록된	-13713
▁디지털	-13714
▁때처럼	-13715
▁떄문이	-13716
▁떠나는	-13717
▁떠들게	-13718
▁떨려서	-13719
▁떨어짐	-13720
▁떴는데	-13721
▁뚫리는	-13722
▁뜯어보	-13723
▁뜹니다	-13724
▁띄우면	-13725
▁로그로	-13726
▁로망을	-13727
▁롱패딩	-13728
▁리더십	-13729
▁리부팅	-13730
▁리스크	-13731
▁마감이	-13732
▁마라탕	-13733
▁마시구	-13734
▁마음은	-13735
▁막판에	-13736
▁막혀있	-13737
▁만나자	-13738
▁만났을	-13739
▁만들구	-13740
▁만들기	-13741
▁만들긴	-13742
▁만만한	-13743
▁만사가	-13744
▁만우절	-13745
▁많나요	-13746
▁많으니	-13747
▁많은게	-13748
▁많지는	-13749
▁말려서	-13750
▁말아라	-13751
▁말이나	-13752
▁말인지	-13753
▁말하긴	-13754
▁말한거	-13755
▁말해도	-13756
▁말했다	-13757
▁말했던	-13758
▁맙시다	-13759
▁맛있게	-13760
▁맛있긴	-13761
▁맛있다	-13762
▁망설여	-13763
▁망쳐서	-13764
▁맞군요	-13765
▁맞는게	-13766
▁맞는다	-13767
▁맞을거	-13768
▁맡아줄	-13769
▁매체를	-13770
▁맥락상	-13771
▁맥락을	-13772
▁머리로	-13773
▁머리카	-13774
▁머물러	-13775
▁먹는게	-13776
▁먹는다	-13777
▁먹어요	-13778
▁멈추고	-13779
▁멋지게	-13780
▁메일을	-13781
▁멘탈도	-13782
▁면접날	-13783
▁면접도	-13784
▁면접에	-13785
▁면접이	-13786
▁면허증	-13787
▁멸망했	-13788
▁명령을	-13789
▁몇번씩	-13790
▁모두들	-13791
▁모든걸	-13792
▁모르교	-13793
▁모를까	-13794
▁모순이	-13795
▁모여서	-13796
▁목적에	-13797
▁목적을	-13798
▁몰랐던	-13799
▁못가면	-13800
▁못하기	-13801
▁못하신	-13802
▁묘사가	-13803
▁무거운	-13804
▁무기징	-13805
▁무사히	-13806
▁무증상	-13807
▁묵묵히	-13808
▁묵직한	-13809
▁문과도	-13810
▁문법이	-13811
▁문의를	-13812
▁문자를	-13813
▁문제일	-13814
▁문제지	-13815
▁문젠지	-13816
▁문학도	-13817
▁문학만	-13818
▁문화가	-13819
▁문화에	-13820
▁물리적	-13821
▁물어봄	-13822
▁뭔지를	-13823
▁뭡니까	-13824
▁미국은	-13825
▁미국을	-13826
▁미래는	-13827
▁미래에	-13828
▁미련은	-13829
▁미성년	-13830
▁미술은	-13831
▁미치게	-13832
▁민감한	-13833
▁밀리면	-13834
▁밀리지	-13835
▁밑에서	-13836
▁밑으로	-13837
▁바껴서	-13838
▁바꿔주	-13839
▁바뀌고	-13840
▁바뀌니	-13841
▁바닥에	-13842
▁바라며	-13843
▁바람이	-13844
▁반박해	-13845
▁반영해	-13846
▁반지하	-13847
▁반타작	-13848
▁반포기	-13849
▁받으러	-13850
▁발견할	-13851
▁발언을	-13852
▁발음도	-13853
▁발음이	-13854
▁발표는	-13855
▁발표를	-13856
▁밝아서	-13857
▁밝혀진	-13858
▁밥먹고	-13859
▁밥약속	-13860
▁방법인	-13861
▁방송부	-13862
▁방안을	-13863
▁방학을	-13864
▁방해될	-13865
▁배경색	-13866
▁배우구	-13867
▁배우지	-13868
▁배운게	-13869
▁배웅을	-13870
▁배워도	-13871
▁배터리	-13872
▁백업을	-13873
▁버리지	-13874
▁버티기	-13875
▁번째로	-13876
▁벌꿀은	-13877
▁범죄를	-13878
▁벗어나	-13879
▁벗으면	-13880
▁베스트	-13881
▁변한다	-13882
▁별로다	-13883
▁별생각	-13884
▁병원을	-13885
▁보군요	-13886
▁보는거	-13887
▁보아요	-13888
▁보안이	-13889
▁보였어	-13890
▁보이게	-13891
▁보이네	-13892
▁보이면	-13893
▁보자고	-13894
▁보장이	-13895
▁보지도	-13896
▁복습과	-13897
▁복습해	-13898
▁본다고	-13899
▁본다면	-13900
▁본인도	-13901
▁본인은	-13902
▁볼륨이	-13903
▁봐주는	-13904
▁부르고	-13905
▁부부가	-13906
▁부분인	-13907
▁부산이	-13908
▁부장이	-13909
▁부족해	-13910
▁부천에	-13911
▁부호가	-13912
▁부호화	-13913
▁북유럽	-13914
▁분석도	-13915
▁분석서	-13916
▁분석의	-13917
▁분야에	-13918
▁분에게	-13919
▁불행한	-13920
▁붙어서	-13921
▁브랜드	-13922
▁비교가	-13923
▁비교를	-13924
▁비롯한	-13925
▁비슷할	-13926
▁비평은	-13927
▁빈칸은	-13928
▁빠져나	-13929
▁빨라서	-13930
▁뺏기게	-13931
▁뽑아야	-13932
▁뽑아주	-13933
▁뿌리고	-13934
▁사고를	-13935
▁사과문	-13936
▁사기업	-13937
▁사놓고	-13938
▁사는데	-13939
▁사니까	-13940
▁사라질	-13941
▁사람일	-13942
▁사법부	-13943
▁사상은	-13944
▁사세요	-13945
▁사실은	-13946
▁사실이	-13947
▁사이의	-13948
▁사장이	-13949
▁사정이	-13950
▁사회가	-13951
▁사회와	-13952
▁삭제됐	-13953
▁삭제된	-13954
▁살아본	-13955
▁삼수를	-13956
▁삼수생	-13957
▁상반기	-13958
▁상사가	-13959
▁상으로	-13960
▁상태를	-13961
▁새롭게	-13962
▁색다르	-13963
▁생각안	-13964
▁생각엔	-13965
▁생각의	-13966
▁생겼어	-13967
▁생겼을	-13968
▁생리통	-13969
▁생명은	-13970
▁생물을	-13971
▁생애를	-13972
▁생활이	-13973
▁서럽게	-13974
▁서점에	-13975
▁섞어서	-13976
▁선물로	-13977
▁선배도	-13978
▁선생이	-13979
▁선의의	-13980
▁선지만	-13981
▁선지의	-13982
▁선행을	-13983
▁설레요	-13984
▁설명회	-13985
▁성공은	-13986
▁성공을	-13987
▁성과금	-13988
▁성실히	-13989
▁성종은	-13990
▁성향이	-13991
▁세금을	-13992
▁세우기	-13993
▁세워야	-13994
▁소리는	-13995
▁소리로	-13996
▁소린지	-13997
▁소재는	-13998
▁소중한	-13999
▁속도는	-14000
▁속에서	-14001
▁솔직한	-14002
▁쇼핑몰	-14003
▁수강생	-14004
▁수능도	-14005
▁수도권	-14006
▁수많은	-14007
▁수시가	-14008
▁수시랑	-14009
▁수시를	-14010
▁수업과	-14011
▁수업못	-14012
▁수입차	-14013
▁수정해	-14014
▁수준과	-14015
▁수준도	-14016
▁수준을	-14017
▁수치로	-14018
▁순수한	-14019
▁쉬우면	-14020
▁쉬운게	-14021
▁쉬운데	-14022
▁스카이	-14023
▁스킬을	-14024
▁스토킹	-14025
▁스펙이	-14026
▁슬픔을	-14027
▁슬픔이	-14028
▁승자가	-14029
▁시기는	-14030
▁시냅스	-14031
▁시대로	-14032
▁시도가	-14033
▁시켜서	-14034
▁시트콤	-14035
▁시험장	-14036
▁식당에	-14037
▁식사를	-14038
▁신경이	-14039
▁신기함	-14040
▁신나게	-14041
▁신나서	-14042
▁신도시	-14043
▁신라에	-14044
▁신소재	-14045
▁신조어	-14046
▁실려있	-14047
▁실수나	-14048
▁실습이	-14049
▁실질적	-14050
▁실험실	-14051
▁싫어질	-14052
▁싫으셨	-14053
▁심리를	-14054
▁심리학	-14055
▁심해진	-14056
▁싶내요	-14057
▁싶었고	-14058
▁싶었다	-14059
▁싶은걸	-14060
▁싶은게	-14061
▁싸우고	-14062
▁싸우지	-14063
▁쌓아야	-14064
▁써놓은	-14065
▁써먹어	-14066
▁써보는	-14067
▁썸네일	-14068
▁쓰니까	-14069
▁쓰라고	-14070
▁쓰레기	-14071
▁쓰시던	-14072
▁쓰이고	-14073
▁쓴소리	-14074
▁아까운	-14075
▁아는척	-14076
▁아니게	-14077
▁아니까	-14078
▁아무말	-14079
▁아보카	-14080
▁아셔야	-14081
▁아쉬운	-14082
▁아시고	-14083
▁아시아	-14084
▁아시죠	-14085
▁아싸가	-14086
▁아이돌	-14087
▁아이스	-14088
▁아줌마	-14089
▁아직두	-14090
▁아침만	-14091
▁아프게	-14092
▁안나서	-14093
▁안나온	-14094
▁안나올	-14095
▁안다는	-14096
▁안다니	-14097
▁안되나	-14098
▁안되어	-14099
▁안듣고	-14100
▁안락사	-14101
▁안맞는	-14102
▁안보구	-14103
▁안쓰구	-14104
▁안쓰러	-14105
▁안을가	-14106
▁안조은	-14107
▁안풀리	-14108
▁안풀릴	-14109
▁앉아있	-14110
▁않겠죠	-14111
▁않다는	-14112
▁않은거	-14113
▁알기에	-14114
▁알려고	-14115
▁알려져	-14116
▁알려준	-14117
▁알려줄	-14118
▁알바를	-14119
▁알수있	-14120
▁알아가	-14121
▁알았대	-14122
▁알았던	-14123
▁알잖아	-14124
▁알지만	-14125
▁암기가	-14126
▁암기한	-14127
▁앞서나	-14128
▁애매해	-14129
▁애한테	-14130
▁야간대	-14131
▁야무지	-14132
▁약대가	-14133
▁양쪽의	-14134
▁양치기	-14135
▁얕게만	-14136
▁어딘가	-14137
▁어랴워	-14138
▁어르신	-14139
▁어릴때	-14140
▁어이가	-14141
▁어중간	-14142
▁어쩌구	-14143
▁어쩌죠	-14144
▁억제력	-14145
▁언니도	-14146
▁언어는	-14147
▁얻어갈	-14148
▁얻으셨	-14149
▁얼마저	-14150
▁얼어붙	-14151
▁엄마를	-14152
▁엄밀히	-14153
▁업체들	-14154
▁없는걸	-14155
▁없다구	-14156
▁없던데	-14157
▁없도록	-14158
▁없어졌	-14159
▁엊그제	-14160
▁에스디	-14161
▁에어백	-14162
▁에어컨	-14163
▁엘리베	-14164
▁여기다	-14165
▁여기를	-14166
▁여성과	-14167
▁여성의	-14168
▁여자만	-14169
▁여자애	-14170
▁역겹다	-14171
▁역량을	-14172
▁역효과	-14173
▁연결된	-14174
▁연고대	-14175
▁연관이	-14176
▁연구가	-14177
▁연구는	-14178
▁연구실	-14179
▁연구원	-14180
▁연기될	-14181
▁연달아	-14182
▁연대는	-14183
▁연락처	-14184
▁연애는	-14185
▁연애를	-14186
▁열받아	-14187
▁열심하	-14188
▁열악해	-14189
▁열어야	-14190
▁영어도	-14191
▁예비로	-14192
▁예시가	-14193
▁예정이	-14194
▁예정임	-14195
▁예체능	-14196
▁오거나	-14197
▁오늘만	-14198
▁오답은	-14199
▁오래가	-14200
▁오르실	-14201
▁오면서	-14202
▁오시는	-14203
▁오인할	-14204
▁오프닝	-14205
▁오해가	-14206
▁오후를	-14207
▁올라서	-14208
▁올라와	-14209
▁올라요	-14210
▁올려도	-14211
▁올려요	-14212
▁올렸어	-14213
▁올리기	-14214
▁올림픽	-14215
▁옮기는	-14216
▁옳다고	-14217
▁옳다는	-14218
▁와중에	-14219
▁완화된	-14220
▁왜그러	-14221
▁외에도	-14222
▁외웠던	-14223
▁요인은	-14224
▁욕먹을	-14225
▁욕심이	-14226
▁욕하는	-14227
▁용기가	-14228
▁우러러	-14229
▁우리저	-14230
▁우선순	-14231
▁운영을	-14232
▁운영진	-14233
▁운전자	-14234
▁울렁거	-14235
▁웃음이	-14236
▁원만히	-14237
▁원심분	-14238
▁원칙은	-14239
▁월별로	-14240
▁웬만큼	-14241
▁위로의	-14242
▁위주의	-14243
▁유감이	-14244
▁유급만	-14245
▁유동인	-14246
▁유료로	-14247
▁유전만	-14248
▁유전은	-14249
▁유전이	-14250
▁유지해	-14251
▁유체의	-14252
▁유형에	-14253
▁유혹에	-14254
▁은근히	-14255
▁의대도	-14256
▁의사는	-14257
▁의예과	-14258
▁의의가	-14259
▁의정부	-14260
▁의지의	-14261
▁의해서	-14262
▁이것은	-14263
▁이것이	-14264
▁이과를	-14265
▁이대로	-14266
▁이라구	-14267
▁이러는	-14268
▁이러한	-14269
▁이런걸	-14270
▁이런결	-14271
▁이런곳	-14272
▁이력서	-14273
▁이론만	-14274
▁이름도	-14275
▁이름은	-14276
▁이모가	-14277
▁이목이	-14278
▁이분이	-14279
▁이뻐서	-14280
▁이슬람	-14281
▁이어서	-14282
▁이어폰	-14283
▁이정두	-14284
▁이해도	-14285
▁이해안	-14286
▁익숙한	-14287
▁익힘책	-14288
▁인간은	-14289
▁인간을	-14290
▁인문계	-14291
▁인물을	-14292
▁인상깊	-14293
▁인생은	-14294
▁인생을	-14295
▁인식이	-14296
▁인원수	-14297
▁인정을	-14298
▁인증은	-14299
▁인형을	-14300
▁일들을	-14301
▁일문과	-14302
▁일반과	-14303
▁일부는	-14304
▁일인지	-14305
▁일탈방	-14306
▁일하고	-14307
▁일회용	-14308
▁읽기만	-14309
▁읽는게	-14310
▁읽어서	-14311
▁읽을때	-14312
▁입어도	-14313
▁입으로	-14314
▁입장은	-14315
▁입학할	-14316
▁있겠니	-14317
▁있겠어	-14318
▁있는가	-14319
▁있다구	-14320
▁있어보	-14321
▁있어선	-14322
▁있음을	-14323
▁있지는	-14324
▁자간이	-14325
▁자격이	-14326
▁자괴감	-14327
▁자극을	-14328
▁자는게	-14329
▁자료는	-14330
▁자리만	-14331
▁자리에	-14332
▁자세가	-14333
▁자소서	-14334
▁자식이	-14335
▁자체의	-14336
▁작가의	-14337
▁작품은	-14338
▁작품이	-14339
▁잘못이	-14340
▁잠깐만	-14341
▁잠들어	-14342
▁잠이나	-14343
▁잡혀서	-14344
▁장례식	-14345
▁장소가	-14346
▁장소를	-14347
▁재건축	-14348
▁재도전	-14349
▁재수가	-14350
▁재수때	-14351
▁재수반	-14352
▁재시험	-14353
▁쟤네가	-14354
▁저가튼	-14355
▁저녁을	-14356
▁저러면	-14357
▁저만의	-14358
▁저만큼	-14359
▁저사람	-14360
▁저지른	-14361
▁적거나	-14362
▁적성에	-14363
▁적어둘	-14364
▁적어보	-14365
▁적용할	-14366
▁적으면	-14367
▁적으신	-14368
▁적응의	-14369
▁적응이	-14370
▁전공필	-14371
▁전달이	-14372
▁전략을	-14373
▁전망이	-14374
▁전보다	-14375
▁전시회	-14376
▁전자가	-14377
▁점수로	-14378
▁점수면	-14379
▁점수에	-14380
▁점심은	-14381
▁접근법	-14382
▁접하는	-14383
▁젓가락	-14384
▁정답에	-14385
▁정말로	-14386
▁정보가	-14387
▁정보만	-14388
▁정시도	-14389
▁정시라	-14390
▁정시랑	-14391
▁정신병	-14392
▁정의를	-14393
▁정책은	-14394
▁정책이	-14395
▁정하는	-14396
▁정한다	-14397
▁제각각	-14398
▁제목을	-14399
▁제시문	-14400
▁제한된	-14401
▁조건에	-14402
▁조명이	-14403
▁조별로	-14404
▁조사는	-14405
▁조사를	-14406
▁조선의	-14407
▁조언도	-14408
▁조언은	-14409
▁조언을	-14410
▁조은데	-14411
▁조합에	-14412
▁존재는	-14413
▁졸리면	-14414
▁졸린다	-14415
▁졸업생	-14416
▁졸업은	-14417
▁졸업장	-14418
▁졸업한	-14419
▁종이로	-14420
▁종이에	-14421
▁좋겠대	-14422
▁좋아지	-14423
▁좋아질	-14424
▁좋으실	-14425
▁좋은지	-14426
▁주까지	-14427
▁주머니	-14428
▁주면서	-14429
▁주부터	-14430
▁주시고	-14431
▁주위에	-14432
▁주인이	-14433
▁죽겠어	-14434
▁죽어도	-14435
▁죽어라	-14436
▁준비랑	-14437
▁준비중	-14438
▁줄글로	-14439
▁줄여주	-14440
▁줄이기	-14441
▁줄이랑	-14442
▁줄이야	-14443
▁줄임말	-14444
▁줄줄이	-14445
▁중간을	-14446
▁중국도	-14447
▁중대는	-14448
▁중대한	-14449
▁줘야지	-14450
▁지겨울	-14451
▁지구를	-14452
▁지나도	-14453
▁지리는	-14454
▁지방대	-14455
▁지방이	-14456
▁지우는	-14457
▁지원을	-14458
▁지원한	-14459
▁지치면	-14460
▁지치지	-14461
▁지키는	-14462
▁지키며	-14463
▁진학부	-14464
▁질문만	-14465
▁질병을	-14466
▁집단은	-14467
▁집중해	-14468
▁집착할	-14469
▁짜증나	-14470
▁짝사랑	-14471
▁쪽에서	-14472
▁찍어보	-14473
▁찍으신	-14474
▁찍은거	-14475
▁참고할	-14476
▁참석을	-14477
▁참여할	-14478
▁찾아뵙	-14479
▁채우면	-14480
▁채워서	-14481
▁책들을	-14482
▁책이나	-14483
▁책인데	-14484
▁책임을	-14485
▁처리를	-14486
▁처지가	-14487
▁처지는	-14488
▁철저히	-14489
▁철학을	-14490
▁체계가	-14491
▁체력은	-14492
▁체육관	-14493
▁초기화	-14494
▁초점을	-14495
▁초조한	-14496
▁최대로	-14497
▁최선인	-14498
▁최악의	-14499
▁추계예	-14500
▁추천할	-14501
▁출제위	-14502
▁충격이	-14503
▁취미냐	-14504
▁취지에	-14505
▁취해야	-14506
▁취향이	-14507
▁측면이	-14508
▁치대는	-14509
▁친구분	-14510
▁친구야	-14511
▁친목은	-14512
▁친해진	-14513
▁카이스	-14514
▁카페는	-14515
▁카페인	-14516
▁커피를	-14517
▁커피숍	-14518
▁컵라면	-14519
▁코딩도	-14520
▁크기와	-14521
▁크로플	-14522
▁크지가	-14523
▁클래스	-14524
▁클럽에	-14525
▁키보드	-14526
▁키우고	-14527
▁키워드	-14528
▁타격이	-14529
▁탈출할	-14530
▁탔는데	-14531
▁태도는	-14532
▁태어난	-14533
▁털어서	-14534
▁통증이	-14535
▁통째로	-14536
▁튀어나	-14537
▁트린것	-14538
▁특강에	-14539
▁특성이	-14540
▁특히나	-14541
▁팁이나	-14542
▁파상풍	-14543
▁파일로	-14544
▁파트가	-14545
▁패턴이	-14546
▁팩트는	-14547
▁퍼지면	-14548
▁편안한	-14549
▁편이다	-14550
▁편지를	-14551
▁평가를	-14552
▁평화롭	-14553
▁포기가	-14554
▁포기할	-14555
▁포도당	-14556
▁포스터	-14557
▁포토샵	-14558
▁폰으로	-14559
▁표시를	-14560
▁푸느라	-14561
▁푸는것	-14562
▁풀거나	-14563
▁풀라는	-14564
▁풀어져	-14565
▁풀었음	-14566
▁풀이나	-14567
▁풀이만	-14568
▁풀이에	-14569
▁프으로	-14570
▁플랭크	-14571
▁피곤해	-14572
▁피시방	-14573
▁피아노	-14574
▁필수로	-14575
▁필요도	-14576
▁필통이	-14577
▁핑계가	-14578
▁하강의	-14579
▁하거나	-14580
▁하기는	-14581
▁하기도	-14582
▁하기만	-14583
▁하나가	-14584
▁하나임	-14585
▁하나죠	-14586
▁하던거	-14587
▁하루는	-14588
▁하셔요	-14589
▁하셨어	-14590
▁하시되	-14591
▁하여튼	-14592
▁학과는	-14593
▁학과도	-14594
▁학교나	-14595
▁학교와	-14596
▁학벌의	-14597
▁학부생	-14598
▁학습법	-14599
▁학습을	-14600
▁학위를	-14601
▁학점을	-14602
▁한국의	-14603
▁한글을	-14604
▁한글자	-14605
▁한반도	-14606
▁한의예	-14607
▁한의원	-14608
▁한자를	-14609
▁한정된	-14610
▁할려고	-14611
▁합격한	-14612
▁합리화	-14613
▁해결법	-14614
▁해결해	-14615
▁해나가	-14616
▁해내실	-14617
▁해낸다	-14618
▁해놓는	-14619
▁해놨어	-14620
▁해보면	-14621
▁해봐요	-14622
▁해봤다	-14623
▁해봤자	-14624
▁해석에	-14625
▁해석은	-14626
▁햇구요	-14627
▁했던거	-14628
▁했어야	-14629
▁했었던	-14630
▁행동강	-14631
▁행동은	-14632
▁행복할	-14633
▁행사가	-14634
▁행위를	-14635
▁향기가	-14636
▁허락받	-14637
▁허락해	-14638
▁허리도	-14639
▁허수가	-14640
▁허용해	-14641
▁허접한	-14642
▁험하게	-14643
▁헛소리	-14644
▁헷갈릴	-14645
▁현실은	-14646
▁현실을	-14647
▁현재로	-14648
▁현재와	-14649
▁현재의	-14650
▁현저히	-14651
▁혈액형	-14652
▁혐오가	-14653
▁형님도	-14654
▁형태가	-14655
▁혜택을	-14656
▁혼자만	-14657
▁홀수형	-14658
▁화살표	-14659
▁화폐가	-14660
▁확답을	-14661
▁확률통	-14662
▁확신을	-14663
▁확인만	-14664
▁활동에	-14665
▁활동은	-14666
▁활성화	-14667
▁회계는	-14668
▁회계사	-14669
▁회독은	-14670
▁회사도	-14671
▁회사로	-14672
▁효과는	-14673
▁후기를	-14674
▁후배로	-14675
▁흐리지	-14676
▁흔들어	-14677
▁흔적이	-14678
▁흘려보	-14679
▁흥미는	-14680
▁흥미롭	-14681
▁흥선대	-14682
▁희망이	-14683
▁힐링도	-14684
▁힘내서	-14685
▁힘든지	-14686
▁힘들대	-14687
가지고요	-14688
가지구요	-14689
거같은데	-14690
것가타서	-14691
것이여요	-14692
급이라고	-14693
닝메이트	-14694
다고해서	-14695
다구생각	-14696
다는것도	-14697
대로라면	-14698
되어있는	-14699
드리려고	-14700
라기보단	-14701
러리에서	-14702
려주셔야	-14703
렸는데요	-14704
만으로는	-14705
모르겟어	-14706
목적으로	-14707
보이네요	-14708
봤습니디	-14709
삼각형의	-14710
생으로서	-14711
생이에요	-14712
셨겠네요	-14713
수강신청	-14714
수있어요	-14715
스러워요	-14716
시작해서	-14717
아닌가요	-14718
았습나다	-14719
으셨어요	-14720
으신가요	-14721
으십니다	-14722
을때부터	-14723
이라는건	-14724
이라니요	-14725
이라면서	-14726
이랍니다	-14727
이어서요	-14728
이었거든	-14729
이터에서	-14730
일지라도	-14731
자리에서	-14732
적이거나	-14733
적이어서	-14734
줬으면좋	-14735
지마세요	-14736
지안을까	-14737
하기보단	-14738
하기위해	-14739
하눈데요	-14740
하는거다	-14741
하는거임	-14742
하더라고	-14743
하드라구	-14744
하면서도	-14745
하셨군요	-14746
하셨다면	-14747
하시다면	-14748
하시더라	-14749
하신가요	-14750
하십니다	-14751
하자마자	-14752
하지말구	-14753
학교라고	-14754
한다는건	-14755
한다는게	-14756
해버리는	-14757
해보면서	-14758
해볼께요	-14759
해주시고	-14760
해지면서	-14761
▁가난했고	-14762
▁가는지는	-14763
▁가능성을	-14764
▁가능하고	-14765
▁가능하긴	-14766
▁가능하실	-14767
▁가능한거	-14768
▁가르치지	-14769
▁가르친다	-14770
▁가물가물	-14771
▁가전제품	-14772
▁가정하에	-14773
▁가족여행	-14774
▁간략하게	-14775
▁감독관이	-14776
▁감사하게	-14777
▁강아지도	-14778
▁강의라고	-14779
▁강조하는	-14780
▁같으니까	-14781
▁개개인의	-14782
▁개미들이	-14783
▁개인차가	-14784
▁거기에서	-14785
▁거북이가	-14786
▁걱정인데	-14787
▁건강보험	-14788
▁건드리지	-14789
▁건물주가	-14790
▁걸어두고	-14791
▁검사하고	-14792
▁검증받지	-14793
▁것인지를	-14794
▁겉으로는	-14795
▁게시물에	-14796
▁게시판이	-14797
▁견뎌내는	-14798
▁결정되기	-14799
▁겸손하게	-14800
▁경험들을	-14801
▁경험으로	-14802
▁경희대는	-14803
▁계신가요	-14804
▁계십니다	-14805
▁계집아이	-14806
▁계획적이	-14807
▁고구려가	-14808
▁고려하면	-14809
▁고려해서	-14810
▁고민하는	-14811
▁고양이는	-14812
▁공기업은	-14813
▁공무원은	-14814
▁공부법을	-14815
▁공부에서	-14816
▁공부지만	-14817
▁공부하게	-14818
▁공유하는	-14819
▁공지하는	-14820
▁공통과목	-14821
▁공통으로	-14822
▁과목이니	-14823
▁관리자도	-14824
▁광개토대	-14825
▁괜찮으실	-14826
▁괜찮은지	-14827
▁교과서가	-14828
▁교수한테	-14829
▁교실에서	-14830
▁교육청에	-14831
▁교육청은	-14832
▁교육학과	-14833
▁교재들은	-14834
▁구구절절	-14835
▁국내에서	-14836
▁국민학교	-14837
▁귀찮지만	-14838
▁그것보다	-14839
▁그날그날	-14840
▁그때부터	-14841
▁그래서요	-14842
▁그래프는	-14843
▁그랬거든	-14844
▁그러려니	-14845
▁그러세요	-14846
▁그러셨다	-14847
▁그렇군요	-14848
▁그렇더라	-14849
▁그만두고	-14850
▁그만둬야	-14851
▁극단적일	-14852
▁근본적인	-14853
▁글이네요	-14854
▁글이라는	-14855
▁기간에는	-14856
▁기니피그	-14857
▁기다리는	-14858
▁기대감에	-14859
▁기숙사는	-14860
▁기숙사도	-14861
▁기승전결	-14862
▁기억나서	-14863
▁기억난다	-14864
▁기억해요	-14865
▁기하급수	-14866
▁긴장감은	-14867
▁긴장감이	-14868
▁까다로울	-14869
▁깔짝거리	-14870
▁꼬박꼬박	-14871
▁끊임없이	-14872
▁끝나는데	-14873
▁끝났으면	-14874
▁끝내놓고	-14875
▁끝내는게	-14876
▁끝내자는	-14877
▁나가면서	-14878
▁나갔어요	-14879
▁나오기는	-14880
▁나오나요	-14881
▁나오는건	-14882
▁나오니까	-14883
▁나오면서	-14884
▁나왔다고	-14885
▁나한테는	-14886
▁날카로운	-14887
▁남들에게	-14888
▁남들처럼	-14889
▁남들한테	-14890
▁남아있던	-14891
▁내릴게요	-14892
▁내림차순	-14893
▁내신부터	-14894
▁내신에서	-14895
▁내신이랑	-14896
▁내용까지	-14897
▁내용들도	-14898
▁내용들이	-14899
▁내일부턴	-14900
▁넘어가면	-14901
▁넘어가요	-14902
▁넥타이가	-14903
▁노력하기	-14904
▁논문으로	-14905
▁놈이라고	-14906
▁높아지고	-14907
▁누구보다	-14908
▁눈치채신	-14909
▁뉴스에서	-14910
▁느껴서요	-14911
▁느껴져요	-14912
▁느끼기엔	-14913
▁느낍니다	-14914
▁늘리니까	-14915
▁늘어나는	-14916
▁늘어나서	-14917
▁늦게까지	-14918
▁다른가요	-14919
▁다른분들	-14920
▁다양하게	-14921
▁다음에는	-14922
▁다음으로	-14923
▁다이아몬	-14924
▁다중인격	-14925
▁단색으로	-14926
▁달라서요	-14927
▁달라져서	-14928
▁달성률이	-14929
▁답답해서	-14930
▁답일까요	-14931
▁당겨져서	-14932
▁당당하게	-14933
▁당사자가	-14934
▁대구시장	-14935
▁대단하다	-14936
▁대면으로	-14937
▁대충대충	-14938
▁대통령은	-14939
▁대통령이	-14940
▁대학원을	-14941
▁댓글이나	-14942
▁도로주행	-14943
▁도와주는	-14944
▁독서실을	-14945
▁독서에서	-14946
▁독해력이	-14947
▁돌려보고	-14948
▁돌렸는데	-14949
▁돌아가서	-14950
▁돌아가지	-14951
▁돌아다닐	-14952
▁동그라미	-14953
▁동기들도	-14954
▁동문으로	-14955
▁동아리장	-14956
▁되더라도	-14957
▁되셨나요	-14958
▁되셨는지	-14959
▁되셨다니	-14960
▁되신다면	-14961
▁되어서요	-14962
▁되어있는	-14963
▁된답니다	-14964
▁두렵네요	-14965
▁뒤지다가	-14966
▁뒹굴뒹굴	-14967
▁드는데요	-14968
▁듣는다고	-14969
▁듣는다는	-14970
▁들리는데	-14971
▁들쑥날쑥	-14972
▁들어봐서	-14973
▁들어오긴	-14974
▁들어왔어	-14975
▁들으셔도	-14976
▁등장하는	-14977
▁따져보고	-14978
▁딱이에요	-14979
▁때까지는	-14980
▁때문에요	-14981
▁떨어지고	-14982
▁똑같다고	-14983
▁똑같아요	-14984
▁똑같지만	-14985
▁뜻이에요	-14986
▁랜덤으로	-14987
▁로스쿨을	-14988
▁마무리를	-14989
▁마시면서	-14990
▁마주치는	-14991
▁만나기로	-14992
▁만나면서	-14993
▁만드는게	-14994
▁만들어낼	-14995
▁만들었다	-14996
▁만들지도	-14997
▁만만치가	-14998
▁만만하게	-14999
▁많아지는	-15000
▁말그대로	-15001
▁말끝마다	-15002
▁말씀이신	-15003
▁말씀하시	-15004
▁말씀해주	-15005
▁말하기가	-15006
▁맛있어요	-15007
▁맥락으로	-15008
▁머리속에	-15009
▁먹었더니	-15010
▁먼저라고	-15011
▁멋있네요	-15012
▁멋있어요	-15013
▁메디컬로	-15014
▁메리트가	-15015
▁멘탈관리	-15016
▁멘토님이	-15017
▁면접으로	-15018
▁명목으로	-15019
▁명성황후	-15020
▁모국어를	-15021
▁모아놓은	-15022
▁모집하는	-15023
▁목소리도	-15024
▁목적어를	-15025
▁목적이란	-15026
▁목적이면	-15027
▁목표인데	-15028
▁몰랐다가	-15029
▁못했다고	-15030
▁못했지만	-15031
▁무리하지	-15032
▁무시한다	-15033
▁무언가를	-15034
▁무음으로	-15035
▁무한으로	-15036
▁문장으로	-15037
▁문제지에	-15038
▁문제집의	-15039
▁문제풀고	-15040
▁문학에서	-15041
▁문학이랑	-15042
▁물구나무	-15043
▁물어바도	-15044
▁물어보면	-15045
▁물어보지	-15046
▁물어본다	-15047
▁물어봐요	-15048
▁미끄러진	-15049
▁미디어과	-15050
▁미디어도	-15051
▁미적보다	-15052
▁미적분에	-15053
▁미적분은	-15054
▁미적이든	-15055
▁미지수로	-15056
▁민사소송	-15057
▁믿습니다	-15058
▁바꾸거나	-15059
▁바꾼다고	-15060
▁바꿀게요	-15061
▁바꿨는데	-15062
▁바뀌면서	-15063
▁바라면서	-15064
▁바라보는	-15065
▁바리스타	-15066
▁바이올린	-15067
▁박사님이	-15068
▁반갑네요	-15069
▁받았는지	-15070
▁받으라고	-15071
▁받으셔야	-15072
▁밤새워서	-15073
▁방법이나	-15074
▁방학숙제	-15075
▁배웅하는	-15076
▁배치고사	-15077
▁버스에서	-15078
▁베이스로	-15079
▁변호사도	-15080
▁변호사를	-15081
▁별로라서	-15082
▁병행하는	-15083
▁병행하면	-15084
▁병행해서	-15085
▁병행해야	-15086
▁보고서로	-15087
▁보내주실	-15088
▁보냈는데	-15089
▁보려고요	-15090
▁보여줘야	-15091
▁보이라고	-15092
▁복습으로	-15093
▁본인들이	-15094
▁볼때마다	-15095
▁볼펜으로	-15096
▁봐가면서	-15097
▁봐주세요	-15098
▁부드러운	-15099
▁부들부들	-15100
▁부러워서	-15101
▁부분들도	-15102
▁부분들은	-15103
▁부분이랑	-15104
▁부정행위	-15105
▁부족한데	-15106
▁분석해야	-15107
▁불쌍하다	-15108
▁불쌍해지	-15109
▁불안감은	-15110
▁불안하냐	-15111
▁불안하지	-15112
▁불편하다	-15113
▁붙으니까	-15114
▁브레이크	-15115
▁블루투스	-15116
▁비교하게	-15117
▁비례해서	-15118
▁비문학은	-15119
▁비밀번호	-15120
▁비슷하긴	-15121
▁비슷하지	-15122
▁비슷한데	-15123
▁비판적인	-15124
▁비판하는	-15125
▁빅데이터	-15126
▁빠졌는데	-15127
▁빨리빨리	-15128
▁뿌듯함을	-15129
▁뿐이에요	-15130
▁사건들이	-15131
▁사고과정	-15132
▁사과하면	-15133
▁사는데요	-15134
▁사라져서	-15135
▁사람들만	-15136
▁사람들을	-15137
▁사람으로	-15138
▁사람인가	-15139
▁사람처럼	-15140
▁사랑하고	-15141
▁사범대와	-15142
▁사용하면	-15143
▁사이트는	-15144
▁사이트로	-15145
▁사진들이	-15146
▁사투리가	-15147
▁사회문화	-15148
▁사회복지	-15149
▁사회에서	-15150
▁사후적인	-15151
▁살아보고	-15152
▁삼수생이	-15153
▁상관없다	-15154
▁상담하러	-15155
▁상처받을	-15156
▁새벽까지	-15157
▁생각나는	-15158
▁생각대로	-15159
▁생각하게	-15160
▁생각하다	-15161
▁생각했다	-15162
▁생기나요	-15163
▁생기부가	-15164
▁생기부는	-15165
▁생깁니다	-15166
▁생소하면	-15167
▁생활기록	-15168
▁서강대는	-15169
▁서술형은	-15170
▁서울교육	-15171
▁서울대가	-15172
▁서울대도	-15173
▁서울대만	-15174
▁서점에서	-15175
▁선거인단	-15176
▁선물가격	-15177
▁선배님도	-15178
▁선배님들	-15179
▁선배님이	-15180
▁선배들이	-15181
▁선별해서	-15182
▁선생님과	-15183
▁선천면역	-15184
▁선택해야	-15185
▁선후배로	-15186
▁설렁설렁	-15187
▁설명되어	-15188
▁설명하기	-15189
▁성균관대	-15190
▁성장하고	-15191
▁성폭행한	-15192
▁세금으로	-15193
▁세상에는	-15194
▁세상에서	-15195
▁세수하고	-15196
▁소개하는	-15197
▁소소하게	-15198
▁소중함을	-15199
▁손가락을	-15200
▁솔직하게	-15201
▁수강해야	-15202
▁수면시간	-15203
▁수업내용	-15204
▁수업시간	-15205
▁수업에서	-15206
▁수업으로	-15207
▁수업인데	-15208
▁수업자료	-15209
▁수의대를	-15210
▁수정하면	-15211
▁수증기가	-15212
▁수학과는	-15213
▁수행평가	-15214
▁수험생은	-15215
▁스케줄표	-15216
▁스크립트	-15217
▁스토리가	-15218
▁습관들이	-15219
▁습득하는	-15220
▁시간나면	-15221
▁시간밖에	-15222
▁시간별로	-15223
▁시간분배	-15224
▁시간으로	-15225
▁시간이고	-15226
▁시간이나	-15227
▁시간인지	-15228
▁시끄러운	-15229
▁시대별로	-15230
▁시작하기	-15231
▁시작해요	-15232
▁시켜야지	-15233
▁시키니까	-15234
▁시험에는	-15235
▁시험지에	-15236
▁식당에서	-15237
▁식물인간	-15238
▁신청하는	-15239
▁신청해서	-15240
▁신촌에서	-15241
▁실력대로	-15242
▁실시하지	-15243
▁실전에서	-15244
▁싫어져요	-15245
▁심심하고	-15246
▁심심하면	-15247
▁심화해서	-15248
▁써주셔서	-15249
▁쓰던데요	-15250
▁씁쓸하긴	-15251
▁아날로그	-15252
▁아니겠지	-15253
▁아니예요	-15254
▁아름다운	-15255
▁아무래두	-15256
▁아무생각	-15257
▁아무쪼록	-15258
▁아쉬워요	-15259
▁아쉽게도	-15260
▁아이들이	-15261
▁아이러니	-15262
▁아침에만	-15263
▁아파트에	-15264
▁안나오는	-15265
▁안되겠다	-15266
▁안되니까	-15267
▁안되서요	-15268
▁안된다는	-15269
▁안보다가	-15270
▁안전거래	-15271
▁안전자산	-15272
▁않았으면	-15273
▁않으려면	-15274
▁않으면서	-15275
▁않으세요	-15276
▁알려주고	-15277
▁알아보고	-15278
▁알아보니	-15279
▁알아야지	-15280
▁알았으면	-15281
▁암기하고	-15282
▁앞으로는	-15283
▁애매해서	-15284
▁양극화가	-15285
▁양수여야	-15286
▁얘기했다	-15287
▁어긋나는	-15288
▁어느정두	-15289
▁어디까지	-15290
▁어디어디	-15291
▁어떡하면	-15292
▁어떡해요	-15293
▁어려우면	-15294
▁어려운게	-15295
▁어려움을	-15296
▁어려워도	-15297
▁어렵나요	-15298
▁어렵던데	-15299
▁어렵지만	-15300
▁어리석은	-15301
▁어울려요	-15302
▁어지러움	-15303
▁억울하지	-15304
▁언급하기	-15305
▁언급하는	-15306
▁언니처럼	-15307
▁언니한테	-15308
▁얼마든지	-15309
▁얼마전에	-15310
▁엄마들이	-15311
▁엄마아빠	-15312
▁엄밀하게	-15313
▁없으면서	-15314
▁에너지가	-15315
▁여기까지	-15316
▁여기에도	-15317
▁여자들은	-15318
▁여자들이	-15319
▁여행자를	-15320
▁연구하고	-15321
▁연구하는	-15322
▁연속적인	-15323
▁연습하고	-15324
▁연습해서	-15325
▁연예인을	-15326
▁열공클럽	-15327
▁열심히는	-15328
▁열역학이	-15329
▁영화감독	-15330
▁예민해서	-15331
▁오겠다고	-15332
▁오답정리	-15333
▁오답하는	-15334
▁오르겠지	-15335
▁오빠한테	-15336
▁오셨어요	-15337
▁오자마자	-15338
▁오픈소스	-15339
▁올라간다	-15340
▁올라오는	-15341
▁올려보고	-15342
▁올리는거	-15343
▁올리시는	-15344
▁올해에는	-15345
▁완료하고	-15346
▁완료하지	-15347
▁외래어를	-15348
▁우선으로	-15349
▁운동에너	-15350
▁움직이고	-15351
▁움직이는	-15352
▁웃으면서	-15353
▁원칙으로	-15354
▁위험한지	-15355
▁유니폼을	-15356
▁유사성을	-15357
▁유성온천	-15358
▁유용하게	-15359
▁유지하는	-15360
▁유창하게	-15361
▁유형이다	-15362
▁유흥업소	-15363
▁이곳저곳	-15364
▁이래저래	-15365
▁이렇게만	-15366
▁이미지임	-15367
▁이번년도	-15368
▁이번주에	-15369
▁이번학기	-15370
▁이쁘세요	-15371
▁이상하다	-15372
▁이슬점이	-15373
▁이야기도	-15374
▁이왕이면	-15375
▁이전에는	-15376
▁이정도로	-15377
▁이제서야	-15378
▁이해하면	-15379
▁인간관계	-15380
▁인강에서	-15381
▁인문논술	-15382
▁인생에서	-15383
▁인원수가	-15384
▁인정하기	-15385
▁인정하는	-15386
▁인정해요	-15387
▁인준서에	-15388
▁인지도가	-15389
▁인터뷰가	-15390
▁일반인은	-15391
▁일본어는	-15392
▁일어나게	-15393
▁일어나야	-15394
▁일주일만	-15395
▁읽어보는	-15396
▁읽어줘서	-15397
▁입력해서	-15398
▁입장이다	-15399
▁있겠어요	-15400
▁있긴한데	-15401
▁있더라도	-15402
▁있쓸까요	-15403
▁있어서요	-15404
▁있으므로	-15405
▁자극제가	-15406
▁자기에게	-15407
▁자료들이	-15408
▁자리에서	-15409
▁자본주의	-15410
▁자소서는	-15411
▁자신감과	-15412
▁자취하는	-15413
▁작가한테	-15414
▁작년보다	-15415
▁작년부터	-15416
▁작성하는	-15417
▁잘못한게	-15418
▁잘하셔서	-15419
▁잘하시면	-15420
▁잠잠해졌	-15421
▁잡생각이	-15422
▁잡혀서요	-15423
▁장바구니	-15424
▁재밌다고	-15425
▁재밌어보	-15426
▁재수종합	-15427
▁재수하셨	-15428
▁재작년에	-15429
▁저번부터	-15430
▁저한테는	-15431
▁저한테도	-15432
▁적극적인	-15433
▁적당히만	-15434
▁적습니다	-15435
▁적용되는	-15436
▁적으면서	-15437
▁전기정보	-15438
▁전자기기	-15439
▁전화번호	-15440
▁절제력이	-15441
▁점수로는	-15442
▁접하면서	-15443
▁정말정말	-15444
▁정보들을	-15445
▁정보통신	-15446
▁정석적인	-15447
▁정시로도	-15448
▁정식으로	-15449
▁정신과를	-15450
▁정신없고	-15451
▁정중하게	-15452
▁정해놓고	-15453
▁정해두고	-15454
▁정해졌어	-15455
▁정확도를	-15456
▁정확히는	-15457
▁제주도도	-15458
▁조은가요	-15459
▁조절해야	-15460
▁졸업논문	-15461
▁좋거든요	-15462
▁좋겠다고	-15463
▁좋겠다는	-15464
▁좋아하게	-15465
▁좋은가요	-15466
▁죄송한데	-15467
▁죄책감들	-15468
▁주말에는	-15469
▁주민번호	-15470
▁주시고요	-15471
▁주시다니	-15472
▁주십니다	-15473
▁주위에서	-15474
▁주인공의	-15475
▁죽더라도	-15476
▁준비하던	-15477
▁중간점검	-15478
▁중심으로	-15479
▁중심이고	-15480
▁중요하고	-15481
▁중요하단	-15482
▁중요한지	-15483
▁중요해서	-15484
▁중이예요	-15485
▁중학교떄	-15486
▁즐거움을	-15487
▁지경까지	-15488
▁지나가고	-15489
▁지났는데	-15490
▁지문으로	-15491
▁지방에서	-15492
▁지역에서	-15493
▁지역인재	-15494
▁지점들을	-15495
▁지점에서	-15496
▁직접적인	-15497
▁진단평가	-15498
▁진로하고	-15499
▁진심이라	-15500
▁질문들이	-15501
▁질문자가	-15502
▁질문하러	-15503
▁집중하기	-15504
▁집중하면	-15505
▁집중해도	-15506
▁집착하는	-15507
▁찍었더니	-15508
▁찢어지게	-15509
▁차곡차곡	-15510
▁차분해서	-15511
▁차이점이	-15512
▁찰떡같이	-15513
▁참여해서	-15514
▁창업기업	-15515
▁찾아보구	-15516
▁찾아보는	-15517
▁찾아본다	-15518
▁찾았어요	-15519
▁찾으려는	-15520
▁채우려면	-15521
▁챔피언스	-15522
▁처음이라	-15523
▁처음인데	-15524
▁철저하게	-15525
▁첫날부터	-15526
▁체계적인	-15527
▁체크해서	-15528
▁체화시킬	-15529
▁쳇바퀴를	-15530
▁쳐들어온	-15531
▁최고에요	-15532
▁최고예요	-15533
▁최저시급	-15534
▁추가모집	-15535
▁추가적인	-15536
▁추세이다	-15537
▁추스르고	-15538
▁충격적이	-15539
▁충분해요	-15540
▁취업하는	-15541
▁측면에서	-15542
▁친구들을	-15543
▁친구이다	-15544
▁친절하게	-15545
▁친해지고	-15546
▁침착하게	-15547
▁카페에서	-15548
▁캠퍼스는	-15549
▁컨텐츠는	-15550
▁컴퓨터가	-15551
▁케이스가	-15552
▁코로나라	-15553
▁코로나로	-15554
▁큰일이야	-15555
▁탈퇴하고	-15556
▁토론하고	-15557
▁토론하는	-15558
▁통합역사	-15559
▁투자하는	-15560
▁트라우마	-15561
▁틀리거나	-15562
▁티켓팅을	-15563
▁파악하기	-15564
▁파악하는	-15565
▁파악해서	-15566
▁판단하고	-15567
▁페이지를	-15568
▁편인가요	-15569
▁평가원의	-15570
▁평형수를	-15571
▁폐쇄하고	-15572
▁폭행했대	-15573
▁풀기에는	-15574
▁풀리는데	-15575
▁풀어본다	-15576
▁프랑스어	-15577
▁프로필에	-15578
▁플라스틱	-15579
▁플래너는	-15580
▁피곤하면	-15581
▁피상적인	-15582
▁피타고라	-15583
▁필기하는	-15584
▁필요하면	-15585
▁필요하지	-15586
▁하겠는데	-15587
▁하나님의	-15588
▁하나님이	-15589
▁하는건지	-15590
▁하다못해	-15591
▁하다보니	-15592
▁하드라구	-15593
▁하드웨어	-15594
▁하루라도	-15595
▁하반기에	-15596
▁하시는거	-15597
▁하시는데	-15598
▁하시니까	-15599
▁하지말고	-15600
▁학교까지	-15601
▁학교이고	-15602
▁학부모가	-15603
▁학원에선	-15604
▁학원이랑	-15605
▁한국으로	-15606
▁한다는데	-15607
▁한다던가	-15608
▁한다면서	-15609
▁한달동안	-15610
▁한동안은	-15611
▁한문제에	-15612
▁한심하게	-15613
▁한의대는	-15614
▁한의대로	-15615
▁할수있는	-15616
▁해당사항	-15617
▁해당하는	-15618
▁해보시면	-15619
▁해봤어요	-15620
▁해서라도	-15621
▁해석하고	-15622
▁해외여행	-15623
▁해주시니	-15624
▁해준다고	-15625
▁핸드폰만	-15626
▁햇는데요	-15627
▁행동영역	-15628
▁행복하게	-15629
▁행복하다	-15630
▁허겁지겁	-15631
▁헷갈리고	-15632
▁현실에서	-15633
▁현역들은	-15634
▁형평성에	-15635
▁홈스테이	-15636
▁화난다고	-15637
▁화장실이	-15638
▁확진자는	-15639
▁활발하게	-15640
▁활용하지	-15641
▁횡설수설	-15642
▁효율성이	-15643
▁효율적이	-15644
▁휩쓸리지	-15645
▁흘러가는	-15646
▁힘드니까	-15647
▁힘들까요	-15648
▁힘들어지	-15649
거가타서요	-15650
거가튼데요	-15651
거같습니다	-15652
봐야겠네요	-15653
어버렸어요	-15654
으면좋겟어	-15655
해야하나요	-15656
해야하는대	-15657
해야하는지	-15658
▁가까워지고	-15659
▁가르치시는	-15660
▁가보자고요	-15661
▁간접적으로	-15662
▁개인적으론	-15663
▁거더라고요	-15664
▁걱정되네요	-15665
▁걱정했는데	-15666
▁검색하시면	-15667
▁겨울방학떄	-15668
▁결정적으로	-15669
▁계집아이가	-15670
▁고등학교가	-15671
▁고등학교에	-15672
▁고등학생은	-15673
▁고전시가를	-15674
▁고전시가만	-15675
▁곳이랍니다	-15676
▁공부용으로	-15677
▁공부하는거	-15678
▁공부하는대	-15679
▁공부하셔야	-15680
▁공부할게요	-15681
▁공부합니다	-15682
▁공부해보고	-15683
▁공부해야지	-15684
▁관련해서는	-15685
▁관리자에게	-15686
▁괜찮으시면	-15687
▁괜찮잖아요	-15688
▁교수님들은	-15689
▁교육이라서	-15690
▁국가장학금	-15691
▁국제캠퍼스	-15692
▁굴러다니는	-15693
▁그런식으로	-15694
▁그렇게까지	-15695
▁기계적으로	-15696
▁기대할게요	-15697
▁기본이어서	-15698
▁기억합니다	-15699
▁기원합니다	-15700
▁기출문제가	-15701
▁기출분석은	-15702
▁끝나자마자	-15703
▁나오니까요	-15704
▁나오셨는지	-15705
▁나오자마자	-15706
▁나왔습니다	-15707
▁남겨주시면	-15708
▁남았으니까	-15709
▁내향적이라	-15710
▁너머가는게	-15711
▁넥타이처럼	-15712
▁노력하시는	-15713
▁노력하시면	-15714
▁노력했어요	-15715
▁느껴졌어요	-15716
▁느낌보다는	-15717
▁느낌입니다	-15718
▁늘더라고요	-15719
▁다뤄볼게요	-15720
▁다음날부터	-15721
▁다음번에는	-15722
▁다음부터는	-15723
▁다행이내요	-15724
▁다행이네요	-15725
▁다행이라고	-15726
▁달아주세요	-15727
▁대단하다고	-15728
▁대단하셔요	-15729
▁대학생활을	-15730
▁독학용으로	-15731
▁돌아다녀서	-15732
▁동기부여가	-15733
▁동아리에서	-15734
▁되도록이면	-15735
▁드라마틱한	-15736
▁들어맞아서	-15737
▁들어보시고	-15738
▁들어옵니다	-15739
▁들어왔는데	-15740
▁디테일하게	-15741
▁따름이에요	-15742
▁때문이에요	-15743
▁떠올리면서	-15744
▁떨어지네요	-15745
▁뜻이었어요	-15746
▁롱패딩으로	-15747
▁마스터되면	-15748
▁마스터한테	-15749
▁마음속으로	-15750
▁마음이에요	-15751
▁마지막에는	-15752
▁만들어놓고	-15753
▁만들었어요	-15754
▁많아지네요	-15755
▁말씀드리기	-15756
▁말씀해주실	-15757
▁먹었었는데	-15758
▁모르겟어요	-15759
▁모의고사나	-15760
▁모의고사로	-15761
▁못하겠네요	-15762
▁못했거든요	-15763
▁못했지만요	-15764
▁무엇인가요	-15765
▁문제집들을	-15766
▁물어보면서	-15767
▁미안하다고	-15768
▁바뀌는데요	-15769
▁바이러스가	-15770
▁바이오주는	-15771
▁받아들이는	-15772
▁받으셨나요	-15773
▁받으셨는지	-15774
▁방구석에서	-15775
▁버텼습니다	-15776
▁부담스러우	-15777
▁부탁드려도	-15778
▁불안합니다	-15779
▁불안해하지	-15780
▁불쾌하네요	-15781
▁사람이라고	-15782
▁사랑스러운	-15783
▁삭제할게요	-15784
▁삼수생인데	-15785
▁삼았습니다	-15786
▁상대습도가	-15787
▁상반기에는	-15788
▁상식적으로	-15789
▁생각보다는	-15790
▁생각하거든	-15791
▁생각햇는데	-15792
▁생각햇어요	-15793
▁생각했거든	-15794
▁생명과학은	-15795
▁생명과학의	-15796
▁생명과학이	-15797
▁서강대에서	-15798
▁선배님처럼	-15799
▁선택과목을	-15800
▁선택과목이	-15801
▁선택적으로	-15802
▁선택하는게	-15803
▁설명하셨던	-15804
▁성공하시길	-15805
▁성적이에요	-15806
▁수능날까지	-15807
▁수능떄까지	-15808
▁수능이라는	-15809
▁수두룩하게	-15810
▁수리논술을	-15811
▁스트레스가	-15812
▁스트레스는	-15813
▁스트레스도	-15814
▁습관적으로	-15815
▁시작하셔도	-15816
▁신입생이면	-15817
▁심신상실은	-15818
▁심화시키는	-15819
▁심화적으로	-15820
▁아니거든요	-15821
▁아무렇게나	-15822
▁아보카도가	-15823
▁아쉬웠어요	-15824
▁아이디어는	-15825
▁아이스크림	-15826
▁아직까지도	-15827
▁안되겠으면	-15828
▁안정적으로	-15829
▁안정적인데	-15830
▁않겠습니까	-15831
▁알아보시면	-15832
▁애니메이션	-15833
▁어떠셨는지	-15834
▁어떠신가요	-15835
▁어려울까요	-15836
▁어릴때부터	-15837
▁억지로라도	-15838
▁없으셨나요	-15839
▁여자친구가	-15840
▁연습용으로	-15841
▁열공하세요	-15842
▁영상입니다	-15843
▁오답노트가	-15844
▁오답노트는	-15845
▁오답노트를	-15846
▁오래걸린다	-15847
▁온라인으로	-15848
▁올라와서는	-15849
▁올려보도록	-15850
▁올려주셔서	-15851
▁올려주시는	-15852
▁외웠습니다	-15853
▁원심분리기	-15854
▁월요일부터	-15855
▁유용합니다	-15856
▁의도였어요	-15857
▁의미일까요	-15858
▁의식적으로	-15859
▁이렇게까지	-15860
▁이렇게라도	-15861
▁이만저만이	-15862
▁이야기하면	-15863
▁이야기해야	-15864
▁이해되네요	-15865
▁익혔습니다	-15866
▁인종차별이	-15867
▁일반인들이	-15868
▁일반적으로	-15869
▁일어났는데	-15870
▁읽었습니다	-15871
▁있으셨다면	-15872
▁있을겁니다	-15873
▁자신감으로	-15874
▁잘하셨나요	-15875
▁잠잠해지면	-15876
▁장가계에서	-15877
▁장기적으로	-15878
▁재미있었던	-15879
▁재수합니다	-15880
▁적극적으로	-15881
▁적어주세요	-15882
▁적용되는지	-15883
▁전문가들이	-15884
▁정리했어요	-15885
▁정신적으로	-15886
▁정신차리고	-15887
▁조교선생님	-15888
▁조심스럽게	-15889
▁존경스러울	-15890
▁존재한다는	-15891
▁좋아한다면	-15892
▁좋아했는데	-15893
▁좋을겁니다	-15894
▁좋을듯해요	-15895
▁죄송하네요	-15896
▁죄송하지만	-15897
▁준비하세요	-15898
▁준비해야죠	-15899
▁중간고사가	-15900
▁중간고사를	-15901
▁중이었어요	-15902
▁중학교에서	-15903
▁지구과학도	-15904
▁지금이라도	-15905
▁지나가면서	-15906
▁지나가시면	-15907
▁지리교육과	-15908
▁직관적으로	-15909
▁진학부장님	-15910
▁진행되는지	-15911
▁질문인데요	-15912
▁참고하시고	-15913
▁찾아보세요	-15914
▁찾아봐야지	-15915
▁찾아봤는데	-15916
▁체화한다고	-15917
▁초등교육과	-15918
▁최종적으로	-15919
▁추가적으로	-15920
▁추가하거나	-15921
▁추천드리지	-15922
▁추천입니다	-15923
▁추쳔합니다	-15924
▁친구들한테	-15925
▁칼럼이에요	-15926
▁커리큘럼을	-15927
▁투자하는게	-15928
▁투자하세요	-15929
▁특이하게도	-15930
▁퍼텐셜에너	-15931
▁표지판이랑	-15932
▁풀어보는게	-15933
▁풀어보시길	-15934
▁풀어볼게요	-15935
▁풀었습니디	-15936
▁풀이과정이	-15937
▁프로그램이	-15938
▁피타고라스	-15939
▁하루하루를	-15940
▁학과입니다	-15941
▁학교에서나	-15942
▁한국인이라	-15943
▁한정적이라	-15944
▁해보려고요	-15945
▁해야하는대	-15946
▁해야합니다	-15947
▁현실에서는	-15948
▁현역들에게	-15949
▁확진자들이	-15950
드리겠습니다	-15951
▁가능하셨나요	-15952
▁개인적으로는	-15953
▁걱정해주셔서	-15954
▁겨울방학부터	-15955
▁공부하는지에	-15956
▁괜찮더라고요	-15957
▁궁금해지네요	-15958
▁그러더라구요	-15959
▁기다려주세요	-15960
▁다르더라고요	-15961
▁답변드릴게요	-15962
▁대처하셨는지	-15963
▁돌아다니면서	-15964
▁마스터분께서	-15965
▁마스터분들이	-15966
▁멋있더라고요	-15967
▁문제없을까요	-15968
▁부담스러워서	-15969
▁불편하시다면	-15970
▁생각중입니다	-15971
▁생각해보니까	-15972
▁선생님한테도	-15973
▁설명하시네요	-15974
▁수험생활에서	-15975
▁안되더라고요	-15976
▁않았었겠지만	-15977
▁알고있습니다	-15978
▁어느정도인지	-15979
▁어렵더라고요	-15980
▁어렵더라구요	-15981
▁어렸을때부터	-15982
▁어지간해서는	-15983
▁연예인이라는	-15984
▁올려봤습니다	-15985
▁우리나라에서	-15986
▁이쁘더라고요	-15987
▁즐거웠습니다	-15988
▁지금부터라도	-15989
▁커리큘럼이면	-15990
▁코로나때문에	-15991
▁판단하시나요	-15992
▁풀리더라고요	-15993
▁공부해야겠다는	-15994
▁기하급수적으로	-15995
▁떨어지더라고요	-15996
▁라이브러리에서	-15997
▁서울교육대학교	-15998
▁올려보겠습니다	-15999
▁코로나바이러스	-16000
▁.	-16001
▁김	-16002
▁깁	-16003
▁깍	-16004
▁꿇	-16005
▁녀	-16006
▁닿	-16007
▁댈	-16008
▁댕	-16009
▁덩	-16010
▁득	-16011
▁듬	-16012
▁땡	-16013
▁뗐	-16014
▁뜰	-16015
▁맏	-16016
▁맬	-16017
▁멜	-16018
▁믈	-16019
▁뱃	-16020
▁뵀	-16021
▁빙	-16022
▁빳	-16023
▁샌	-16024
▁셈	-16025
▁슥	-16026
▁씀	-16027
▁앓	-16028
▁았	-16029
▁욱	-16030
▁읺	-16031
▁잼	-16032
▁줌	-16033
▁줏	-16034
▁짰	-16035
▁째	-16036
▁찎	-16037
▁챈	-16038
▁퐈	-16039
▁힙	-16040
가며	-16041
가장	-16042
간당	-16043
간애	-16044
감고	-16045
감염	-16046
강을	-16047
갖고	-16048
갖구	-16049
갗아	-16050
같애	-16051
개도	-16052
개미	-16053
개한	-16054
거능	-16055
건강	-16056
걸랑	-16057
것다	-16058
것들	-16059
게임	-16060
겟대	-16061
겠죵	-16062
겨우	-16063
견에	-16064
경기	-16065
계신	-16066
고냥	-16067
고런	-16068
고민	-16069
고의	-16070
공정	-16071
공항	-16072
교양	-16073
구사	-16074
구조	-16075
국문	-16076
군데	-16077
근처	-16078
기기	-16079
기다	-16080
기븐	-16081
기와	-16082
기운	-16083
길에	-16084
까먹	-16085
꺼다	-16086
끝난	-16087
나갈	-16088
나두	-16089
나를	-16090
나올	-16091
난거	-16092
난리	-16093
날은	-16094
났다	-16095
냐는	-16096
냐에	-16097
넣고	-16098
넣기	-16099
녜요	-16100
노은	-16101
놈들	-16102
누군	-16103
누워	-16104
는뎅	-16105
늙은	-16106
니도	-16107
니스	-16108
다네	-16109
다녔	-16110
단에	-16111
담에	-16112
담을	-16113
당할	-16114
대루	-16115
대상	-16116
대표	-16117
댓값	-16118
도화	-16119
독해	-16120
돈은	-16121
동을	-16122
동이	-16123
돼게	-16124
되나	-16125
될수	-16126
두구	-16127
드가	-16128
들두	-16129
딩때	-16130
때매	-16131
때쯤	-16132
떄요	-16133
떠케	-16134
락에	-16135
란이	-16136
람은	-16137
랬다	-16138
랴나	-16139
러도	-16140
로가	-16141
롭지	-16142
루묵	-16143
르실	-16144
르지	-16145
리러	-16146
린단	-16147
린데	-16148
마나	-16149
마네	-16150
말만	-16151
말슴	-16152
말은	-16153
말자	-16154
맛에	-16155
맛이	-16156
맞나	-16157
맞추	-16158
맞춘	-16159
머신	-16160
먹나	-16161
먹여	-16162
멘트	-16163
명도	-16164
모른	-16165
모자	-16166
몸이	-16167
무시	-16168
문서	-16169
문장	-16170
미리	-16171
미치	-16172
믿고	-16173
바두	-16174
바루	-16175
바탕	-16176
박게	-16177
밥을	-16178
버튼	-16179
범주	-16180
법과	-16181
법의	-16182
보긴	-16183
보며	-16184
보여	-16185
보충	-16186
보통	-16187
보호	-16188
볼게	-16189
볼떄	-16190
봉지	-16191
봤던	-16192
부랴	-16193
분화	-16194
븐위	-16195
비만	-16196
비용	-16197
빠른	-16198
빢게	-16199
사기	-16200
사일	-16201
사정	-16202
사태	-16203
산맥	-16204
살아	-16205
삼아	-16206
상승	-16207
새가	-16208
새끼	-16209
색도	-16210
생겻	-16211
생긴	-16212
생물	-16213
생의	-16214
서류	-16215
선언	-16216
설을	-16217
설이	-16218
성공	-16219
성한	-16220
세게	-16221
셨음	-16222
소가	-16223
소개	-16224
소는	-16225
수영	-16226
쉬고	-16227
스도	-16228
스업	-16229
스코	-16230
습관	-16231
시긴	-16232
시닷	-16233
시설	-16234
시업	-16235
시절	-16236
시청	-16237
시픈	-16238
시행	-16239
신것	-16240
신경	-16241
신고	-16242
신듯	-16243
실이	-16244
실한	-16245
십분	-16246
십셔	-16247
써주	-16248
쓸때	-16249
씨미	-16250
씩만	-16251
아녀	-16252
아무	-16253
악필	-16254
안부	-16255
안한	-16256
알구	-16257
았나	-16258
았음	-16259
애도	-16260
약간	-16261
어어	-16262
어쩌	-16263
어찌	-16264
언이	-16265
에한	-16266
엔에	-16267
여름	-16268
여부	-16269
여자	-16270
연을	-16271
오른	-16272
오를	-16273
와라	-16274
완료	-16275
왔지	-16276
욕이	-16277
용도	-16278
용은	-16279
우니	-16280
유명	-16281
유형	-16282
은게	-16283
은행	-16284
음료	-16285
의도	-16286
의어	-16287
의학	-16288
이건	-16289
이더	-16290
이용	-16291
이잇	-16292
인권	-16293
인사	-16294
인생	-16295
인인	-16296
인정	-16297
일거	-16298
일본	-16299
일에	-16300
일으	-16301
일찍	-16302
임다	-16303
입국	-16304
입어	-16305
입학	-16306
잇나	-16307
자만	-16308
자유	-16309
잘것	-16310
장소	-16311
장한	-16312
재밌	-16313
재생	-16314
재에	-16315
저도	-16316
저요	-16317
적어	-16318
적응	-16319
전날	-16320
전문	-16321
전부	-16322
전이	-16323
전자	-16324
전화	-16325
점점	-16326
정답	-16327
제나	-16328
제랑	-16329
조가	-16330
조교	-16331
조정	-16332
졸업	-16333
좋게	-16334
죄야	-16335
주를	-16336
주무	-16337
중립	-16338
즈를	-16339
지나	-16340
진단	-16341
진찌	-16342
집은	-16343
쯤은	-16344
찍고	-16345
차로	-16346
차에	-16347
찾아	-16348
찾았	-16349
챙기	-16350
처음	-16351
출제	-16352
치대	-16353
치라	-16354
친거	-16355
친밀	-16356
타구	-16357
태우	-16358
투자	-16359
트도	-16360
파요	-16361
판일	-16362
판정	-16363
표를	-16364
풀때	-16365
프다	-16366
프로	-16367
플레	-16368
필통	-16369
하가	-16370
하래	-16371
하튼	-16372
학언	-16373
할께	-16374
할뻔	-16375
할아	-16376
함다	-16377
해를	-16378
해바	-16379
해온	-16380
해할	-16381
햇고	-16382
햇나	-16383
했구	-16384
했냐	-16385
했단	-16386
행정	-16387
헐때	-16388
혐오	-16389
혔어	-16390
호흡	-16391
화할	-16392
확인	-16393
황이	-16394
회를	-16395
히구	-16396
,,,	-16397
▁가겠	-16398
▁가공	-16399
▁가든	-16400
▁가스	-16401
▁가시	-16402
▁간당	-16403
▁갈지	-16404
▁감도	-16405
▁감시	-16406
▁갔지	-16407
▁강대	-16408
▁갖구	-16409
▁갗은	-16410
▁같구	-16411
▁개도	-16412
▁개만	-16413
▁거실	-16414
▁거일	-16415
▁걸루	-16416
▁걸지	-16417
▁것뿐	-16418
▁겪는	-16419
▁겹칠	-16420
▁계셨	-16421
▁계수	-16422
▁고속	-16423
▁곰팡	-16424
▁과가	-16425
▁과로	-16426
▁과일	-16427
▁과재	-16428
▁관형	-16429
▁광둥	-16430
▁구런	-16431
▁국문	-16432
▁국채	-16433
▁균형	-16434
▁그땐	-16435
▁극어	-16436
▁글렀	-16437
▁글쓴	-16438
▁금기	-16439
▁기븐	-16440
▁기쁜	-16441
▁기운	-16442
▁기재	-16443
▁기죽	-16444
▁기츨	-16445
▁길다	-16446
▁깨는	-16447
▁깨진	-16448
▁꼴이	-16449
▁꿈은	-16450
▁끗내	-16451
▁끝도	-16452
▁끝이	-16453
▁나발	-16454
▁나실	-16455
▁날도	-16456
▁날인	-16457
▁낫긴	-16458
▁낫은	-16459
▁났음	-16460
▁낮에	-16461
▁내담	-16462
▁내도	-16463
▁내지	-16464
▁너랑	-16465
▁넘을	-16466
▁넘쳐	-16467
▁논의	-16468
▁놈들	-16469
▁놓구	-16470
▁놓는	-16471
▁누규	-16472
▁눈초	-16473
▁늘었	-16474
▁늦어	-16475
▁니랑	-16476
▁니일	-16477
▁다님	-16478
▁다룰	-16479
▁다방	-16480
▁달구	-16481
▁달았	-16482
▁담을	-16483
▁당할	-16484
▁대조	-16485
▁데다	-16486
▁데도	-16487
▁데랴	-16488
▁데에	-16489
▁도가	-16490
▁도선	-16491
▁돌린	-16492
▁돌릴	-16493
▁동거	-16494
▁됐든	-16495
▁되진	-16496
▁두근	-16497
▁두는	-16498
▁두명	-16499
▁두배	-16500
▁드신	-16501
▁듣다	-16502
▁들구	-16503
▁들낙	-16504
▁들락	-16505
▁따는	-16506
▁따도	-16507
▁따러	-16508
▁따면	-16509
▁땅을	-16510
▁때의	-16511
▁때쯤	-16512
▁떄가	-16513
▁뚫린	-16514
▁로고	-16515
▁로비	-16516
▁마싯	-16517
▁막기	-16518
▁막연	-16519
▁막힌	-16520
▁많게	-16521
▁말라	-16522
▁말랐	-16523
▁말래	-16524
▁말려	-16525
▁말슴	-16526
▁말했	-16527
▁맘이	-16528
▁맘편	-16529
▁맛보	-16530
▁맛집	-16531
▁망칠	-16532
▁매달	-16533
▁매수	-16534
▁맹신	-16535
▁머라	-16536
▁머무	-16537
▁머신	-16538
▁머쓱	-16539
▁먹게	-16540
▁먹여	-16541
▁먼일	-16542
▁멋져	-16543
▁명도	-16544
▁명은	-16545
▁몇명	-16546
▁모으	-16547
▁모임	-16548
▁목매	-16549
▁몹시	-16550
▁못갈	-16551
▁못자	-16552
▁못잡	-16553
▁못플	-16554
▁문잔	-16555
▁묻고	-16556
▁뭐죠	-16557
▁믈론	-16558
▁미뤘	-16559
▁민폐	-16560
▁바다	-16561
▁바야	-16562
▁바엔	-16563
▁반장	-16564
▁발닦	-16565
▁발렌	-16566
▁밟고	-16567
▁방을	-16568
▁백점	-16569
▁법과	-16570
▁법원	-16571
▁법은	-16572
▁벼랑	-16573
▁별말	-16574
▁보네	-16575
▁보행	-16576
▁복지	-16577
▁본건	-16578
▁볼게	-16579
▁볼수	-16580
▁봐두	-16581
▁봐라	-16582
▁봐줄	-16583
▁봤죠	-16584
▁부여	-16585
▁부의	-16586
▁부하	-16587
▁분께	-16588
▁분배	-16589
▁분열	-16590
▁분의	-16591
▁분장	-16592
▁불고	-16593
▁붙었	-16594
▁붙을	-16595
▁붙이	-16596
▁븐야	-16597
▁비결	-16598
▁비난	-16599
▁비유	-16600
▁비즈	-16601
▁빼구	-16602
▁뻗어	-16603
▁사나	-16604
▁사다	-16605
▁사지	-16606
▁살구	-16607
▁색이	-16608
▁서면	-16609
▁서정	-16610
▁세개	-16611
▁세기	-16612
▁세는	-16613
▁세력	-16614
▁세미	-16615
▁세뱃	-16616
▁세벳	-16617
▁세세	-16618
▁셋이	-16619
▁소원	-16620
▁소음	-16621
▁소장	-16622
▁소통	-16623
▁속의	-16624
▁속인	-16625
▁솔찍	-16626
▁수원	-16627
▁수치	-16628
▁순진	-16629
▁술마	-16630
▁스승	-16631
▁슬펐	-16632
▁승부	-16633
▁시달	-16634
▁시러	-16635
▁시력	-16636
▁시선	-16637
▁시시	-16638
▁시장	-16639
▁시전	-16640
▁시점	-16641
▁시중	-16642
▁식의	-16643
▁신념	-16644
▁실명	-16645
▁실쩐	-16646
▁심해	-16647
▁싱태	-16648
▁쌓인	-16649
▁써봤	-16650
▁써진	-16651
▁썰은	-16652
▁씻는	-16653
▁아닙	-16654
▁아웃	-16655
▁아픔	-16656
▁악화	-16657
▁안갈	-16658
▁안계	-16659
▁안구	-16660
▁안꺼	-16661
▁안놀	-16662
▁안늘	-16663
▁안됀	-16664
▁안뜨	-16665
▁안볼	-16666
▁안붙	-16667
▁안지	-16668
▁안챙	-16669
▁안쳐	-16670
▁않가	-16671
▁않구	-16672
▁않앗	-16673
▁애랑	-16674
▁애인	-16675
▁어던	-16676
▁어젯	-16677
▁업씨	-16678
▁없니	-16679
▁없대	-16680
▁없엇	-16681
▁여건	-16682
▁여부	-16683
▁여튼	-16684
▁열지	-16685
▁영단	-16686
▁영문	-16687
▁예배	-16688
▁오긴	-16689
▁오니	-16690
▁오버	-16691
▁오셨	-16692
▁오지	-16693
▁온도	-16694
▁왔지	-16695
▁왜군	-16696
▁요거	-16697
▁요기	-16698
▁요로	-16699
▁용기	-16700
▁우는	-16701
▁욱여	-16702
▁운행	-16703
▁웃고	-16704
▁원전	-16705
▁월쯤	-16706
▁위조	-16707
▁유배	-16708
▁육사	-16709
▁융합	-16710
▁의학	-16711
▁이니	-16712
▁이세	-16713
▁이악	-16714
▁이자	-16715
▁이주	-16716
▁인력	-16717
▁인류	-16718
▁인재	-16719
▁인제	-16720
▁일로	-16721
▁일만	-16722
▁입덕	-16723
▁입소	-16724
▁잇음	-16725
▁있길	-16726
▁자로	-16727
▁자자	-16728
▁작아	-16729
▁잘가	-16730
▁잘따	-16731
▁잘몰	-16732
▁잘받	-16733
▁잘본	-16734
▁잠겨	-16735
▁잠옷	-16736
▁잡았	-16737
▁잡힐	-16738
▁장은	-16739
▁재료	-16740
▁재생	-16741
▁재정	-16742
▁재출	-16743
▁쟤가	-16744
▁저라	-16745
▁적도	-16746
▁적음	-16747
▁적지	-16748
▁전신	-16749
▁전용	-16750
▁전을	-16751
▁전쯤	-16752
▁전통	-16753
▁점도	-16754
▁정돈	-16755
▁정한	-16756
▁정화	-16757
▁제기	-16758
▁제빵	-16759
▁제조	-16760
▁젤리	-16761
▁조지	-16762
▁조하	-16763
▁좀만	-16764
▁좋겟	-16765
▁좋구	-16766
▁좋나	-16767
▁죄야	-16768
▁죠금	-16769
▁주글	-16770
▁죽인	-16771
▁줄고	-16772
▁중애	-16773
▁중엔	-16774
▁줘요	-16775
▁줬어	-16776
▁쥐어	-16777
▁즉시	-16778
▁증원	-16779
▁지를	-16780
▁지불	-16781
▁직무	-16782
▁질렸	-16783
▁질이	-16784
▁집도	-16785
▁짜야	-16786
▁쪽을	-16787
▁쪽인	-16788
▁쫌만	-16789
▁찍음	-16790
▁찍히	-16791
▁차트	-16792
▁참구	-16793
▁챈겨	-16794
▁챙긴	-16795
▁처럼	-16796
▁척도	-16797
▁첨엔	-16798
▁첫문	-16799
▁쳐야	-16800
▁초중	-16801
▁최구	-16802
▁축에	-16803
▁충고	-16804
▁취한	-16805
▁치신	-16806
▁칠한	-16807
▁코너	-16808
▁퀴즈	-16809
▁크레	-16810
▁클래	-16811
▁키울	-16812
▁타는	-16813
▁탈락	-16814
▁탈탈	-16815
▁태도	-16816
▁탭에	-16817
▁탱자	-16818
▁털어	-16819
▁테이	-16820
▁토욜	-16821
▁통신	-16822
▁통암	-16823
▁툴린	-16824
▁트신	-16825
▁틀이	-16826
▁티비	-16827
▁파생	-16828
▁편을	-16829
▁폰을	-16830
▁표는	-16831
▁풀까	-16832
▁풀수	-16833
▁풋살	-16834
▁프사	-16835
▁한단	-16836
▁한말	-16837
▁함구	-16838
▁합류	-16839
▁합법	-16840
▁해낸	-16841
▁해바	-16842
▁해사	-16843
▁해수	-16844
▁해줄	-16845
▁해체	-16846
▁했죠	-16847
▁헤깔	-16848
▁현상	-16849
▁호흡	-16850
▁홀수	-16851
▁훑고	-16852
▁흘리	-16853
가능해	-16854
가세요	-16855
가지가	-16856
갔구요	-16857
갔아요	-16858
같아서	-16859
거리고	-16860
거면요	-16861
거보다	-16862
걸으로	-16863
겟다는	-16864
겠는가	-16865
겠슴다	-16866
격적인	-16867
공부는	-16868
공부할	-16869
과목도	-16870
과정을	-16871
교육의	-16872
교재는	-16873
구먼요	-16874
구장창	-16875
구조는	-16876
국인데	-16877
그래프	-16878
그랬어	-16879
그러게	-16880
그러지	-16881
그만큼	-16882
글에서	-16883
기간이	-16884
기도해	-16885
기싫어	-16886
기위해	-16887
기전에	-16888
기출은	-16889
끝나구	-16890
끝나면	-16891
나가서	-16892
나라의	-16893
나온다	-16894
나와서	-16895
납시다	-16896
났어요	-16897
났지만	-16898
내려가	-16899
노트를	-16900
는걸까	-16901
는지를	-16902
니다가	-16903
님처럼	-16904
다는건	-16905
다니구	-16906
다던데	-16907
단말야	-16908
단말임	-16909
대는거	-16910
대보다	-16911
던대요	-16912
데다가	-16913
돌아가	-16914
동아리	-16915
돼지않	-16916
됐네요	-16917
됐다는	-16918
됐으면	-16919
되거든	-16920
되겟지	-16921
되서요	-16922
된다구	-16923
될가요	-16924
될수있	-16925
두는게	-16926
드리구	-16927
드리기	-16928
드린거	-16929
드세요	-16930
들어도	-16931
들어보	-16932
떄문애	-16933
떄처럼	-16934
떨어지	-16935
라고요	-16936
라구요	-16937
라던지	-16938
라든지	-16939
려니까	-16940
력있는	-16941
리나요	-16942
리는거	-16943
리셔서	-16944
리지않	-16945
립시다	-16946
마스크	-16947
마음이	-16948
만큼의	-16949
맞으면	-16950
먹어야	-16951
모아서	-16952
무리고	-16953
문제도	-16954
문제룰	-16955
문제만	-16956
문학이	-16957
문화에	-16958
받거나	-16959
받아요	-16960
방식을	-16961
버리구	-16962
범위를	-16963
보여요	-16964
보인다	-16965
봣는데	-16966
봤다고	-16967
부분은	-16968
부정을	-16969
분들도	-16970
붙이는	-16971
빠르게	-16972
사건이	-16973
사람을	-16974
사람의	-16975
사로서	-16976
사무소	-16977
사실을	-16978
사피엔	-16979
사하는	-16980
살아서	-16981
상담을	-16982
상으로	-16983
상인데	-16984
상태가	-16985
새대는	-16986
생각에	-16987
생각은	-16988
생활에	-16989
셧으면	-16990
속도를	-16991
수업을	-16992
수없는	-16993
수학에	-16994
스으로	-16995
시기에	-16996
시는걸	-16997
시켜주	-16998
시키고	-16999
실험부	-17000
싫어서	-17001
아니니	-17002
아지지	-17003
안에서	-17004
안한다	-17005
알려주	-17006
알아서	-17007
앗서요	-17008
았구나	-17009
야겠네	-17010
야겠니	-17011
양으로	-17012
어떠케	-17013
어떡게	-17014
어졌다	-17015
언니랑	-17016
없구요	-17017
엇거든	-17018
었는대	-17019
었으니	-17020
었을걸	-17021
었을떄	-17022
에들어	-17023
연습을	-17024
열심히	-17025
였다는	-17026
영어는	-17027
오는게	-17028
운데요	-17029
워지기	-17030
으라는	-17031
으로저	-17032
으신게	-17033
을가요	-17034
을통해	-17035
의미가	-17036
이런거	-17037
이렇게	-17038
이론에	-17039
이름이	-17040
이어도	-17041
이없다	-17042
이었고	-17043
이었기	-17044
이었나	-17045
이었을	-17046
이여도	-17047
인거죠	-17048
인걸로	-17049
인이나	-17050
인이랑	-17051
인처럼	-17052
일어날	-17053
입시는	-17054
있거나	-17055
있다고	-17056
있다면	-17057
있어도	-17058
있어욥	-17059
있었다	-17060
있을거	-17061
자들두	-17062
자로서	-17063
자분의	-17064
작업에	-17065
잡아서	-17066
저작권	-17067
전까지	-17068
전부터	-17069
전인데	-17070
점이나	-17071
정까지	-17072
정도의	-17073
정리를	-17074
정책은	-17075
정책을	-17076
주셔야	-17077
주인이	-17078
줍니다	-17079
줍시다	-17080
중국어	-17081
지는데	-17082
지더라	-17083
지않고	-17084
지않나	-17085
지않음	-17086
지역은	-17087
진료소	-17088
쪽에서	-17089
처럼요	-17090
출해서	-17091
치고는	-17092
치다가	-17093
치워야	-17094
친구가	-17095
타면서	-17096
테니가	-17097
테스트	-17098
통해서	-17099
투자를	-17100
틀렸어	-17101
파이어	-17102
판단을	-17103
포트를	-17104
풀면서	-17105
하겟다	-17106
하겠어	-17107
하구있	-17108
하나두	-17109
하니요	-17110
하려는	-17111
하신게	-17112
하자구	-17113
하잔아	-17114
한거임	-17115
한테나	-17116
할거라	-17117
할건지	-17118
할듯해	-17119
할려면	-17120
할텐데	-17121
해놨다	-17122
해두고	-17123
해면서	-17124
해보려	-17125
해서인	-17126
해석을	-17127
해야해	-17128
해저서	-17129
해주셨	-17130
해진거	-17131
해하는	-17132
햇는디	-17133
햇다가	-17134
했고요	-17135
했구요	-17136
했어야	-17137
했었다	-17138
했었어	-17139
허다가	-17140
헸는데	-17141
회사에	-17142
히다가	-17143
힙니다	-17144
..!!	-17145
▁가는한	-17146
▁가더라	-17147
▁가독성	-17148
▁가리구	-17149
▁가보구	-17150
▁가봤어	-17151
▁가설을	-17152
▁가이드	-17153
▁가족이	-17154
▁가지게	-17155
▁가지는	-17156
▁가지를	-17157
▁가지면	-17158
▁가치가	-17159
▁간격이	-17160
▁간다면	-17161
▁간호사	-17162
▁갈거면	-17163
▁갈수잇	-17164
▁값으로	-17165
▁갔다오	-17166
▁강도가	-17167
▁강의나	-17168
▁강의랑	-17169
▁같구요	-17170
▁같아선	-17171
▁같지도	-17172
▁개념원	-17173
▁개발자	-17174
▁갠차는	-17175
▁걔네랑	-17176
▁거까진	-17177
▁거꾸로	-17178
▁거래요	-17179
▁거리는	-17180
▁거면요	-17181
▁거셔서	-17182
▁거였음	-17183
▁건드리	-17184
▁건전한	-17185
▁건지도	-17186
▁걸로요	-17187
▁걸리지	-17188
▁검찰이	-17189
▁것이죠	-17190
▁것중에	-17191
▁게으름	-17192
▁결과창	-17193
▁결제는	-17194
▁결함이	-17195
▁결합된	-17196
▁겸해서	-17197
▁경계를	-17198
▁경영에	-17199
▁경향을	-17200
▁경험담	-17201
▁고맙다	-17202
▁고민에	-17203
▁고민인	-17204
▁고생했	-17205
▁고인물	-17206
▁공감해	-17207
▁공격을	-17208
▁공부비	-17209
▁공지가	-17210
▁공지를	-17211
▁과대를	-17212
▁과목명	-17213
▁과제랑	-17214
▁과학의	-17215
▁관리는	-17216
▁관리를	-17217
▁관리형	-17218
▁괜차나	-17219
▁교양을	-17220
▁교재와	-17221
▁교직이	-17222
▁구성이	-17223
▁구어체	-17224
▁구조는	-17225
▁구해야	-17226
▁국민이	-17227
▁군대가	-17228
▁군대는	-17229
▁군대에	-17230
▁궁금했	-17231
▁권으로	-17232
▁그거도	-17233
▁그것은	-17234
▁그때도	-17235
▁그떄도	-17236
▁그러네	-17237
▁그럴까	-17238
▁그럴떄	-17239
▁그려서	-17240
▁그려야	-17241
▁그리거	-17242
▁그분들	-17243
▁근데도	-17244
▁글까지	-17245
▁글로벌	-17246
▁글시체	-17247
▁글이었	-17248
▁글자수	-17249
▁금욜에	-17250
▁기간은	-17251
▁기다려	-17252
▁기르는	-17253
▁기말에	-17254
▁기미가	-17255
▁기분을	-17256
▁기술에	-17257
▁기준에	-17258
▁기초는	-17259
▁긴장돼	-17260
▁깨끗이	-17261
▁꿀팁을	-17262
▁끊겨서	-17263
▁끌리는	-17264
▁끗난다	-17265
▁끝나는	-17266
▁끝났을	-17267
▁나가시	-17268
▁나눠져	-17269
▁나라의	-17270
▁나랑은	-17271
▁나빠질	-17272
▁나쁘면	-17273
▁나오긴	-17274
▁나오길	-17275
▁나을까	-17276
▁나이도	-17277
▁나처럼	-17278
▁나타났	-17279
▁날마다	-17280
▁날씨도	-17281
▁날아가	-17282
▁날이라	-17283
▁날짜가	-17284
▁남은게	-17285
▁남자애	-17286
▁낭비인	-17287
▁내년애	-17288
▁내버려	-17289
▁냄새가	-17290
▁너머갈	-17291
▁넓히고	-17292
▁넘어갔	-17293
▁넣어보	-17294
▁넣어요	-17295
▁노려보	-17296
▁노력한	-17297
▁노리는	-17298
▁논문도	-17299
▁놀라운	-17300
▁놀러도	-17301
▁놀러오	-17302
▁놀아주	-17303
▁높다고	-17304
▁높아진	-17305
▁놓았다	-17306
▁누구는	-17307
▁누르고	-17308
▁눈치를	-17309
▁뉴런을	-17310
▁느끼긴	-17311
▁느끼신	-17312
▁느낌일	-17313
▁느리게	-17314
▁늘려야	-17315
▁다갗이	-17316
▁다녀간	-17317
▁다녀요	-17318
▁다니구	-17319
▁다르긴	-17320
▁다르죠	-17321
▁다른건	-17322
▁다른걸	-17323
▁다른과	-17324
▁다하구	-17325
▁다해야	-17326
▁다해요	-17327
▁단계를	-17328
▁단백질	-17329
▁단어책	-17330
▁달려요	-17331
▁달리고	-17332
▁달면서	-17333
▁답니다	-17334
▁답장도	-17335
▁답하는	-17336
▁당하고	-17337
▁대부뷴	-17338
▁대신에	-17339
▁대학붙	-17340
▁대헤서	-17341
▁더러운	-17342
▁더럽게	-17343
▁더운게	-17344
▁데까지	-17345
▁데다가	-17346
▁도달할	-17347
▁도루묵	-17348
▁도박수	-17349
▁도입한	-17350
▁도장이	-17351
▁도전한	-17352
▁돈이랑	-17353
▁동네에	-17354
▁동선이	-17355
▁동시간	-17356
▁동안에	-17357
▁동안은	-17358
▁돼는거	-17359
▁됐으면	-17360
▁되느냐	-17361
▁되는것	-17362
▁되는대	-17363
▁되려나	-17364
▁되셨던	-17365
▁되었어	-17366
▁되지않	-17367
▁된대요	-17368
▁됩니까	-17369
▁두가지	-17370
▁드리기	-17371
▁드세요	-17372
▁든다고	-17373
▁듣고요	-17374
▁들려서	-17375
▁들어옴	-17376
▁들어있	-17377
▁들이지	-17378
▁등급은	-17379
▁등록한	-17380
▁등에서	-17381
▁따라잡	-17382
▁따르는	-17383
▁따지는	-17384
▁딴사람	-17385
▁딴생각	-17386
▁때문이	-17387
▁때문인	-17388
▁때보다	-17389
▁때에도	-17390
▁뚫어보	-17391
▁뛰어난	-17392
▁뛰어들	-17393
▁뜻인지	-17394
▁라이프	-17395
▁마당에	-17396
▁마땅한	-17397
▁마리씩	-17398
▁마약을	-17399
▁마음도	-17400
▁마음의	-17401
▁마케팅	-17402
▁만나고	-17403
▁만드신	-17404
▁만든다	-17405
▁만든대	-17406
▁만화를	-17407
▁많고요	-17408
▁많더라	-17409
▁많아졌	-17410
▁많으셨	-17411
▁말들이	-17412
▁말라는	-17413
▁말이요	-17414
▁말자는	-17415
▁말하지	-17416
▁말했어	-17417
▁망가뜨	-17418
▁망했어	-17419
▁맞다는	-17420
▁맞아도	-17421
▁맞으신	-17422
▁맞추신	-17423
▁맞히면	-17424
▁맬버른	-17425
▁먹는거	-17426
▁먹어야	-17427
▁먹었다	-17428
▁멋대로	-17429
▁메모해	-17430
▁멜버른	-17431
▁며칠이	-17432
▁몇까지	-17433
▁몇등급	-17434
▁몇시에	-17435
▁몇학년	-17436
▁모국어	-17437
▁모자랄	-17438
▁목욜에	-17439
▁목표면	-17440
▁몰랐어	-17441
▁몰랐지	-17442
▁못느끼	-17443
▁못마땅	-17444
▁못받았	-17445
▁못보는	-17446
▁못봤다	-17447
▁못푸는	-17448
▁못풀면	-17449
▁못하지	-17450
▁못한거	-17451
▁못할까	-17452
▁못햇다	-17453
▁못했다	-17454
▁무슨말	-17455
▁무시한	-17456
▁문단에	-17457
▁문법도	-17458
▁문이과	-17459
▁문자가	-17460
▁문장은	-17461
▁문장의	-17462
▁문제라	-17463
▁문제야	-17464
▁문학이	-17465
▁물려주	-17466
▁물타기	-17467
▁뭐냐고	-17468
▁뭐냐면	-17469
▁뭐예요	-17470
▁미치는	-17471
▁믿겠어	-17472
▁바꾸지	-17473
▁바꿨어	-17474
▁반복이	-17475
▁반이나	-17476
▁받네요	-17477
▁받는게	-17478
▁받아본	-17479
▁받아볼	-17480
▁받아줬	-17481
▁받았고	-17482
▁발전할	-17483
▁발표할	-17484
▁밝혀야	-17485
▁밥먹구	-17486
▁방식에	-17487
▁방안에	-17488
▁방안이	-17489
▁배운다	-17490
▁배울떄	-17491
▁버릇이	-17492
▁버리구	-17493
▁범위에	-17494
▁벼락치	-17495
▁변경을	-17496
▁변리사	-17497
▁변인이	-17498
▁병행을	-17499
▁병행해	-17500
▁보기가	-17501
▁보기에	-17502
▁보내도	-17503
▁보냈지	-17504
▁보니가	-17505
▁보니꺼	-17506
▁보상이	-17507
▁보시나	-17508
▁보장해	-17509
▁보험도	-17510
▁복습도	-17511
▁복지가	-17512
▁본인을	-17513
▁본적이	-17514
▁볼수록	-17515
▁봅니디	-17516
▁봐서요	-17517
▁봐야겠	-17518
▁봤다는	-17519
▁봤어도	-17520
▁뵀으면	-17521
▁부담이	-17522
▁부작용	-17523
▁부지런	-17524
▁분들에	-17525
▁분야가	-17526
▁분야는	-17527
▁분이랑	-17528
▁불리는	-17529
▁불리한	-17530
▁불합리	-17531
▁붙이고	-17532
▁비우고	-17533
▁비율을	-17534
▁비자가	-17535
▁비추천	-17536
▁비행기	-17537
▁빌려주	-17538
▁빠지는	-17539
▁빡세서	-17540
▁빡시게	-17541
▁사건의	-17542
▁사고가	-17543
▁사라져	-17544
▁사람과	-17545
▁사람임	-17546
▁사리고	-17547
▁사이는	-17548
▁사전에	-17549
▁사주신	-17550
▁사진들	-17551
▁사회는	-17552
▁산책도	-17553
▁살더라	-17554
▁상대로	-17555
▁상상도	-17556
▁상승이	-17557
▁상의해	-17558
▁상황의	-17559
▁상황인	-17560
▁새학기	-17561
▁생각햇	-17562
▁생겼다	-17563
▁생기게	-17564
▁생긴건	-17565
▁샤프심	-17566
▁서사에	-17567
▁서울도	-17568
▁선배가	-17569
▁선배의	-17570
▁선지는	-17571
▁성과가	-17572
▁성의껏	-17573
▁세무는	-17574
▁세우는	-17575
▁소름돋	-17576
▁소리도	-17577
▁소비를	-17578
▁소용이	-17579
▁소원이	-17580
▁소품을	-17581
▁속도를	-17582
▁솔찌키	-17583
▁수능보	-17584
▁수시에	-17585
▁수정이	-17586
▁수준은	-17587
▁수학의	-17588
▁숙제를	-17589
▁순서를	-17590
▁스케쥴	-17591
▁스프레	-17592
▁슬프게	-17593
▁슬프다	-17594
▁시간단	-17595
▁시간포	-17596
▁시력이	-17597
▁시비거	-17598
▁시신을	-17599
▁시키진	-17600
▁시퍼요	-17601
▁신청할	-17602
▁신촌에	-17603
▁실무에	-17604
▁실으면	-17605
▁싫네요	-17606
▁싫어도	-17607
▁싫어지	-17608
▁싫었나	-17609
▁심한데	-17610
▁심해지	-17611
▁싶어지	-17612
▁싶은건	-17613
▁쌓이는	-17614
▁쓸만한	-17615
▁아깝다	-17616
▁아녜요	-17617
▁아는게	-17618
▁아니였	-17619
▁아닌게	-17620
▁아들을	-17621
▁아들이	-17622
▁아이들	-17623
▁아침을	-17624
▁아파요	-17625
▁아프지	-17626
▁아픈거	-17627
▁안가서	-17628
▁안가져	-17629
▁안나고	-17630
▁안나왔	-17631
▁안대는	-17632
▁안돼면	-17633
▁안되구	-17634
▁안듣구	-17635
▁안떠서	-17636
▁안보는	-17637
▁안보이	-17638
▁안아프	-17639
▁안에는	-17640
▁안와서	-17641
▁안좋게	-17642
▁안해두	-17643
▁않겠지	-17644
▁않는데	-17645
▁않았을	-17646
▁않을거	-17647
▁않을것	-17648
▁알겠어	-17649
▁알람을	-17650
▁알아내	-17651
▁알아먹	-17652
▁압니다	-17653
▁애드를	-17654
▁애들만	-17655
▁약대에	-17656
▁약속은	-17657
▁약점을	-17658
▁얘기냐	-17659
▁어떤걸	-17660
▁어렵따	-17661
▁어째서	-17662
▁어쩔수	-17663
▁언급이	-17664
▁언니랑	-17665
▁언제가	-17666
▁얻어가	-17667
▁없기에	-17668
▁없는것	-17669
▁없다가	-17670
▁없더라	-17671
▁없으셨	-17672
▁여기지	-17673
▁여부는	-17674
▁여태는	-17675
▁여하튼	-17676
▁역할을	-17677
▁연대를	-17678
▁연락이	-17679
▁연락한	-17680
▁연습의	-17681
▁열시미	-17682
▁열신히	-17683
▁열씨미	-17684
▁염두에	-17685
▁영어책	-17686
▁예습을	-17687
▁오느라	-17688
▁오늘날	-17689
▁오니까	-17690
▁오르고	-17691
▁오르니	-17692
▁올랐던	-17693
▁올리구	-17694
▁올린거	-17695
▁올린게	-17696
▁올릴까	-17697
▁옮겨야	-17698
▁옵니다	-17699
▁와야지	-17700
▁완강이	-17701
▁왔다고	-17702
▁왔다는	-17703
▁왔으면	-17704
▁왔을때	-17705
▁왜이러	-17706
▁왜이리	-17707
▁왜자꾸	-17708
▁왠만한	-17709
▁외웠어	-17710
▁욕하고	-17711
▁욕한다	-17712
▁움직여	-17713
▁웃기네	-17714
▁웃기니	-17715
▁원서쓸	-17716
▁위기에	-17717
▁위로해	-17718
▁위치가	-17719
▁유리한	-17720
▁유형도	-17721
▁음식을	-17722
▁의도는	-17723
▁의문을	-17724
▁의미로	-17725
▁의미를	-17726
▁의심치	-17727
▁의욕도	-17728
▁의지로	-17729
▁의치대	-17730
▁이동할	-17731
▁이래도	-17732
▁이러고	-17733
▁이러기	-17734
▁이러니	-17735
▁이럴떄	-17736
▁이론이	-17737
▁이상의	-17738
▁이상할	-17739
▁이시간	-17740
▁이용한	-17741
▁이용할	-17742
▁이용해	-17743
▁이후는	-17744
▁익혀야	-17745
▁인가요	-17746
▁인기가	-17747
▁인생이	-17748
▁인해서	-17749
▁일까지	-17750
▁일반적	-17751
▁일본에	-17752
▁일이랑	-17753
▁일하게	-17754
▁읽어도	-17755
▁읽히는	-17756
▁잃어버	-17757
▁입장이	-17758
▁입학키	-17759
▁잇다는	-17760
▁잇서서	-17761
▁잇어도	-17762
▁잇으면	-17763
▁잇을거	-17764
▁있거나	-17765
▁있기를	-17766
▁있냐고	-17767
▁있는건	-17768
▁있따는	-17769
▁있었지	-17770
▁있을거	-17771
▁있을걸	-17772
▁있을것	-17773
▁자거나	-17774
▁자극받	-17775
▁자기랑	-17776
▁자는데	-17777
▁자랑해	-17778
▁자신도	-17779
▁자잘한	-17780
▁자제해	-17781
▁작업을	-17782
▁잘나왔	-17783
▁잘되는	-17784
▁잘라서	-17785
▁잘맞는	-17786
▁잘못을	-17787
▁잘보면	-17788
▁잘쓰고	-17789
▁잠드는	-17790
▁잡는데	-17791
▁잡아내	-17792
▁잡아도	-17793
▁장관이	-17794
▁장에서	-17795
▁재밌고	-17796
▁재밌네	-17797
▁재밌음	-17798
▁재밌지	-17799
▁재수한	-17800
▁저녁먹	-17801
▁저오늘	-17802
▁저증에	-17803
▁저지를	-17804
▁적고요	-17805
▁적어둔	-17806
▁적어야	-17807
▁적합한	-17808
▁전까진	-17809
▁전략에	-17810
▁전문의	-17811
▁전반에	-17812
▁전형이	-17813
▁절댓값	-17814
▁점수와	-17815
▁정답은	-17816
▁정답을	-17817
▁정도씩	-17818
▁정리도	-17819
▁정리된	-17820
▁정시는	-17821
▁정시에	-17822
▁정치도	-17823
▁정해보	-17824
▁제국의	-17825
▁제트축	-17826
▁제품에	-17827
▁조건은	-17828
▁조심해	-17829
▁졸리지	-17830
▁졸린데	-17831
▁졸릴때	-17832
▁졸업후	-17833
▁좋겠음	-17834
▁좋은거	-17835
▁좋은것	-17836
▁좋을까	-17837
▁좋지도	-17838
▁주문이	-17839
▁주셔도	-17840
▁주셔야	-17841
▁주워오	-17842
▁주장도	-17843
▁주제는	-17844
▁주제도	-17845
▁주중에	-17846
▁죽겠다	-17847
▁준다는	-17848
▁줄여야	-17849
▁중고딩	-17850
▁중공군	-17851
▁중립화	-17852
▁중요해	-17853
▁줬어요	-17854
▁줬으면	-17855
▁즐기고	-17856
▁지각할	-17857
▁지나치	-17858
▁지문도	-17859
▁지어야	-17860
▁지역의	-17861
▁지우면	-17862
▁지장이	-17863
▁지키게	-17864
▁지키고	-17865
▁진료소	-17866
▁진심인	-17867
▁진찌열	-17868
▁질문들	-17869
▁질문받	-17870
▁질투를	-17871
▁집갈때	-17872
▁집으로	-17873
▁집중안	-17874
▁쪽에도	-17875
▁쪽이라	-17876
▁쫄려서	-17877
▁찍으러	-17878
▁차려서	-17879
▁차려야	-17880
▁차원이	-17881
▁차이나	-17882
▁차이도	-17883
▁차이인	-17884
▁참으로	-17885
▁찾아뵈	-17886
▁채권이	-17887
▁채우신	-17888
▁책들이	-17889
▁책임지	-17890
▁챙겨야	-17891
▁챙겨주	-17892
▁쳐봐야	-17893
▁총정리	-17894
▁최고차	-17895
▁추측해	-17896
▁출근도	-17897
▁충북대	-17898
▁취업을	-17899
▁치대가	-17900
▁치료도	-17901
▁친목질	-17902
▁칭찬해	-17903
▁카드를	-17904
▁카페를	-17905
▁케이크	-17906
▁코드는	-17907
▁크다는	-17908
▁키우는	-17909
▁키트도	-17910
▁킥보드	-17911
▁타이핑	-17912
▁터지고	-17913
▁털어내	-17914
▁투자한	-17915
▁틀려서	-17916
▁틀려야	-17917
▁틀렸다	-17918
▁틀린건	-17919
▁틀린게	-17920
▁틀어두	-17921
▁틈틈히	-17922
▁티브이	-17923
▁팔아요	-17924
▁편입은	-17925
▁표시한	-17926
▁표시해	-17927
▁표현은	-17928
▁푸는건	-17929
▁푸는걸	-17930
▁푸러서	-17931
▁푸시업	-17932
▁풀겠다	-17933
▁풀때는	-17934
▁풀라고	-17935
▁풀러야	-17936
▁풀려있	-17937
▁풀었고	-17938
▁풀이할	-17939
▁풉니다	-17940
▁피곤한	-17941
▁피눈물	-17942
▁피우는	-17943
▁필리핀	-17944
▁필수적	-17945
▁하게되	-17946
▁하겠어	-17947
▁하고있	-17948
▁하냐고	-17949
▁하반기	-17950
▁하셨고	-17951
▁하셨다	-17952
▁하시지	-17953
▁하신거	-17954
▁하신다	-17955
▁하지는	-17956
▁학과가	-17957
▁학교만	-17958
▁학기를	-17959
▁학기중	-17960
▁학습자	-17961
▁학원과	-17962
▁학원은	-17963
▁학원이	-17964
▁학점도	-17965
▁한가지	-17966
▁한곳에	-17967
▁한국은	-17968
▁한극사	-17969
▁한극어	-17970
▁한단어	-17971
▁한대요	-17972
▁한두번	-17973
▁한명이	-17974
▁한문은	-17975
▁한바퀴	-17976
▁한번더	-17977
▁한번은	-17978
▁한사람	-17979
▁한편의	-17980
▁할거면	-17981
▁할텐데	-17982
▁함니다	-17983
▁합쳐진	-17984
▁해결할	-17985
▁해내자	-17986
▁해명할	-17987
▁해보구	-17988
▁해석해	-17989
▁해야돼	-17990
▁해야되	-17991
▁해운대	-17992
▁해주신	-17993
▁해준다	-17994
▁해줄게	-17995
▁해치우	-17996
▁햇고요	-17997
▁햇었죠	-17998
▁햇으면	-17999
▁햇지만	-18000
▁했냐고	-18001
▁했었어	-18002
▁했으니	-18003
▁향상에	-18004
▁헷갈려	-18005
▁현상은	-18006
▁현황을	-18007
▁혜택이	-18008
▁호옥시	-18009
▁혼자가	-18010
▁화나는	-18011
▁화려한	-18012
▁화면을	-18013
▁화학도	-18014
▁회독할	-18015
▁후배가	-18016
▁흥미가	-18017
▁힘내자	-18018
▁힘들거	-18019
▁힘들었	-18020
▁힘으로	-18021
가는성이	-18022
가다보면	-18023
갔는데요	-18024
거가튼데	-18025
거갇아요	-18026
거같다는	-18027
것같타요	-18028
것입니다	-18029
고싶네요	-18030
고싶지만	-18031
과정에서	-18032
그러더라	-18033
기간동안	-18034
기떄문에	-18035
긴하지만	-18036
다기보단	-18037
다니다가	-18038
달라는데	-18039
댔는데요	-18040
되거든요	-18041
되어잇다	-18042
되었다고	-18043
된다는데	-18044
드릴까요	-18045
들어간다	-18046
들으면서	-18047
바야겠다	-18048
버려야지	-18049
버리는게	-18050
버린다는	-18051
보다보니	-18052
비슷하고	-18053
뿐입니다	-18054
사람들도	-18055
사전에는	-18056
생각해요	-18057
서버에서	-18058
셨습니다	-18059
수도잇어	-18060
수인나요	-18061
수있나요	-18062
스러워서	-18063
싶어서요	-18064
싶은데요	-18065
아니에요	-18066
어가지고	-18067
었씁니다	-18068
었었는데	-18069
에대해서	-18070
에대헤서	-18071
였답니다	-18072
용하면서	-18073
우셨나요	-18074
으니가요	-18075
으려나요	-18076
을거라구	-18077
이었으면	-18078
입국자녀	-18079
있는사람	-18080
있었어요	-18081
자입니다	-18082
적이었다	-18083
전형으로	-18084
주셨으면	-18085
줘야해요	-18086
지말라구	-18087
지안는다	-18088
진다는데	-18089
테니가요	-18090
테니까요	-18091
투성이다	-18092
하겠다는	-18093
하고있는	-18094
하구싶은	-18095
하는말이	-18096
하는애들	-18097
하는지에	-18098
하던대요	-18099
하려다가	-18100
하시기도	-18101
하시다가	-18102
하잖아요	-18103
한국어를	-18104
한다고는	-18105
한다니까	-18106
할수있는	-18107
합격하고	-18108
해보는게	-18109
해보시면	-18110
해야해요	-18111
해주는게	-18112
해질까봐	-18113
햇씁니다	-18114
햇었어요	-18115
했거든요	-18116
허시나요	-18117
▁가고싶은	-18118
▁가끔가다	-18119
▁가능성은	-18120
▁가능이야	-18121
▁가능한가	-18122
▁가독성을	-18123
▁가르쳐야	-18124
▁가르쳐주	-18125
▁가버렸어	-18126
▁감안하면	-18127
▁강의계획	-18128
▁같으세요	-18129
▁같은것도	-18130
▁같이하는	-18131
▁개강하면	-18132
▁개념이나	-18133
▁개념인강	-18134
▁개설되어	-18135
▁걔시나요	-18136
▁거라고는	-18137
▁거라면서	-18138
▁거리두기	-18139
▁거리라고	-18140
▁거잖아요	-18141
▁거주하는	-18142
▁걱정되는	-18143
▁건강식품	-18144
▁건드려보	-18145
▁걸리는데	-18146
▁검은색이	-18147
▁것만으로	-18148
▁것이여요	-18149
▁게시물로	-18150
▁게임하고	-18151
▁게임하는	-18152
▁경영학부	-18153
▁경우에도	-18154
▁경제학과	-18155
▁경희대가	-18156
▁계산하는	-18157
▁계시네요	-18158
▁고대국가	-18159
▁고려대를	-18160
▁고려해보	-18161
▁고맙네요	-18162
▁고민이었	-18163
▁고양이를	-18164
▁공부게시	-18165
▁공부밖에	-18166
▁공부방법	-18167
▁공부클럽	-18168
▁과목들은	-18169
▁과목이랑	-18170
▁교수들이	-18171
▁교스님이	-18172
▁교원대를	-18173
▁구분하는	-18174
▁구성되어	-18175
▁국어국문	-18176
▁궁금했던	-18177
▁그것으로	-18178
▁그날까지	-18179
▁그대으로	-18180
▁그때까지	-18181
▁그래프를	-18182
▁그랬고요	-18183
▁그러니가	-18184
▁그러려고	-18185
▁그런건가	-18186
▁그런다고	-18187
▁그런데도	-18188
▁그럿다구	-18189
▁그립네요	-18190
▁그정도는	-18191
▁글씨연습	-18192
▁글이내요	-18193
▁금요일에	-18194
▁기간이랑	-18195
▁기다려보	-18196
▁기립박수	-18197
▁기말구사	-18198
▁기분나쁘	-18199
▁기억나고	-18200
▁기자들이	-18201
▁기출문재	-18202
▁꺼냈는데	-18203
▁꾸준히가	-18204
▁나거든요	-18205
▁나아가는	-18206
▁나아지고	-18207
▁나온다면	-18208
▁나타나는	-18209
▁나타난다	-18210
▁남부까지	-18211
▁낭비라고	-18212
▁낮아지는	-18213
▁내년에도	-18214
▁내려달라	-18215
▁내신반영	-18216
▁내신준비	-18217
▁내용인데	-18218
▁내재되어	-18219
▁내적친밀	-18220
▁내줬으면	-18221
▁너무나도	-18222
▁넘어가서	-18223
▁넣는다고	-18224
▁네이티브	-18225
▁노력만큼	-18226
▁노력했던	-18227
▁노트에다	-18228
▁노트정리	-18229
▁노트필기	-18230
▁논문들이	-18231
▁놈들이나	-18232
▁높은편이	-18233
▁누가봐도	-18234
▁누군가가	-18235
▁누군가의	-18236
▁누웠어요	-18237
▁느꼈으면	-18238
▁느끼시는	-18239
▁늘어나구	-18240
▁늘어지는	-18241
▁늦어지고	-18242
▁늦었네요	-18243
▁다녀오는	-18244
▁다닌다고	-18245
▁다닙니다	-18246
▁다른것도	-18247
▁다시한번	-18248
▁다음학기	-18249
▁달려오는	-18250
▁닮았다고	-18251
▁답답하고	-18252
▁당연한거	-18253
▁대답하고	-18254
▁대략적인	-18255
▁대비하는	-18256
▁대비하여	-18257
▁대신해서	-18258
▁대학가고	-18259
▁도서관에	-18260
▁도와주고	-18261
▁돌린다는	-18262
▁동갑이고	-18263
▁동아리가	-18264
▁동아리를	-18265
▁동안에는	-18266
▁됐습니다	-18267
▁되신다니	-18268
▁되었네요	-18269
▁되었다고	-18270
▁되었다니	-18271
▁될겁니다	-18272
▁드리자면	-18273
▁듣습니다	-18274
▁들어간다	-18275
▁들어보니	-18276
▁들어오게	-18277
▁들엇는데	-18278
▁듯해서요	-18279
▁디자인이	-18280
▁따라서도	-18281
▁때문이죠	-18282
▁때문인지	-18283
▁떄문이죠	-18284
▁떠오르지	-18285
▁뜻인가요	-18286
▁띄어쓰기	-18287
▁리스트에	-18288
▁리포트를	-18289
▁마나서요	-18290
▁마스크공	-18291
▁마스크도	-18292
▁마스크안	-18293
▁마음먹고	-18294
▁마음속에	-18295
▁만든건데	-18296
▁만들어보	-18297
▁많거든요	-18298
▁많던데요	-18299
▁많습니디	-18300
▁많아서요	-18301
▁많아지고	-18302
▁많아진다	-18303
▁많았잖아	-18304
▁많이해서	-18305
▁말뭉치를	-18306
▁말씀대로	-18307
▁말씀드렸	-18308
▁말아야지	-18309
▁말하는게	-18310
▁말하는데	-18311
▁망했네요	-18312
▁망했지만	-18313
▁맞는다면	-18314
▁맞습나다	-18315
▁맞씁니다	-18316
▁맞았어요	-18317
▁맞으시면	-18318
▁맞춰두고	-18319
▁먹었어요	-18320
▁메모리에	-18321
▁명예훼손	-18322
▁명이서도	-18323
▁몇분정도	-18324
▁모르네요	-18325
▁모르면서	-18326
▁목표하는	-18327
▁못드려서	-18328
▁못하니까	-18329
▁못합니다	-18330
▁못햇는데	-18331
▁못했네요	-18332
▁무시하는	-18333
▁무작위로	-18334
▁무턱대고	-18335
▁문제라는	-18336
▁문제라도	-18337
▁문제부터	-18338
▁문제집에	-18339
▁물리화학	-18340
▁물어보구	-18341
▁물어보신	-18342
▁물어봐서	-18343
▁뭐그런거	-18344
▁뭐였는지	-18345
▁믿을수가	-18346
▁밀렸는데	-18347
▁바꾸는게	-18348
▁바뀌었네	-18349
▁바뀌었다	-18350
▁반복하다	-18351
▁반영되는	-18352
▁받습니다	-18353
▁받아들였	-18354
▁받아주는	-18355
▁받으면서	-18356
▁받으세요	-18357
▁받으시고	-18358
▁발생하는	-18359
▁발표자가	-18360
▁발표자료	-18361
▁발표하고	-18362
▁밤새우고	-18363
▁방법이요	-18364
[...]
